{
  "version": "1.0",
  "truncation": {
    "direction": "Right",
    "max_length": 70,
    "strategy": "LongestFirst",
    "stride": 0
  },
  "padding": {
    "strategy": {
      "Fixed": 70
    },
    "direction": "Right",
    "pad_to_multiple_of": null,
    "pad_id": 1,
    "pad_type_id": 0,
    "pad_token": "[PAD]"
  },
  "added_tokens": [
    {
      "id": 0,
      "content": "[UNK]",
      "single_word": false,
      "lstrip": false,
      "rstrip": false,
      "normalized": false,
      "special": true
    },
    {
      "id": 1,
      "content": "[BOS]",
      "single_word": false,
      "lstrip": false,
      "rstrip": false,
      "normalized": false,
      "special": true
    },
    {
      "id": 2,
      "content": "[EOS]",
      "single_word": false,
      "lstrip": false,
      "rstrip": false,
      "normalized": false,
      "special": true
    },
    {
      "id": 3,
      "content": "[PAD]",
      "single_word": false,
      "lstrip": false,
      "rstrip": false,
      "normalized": false,
      "special": true
    }
  ],
  "normalizer": null,
  "pre_tokenizer": {
    "type": "Whitespace"
  },
  "post_processor": null,
  "decoder": null,
  "model": {
    "type": "BPE",
    "dropout": null,
    "unk_token": "[UNK]",
    "continuing_subword_prefix": null,
    "end_of_word_suffix": null,
    "fuse_unk": false,
    "byte_fallback": false,
    "vocab": {
      "[UNK]": 0,
      "[BOS]": 1,
      "[EOS]": 2,
      "[PAD]": 3,
      "\u0001": 4,
      "!": 5,
      "\"": 6,
      "#": 7,
      "$": 8,
      "%": 9,
      "&": 10,
      "'": 11,
      "(": 12,
      ")": 13,
      "*": 14,
      "+": 15,
      ",": 16,
      "-": 17,
      ".": 18,
      "/": 19,
      "0": 20,
      "1": 21,
      "2": 22,
      "3": 23,
      "4": 24,
      "5": 25,
      "6": 26,
      "7": 27,
      "8": 28,
      "9": 29,
      ":": 30,
      ";": 31,
      "<": 32,
      "=": 33,
      ">": 34,
      "?": 35,
      "@": 36,
      "A": 37,
      "B": 38,
      "C": 39,
      "D": 40,
      "E": 41,
      "F": 42,
      "G": 43,
      "H": 44,
      "I": 45,
      "J": 46,
      "K": 47,
      "L": 48,
      "M": 49,
      "N": 50,
      "O": 51,
      "P": 52,
      "Q": 53,
      "R": 54,
      "S": 55,
      "T": 56,
      "U": 57,
      "V": 58,
      "W": 59,
      "X": 60,
      "Y": 61,
      "Z": 62,
      "[": 63,
      "\\": 64,
      "]": 65,
      "^": 66,
      "_": 67,
      "`": 68,
      "a": 69,
      "b": 70,
      "c": 71,
      "d": 72,
      "e": 73,
      "f": 74,
      "g": 75,
      "h": 76,
      "i": 77,
      "j": 78,
      "k": 79,
      "l": 80,
      "m": 81,
      "n": 82,
      "o": 83,
      "p": 84,
      "q": 85,
      "r": 86,
      "s": 87,
      "t": 88,
      "u": 89,
      "v": 90,
      "w": 91,
      "x": 92,
      "y": 93,
      "z": 94,
      "{": 95,
      "|": 96,
      "}": 97,
      "~": 98,
      "あ": 99,
      "se": 100,
      "in": 101,
      "or": 102,
      "te": 103,
      "re": 104,
      "on": 105,
      "de": 106,
      "sel": 107,
      "self": 108,
      "al": 109,
      "st": 110,
      "me": 111,
      "at": 112,
      "le": 113,
      "an": 114,
      "ar": 115,
      "ti": 116,
      "ur": 117,
      "er": 118,
      "ge": 119,
      "if": 120,
      "ue": 121,
      "fi": 122,
      "el": 123,
      "mp": 124,
      "for": 125,
      "la": 126,
      "def": 127,
      "t_": 128,
      "ce": 129,
      "val": 130,
      "ame": 131,
      "co": 132,
      "ro": 133,
      "li": 134,
      "name": 135,
      "ret": 136,
      "urn": 137,
      "return": 138,
      "tr": 139,
      "__": 140,
      "en": 141,
      "con": 142,
      "ss": 143,
      "ing": 144,
      "ch": 145,
      "one": 146,
      "ex": 147,
      "lo": 148,
      "value": 149,
      "no": 150,
      "is": 151,
      "d_": 152,
      "th": 153,
      "ap": 154,
      "un": 155,
      "ter": 156,
      "ror": 157,
      "ort": 158,
      "None": 159,
      "ate": 160,
      "imp": 161,
      "and": 162,
      "arg": 163,
      "ut": 164,
      "di": 165,
      "ke": 166,
      "('": 167,
      "ct": 168,
      "tex": 169,
      "tion": 170,
      "import": 171,
      "su": 172,
      "ang": 173,
      "str": 174,
      "si": 175,
      "app": 176,
      "id": 177,
      "mo": 178,
      "nt": 179,
      "to": 180,
      "key": 181,
      "rom": 182,
      "get": 183,
      "list": 184,
      "from": 185,
      "op": 186,
      "pat": 187,
      "not": 188,
      "',": 189,
      "text": 190,
      "))": 191,
      "args": 192,
      "rror": 193,
      "file": 194,
      "jang": 195,
      "Error": 196,
      "jango": 197,
      "par": 198,
      "time": 199,
      "ad": 200,
      "eld": 201,
      "es": 202,
      "ta": 203,
      "form": 204,
      "ck": 205,
      "ata": 206,
      "path": 207,
      "ty": 208,
      "as": 209,
      "age": 210,
      "ai": 211,
      "set": 212,
      "ati": 213,
      "cla": 214,
      "ser": 215,
      "ver": 216,
      "ite": 217,
      "django": 218,
      "')": 219,
      "attr": 220,
      "data": 221,
      "ul": 222,
      "class": 223,
      "ls": 224,
      "ve": 225,
      "code": 226,
      "ase": 227,
      "else": 228,
      "ation": 229,
      "ne": 230,
      "der": 231,
      "sp": 232,
      "che": 233,
      "up": 234,
      "cep": 235,
      "ms": 236,
      "\"\"": 237,
      "date": 238,
      "bj": 239,
      "field": 240,
      "pe": 241,
      "ts": 242,
      "end": 243,
      "ment": 244,
      "get_": 245,
      "_name": 246,
      "late": 247,
      "ini": 248,
      "ig": 249,
      "url": 250,
      "os": 251,
      "aise": 252,
      "obj": 253,
      "raise": 254,
      "int": 255,
      "cal": 256,
      "ction": 257,
      "ma": 258,
      "excep": 259,
      "ble": 260,
      "len": 261,
      "ip": 262,
      "mplate": 263,
      "out": 264,
      "kw": 265,
      "error": 266,
      "Tr": 267,
      "\\\\": 268,
      "del": 269,
      "mb": 270,
      "mm": 271,
      "per": 272,
      "try": 273,
      "alse": 274,
      "True": 275,
      "()": 276,
      "dir": 277,
      "pa": 278,
      "pro": 279,
      "du": 280,
      "base": 281,
      "format": 282,
      "except": 283,
      "option": 284,
      "stan": 285,
      "string": 286,
      "s_": 287,
      "False": 288,
      "que": 289,
      "ssage": 290,
      "==": 291,
      "andle": 292,
      "kwargs": 293,
      "wr": 294,
      "df": 295,
      "t__": 296,
      "type": 297,
      "aul": 298,
      "dict": 299,
      "app_": 300,
      "stance": 301,
      "uti": 302,
      "ache": 303,
      "message": 304,
      "ol": 305,
      "instance": 306,
      "fe": 307,
      "**": 308,
      "']": 309,
      "fig": 310,
      "ren": 311,
      "da": 312,
      "ect": 313,
      "ting": 314,
      "Fi": 315,
      "defaul": 316,
      "oin": 317,
      "mmand": 318,
      "utils": 319,
      "put": 320,
      "lib": 321,
      "['": 322,
      "w_": 323,
      "pr": 324,
      "context": 325,
      "dule": 326,
      "ader": 327,
      "fix": 328,
      "options": 329,
      "sub": 330,
      "parser": 331,
      "fun": 332,
      "join": 333,
      "template": 334,
      "bu": 335,
      "six": 336,
      "__ini": 337,
      "__init__": 338,
      "bo": 339,
      "iter": 340,
      "ze": 341,
      "handle": 342,
      "qu": 343,
      "ore": 344,
      "No": 345,
      "ht": 346,
      "lin": 347,
      "ure": 348,
      "lab": 349,
      "tag": 350,
      "sa": 351,
      "lt": 352,
      "al_": 353,
      "label": 354,
      "_c": 355,
      "setting": 356,
      "nu": 357,
      "config": 358,
      "py": 359,
      "In": 360,
      "ce_": 361,
      "sy": 362,
      "Val": 363,
      "pre": 364,
      "has": 365,
      "fin": 366,
      "_re": 367,
      "wi": 368,
      "conte": 369,
      "Co": 370,
      "node": 371,
      "quest": 372,
      "ted": 373,
      "lter": 374,
      "valid": 375,
      "by": 376,
      "spli": 377,
      "tok": 378,
      "00": 379,
      "settings": 380,
      "ec": 381,
      "he": 382,
      "comp": 383,
      "'%": 384,
      "item": 385,
      "Mo": 386,
      "filter": 387,
      "append": 388,
      "all": 389,
      "''": 390,
      "sion": 391,
      "the": 392,
      "module": 393,
      "resu": 394,
      "ack": 395,
      "igr": 396,
      "se_": 397,
      "uni": 398,
      "E_": 399,
      "model": 400,
      "token": 401,
      "conne": 402,
      "datetime": 403,
      "isinstance": 404,
      "attrs": 405,
      "hel": 406,
      "oi": 407,
      "with": 408,
      "var": 409,
      "])": 410,
      "do": 411,
      "result": 412,
      "ie": 413,
      "lu": 414,
      "tes": 415,
      "sys": 416,
      "force_": 417,
      "split": 418,
      "local": 419,
      "connection": 420,
      "lamb": 421,
      "add_": 422,
      "func": 423,
      "lambda": 424,
      "T_": 425,
      "ator": 426,
      "text_": 427,
      "items": 428,
      "pass": 429,
      "rea": 430,
      "write": 431,
      "fo": 432,
      "request": 433,
      ".'": 434,
      "DE": 435,
      "ding": 436,
      "y_": 437,
      "ali": 438,
      "max": 439,
      "l_": 440,
      "migr": 441,
      "onse": 442,
      "pla": 443,
      "to_": 444,
      "oice": 445,
      "arn": 446,
      "Command": 447,
      "AT": 448,
      "sor": 449,
      "ape": 450,
      "it": 451,
      "ange": 452,
      "fields": 453,
      "ile": 454,
      "ok": 455,
      ".\"": 456,
      "inde": 457,
      "tp": 458,
      "print": 459,
      "ist": 460,
      "version": 461,
      "ument": 462,
      "coding": 463,
      "is_": 464,
      "super": 465,
      "object": 466,
      "lang": 467,
      "res": 468,
      "its": 469,
      "content": 470,
      "mat": 471,
      "Field": 472,
      "Ex": 473,
      "encoding": 474,
      "wid": 475,
      "default": 476,
      "ved": 477,
      "help": 478,
      "handler": 479,
      "back": 480,
      "argument": 481,
      "msg": 482,
      "urllib": 483,
      "error_": 484,
      "Base": 485,
      "add": 486,
      "cape": 487,
      "'-": 488,
      "ord": 489,
      "check": 490,
      "IN": 491,
      "\"\"\"": 492,
      "so": 493,
      "())": 494,
      "Re": 495,
      "cur": 496,
      "index": 497,
      "new_": 498,
      "po": 499,
      "of": 500,
      "fiel": 501,
      "tran": 502,
      "field_": 503,
      "OR": 504,
      "Value": 505,
      "place": 506,
      "match": 507,
      "safe": 508,
      "ac": 509,
      "cache": 510,
      "star": 511,
      "mber": 512,
      "ME": 513,
      "mi": 514,
      "AL": 515,
      "migration": 516,
      "ate_": 517,
      "arning": 518,
      "mode": 519,
      "_value": 520,
      "iali": 521,
      "ly": 522,
      "app_config": 523,
      "im": 524,
      "choice": 525,
      "escape": 526,
      "elif": 527,
      "open": 528,
      "Te": 529,
      "ml": 530,
      "exc": 531,
      "core": 532,
      "ibu": 533,
      "ER": 534,
      "ho": 535,
      "errors": 536,
      "(?": 537,
      "ext": 538,
      "tho": 539,
      "initi": 540,
      "read": 541,
      "filename": 542,
      "output": 543,
      "([": 544,
      "'.": 545,
      "db": 546,
      "line": 547,
      "ax": 548,
      "widget": 549,
      "mai": 550,
      "gro": 551,
      "thon": 552,
      "tern": 553,
      "table": 554,
      "able": 555,
      "cle": 556,
      "unicode": 557,
      "size": 558,
      "compile": 559,
      "ed": 560,
      "k_": 561,
      "ream": 562,
      "nodelist": 563,
      "para": 564,
      "ializ": 565,
      "be": 566,
      "zy": 567,
      "metho": 568,
      "header": 569,
      "prefix": 570,
      "group": 571,
      "man": 572,
      "sponse": 573,
      "low": 574,
      "render": 575,
      "replace": 576,
      "hasattr": 577,
      "Con": 578,
      "ON": 579,
      "are": 580,
      "ulti": 581,
      "number": 582,
      "bits": 583,
      "uage": 584,
      "language": 585,
      "!=": 586,
      "nt_": 587,
      "pu": 588,
      "meta": 589,
      "find": 590,
      "conf": 591,
      "force_text": 592,
      "exte": 593,
      "log": 594,
      "trans": 595,
      "='": 596,
      "word": 597,
      "dec": 598,
      "call": 599,
      "add_argument": 600,
      "UL": 601,
      "getattr": 602,
      "use_": 603,
      "col": 604,
      "coun": 605,
      "stream": 606,
      "lock": 607,
      "Node": 608,
      "10": 609,
      "files": 610,
      "Template": 611,
      "my": 612,
      "ra": 613,
      "info": 614,
      "ary": 615,
      "und": 616,
      "reg": 617,
      "sty": 618,
      "ibute": 619,
      "min": 620,
      "zone": 621,
      "parse": 622,
      "messages": 623,
      "ValueError": 624,
      "SE": 625,
      "sorted": 626,
      "':": 627,
      ").": 628,
      "AR": 629,
      "bytes": 630,
      "values": 631,
      "models": 632,
      "_string": 633,
      "id_": 634,
      "np": 635,
      "mail": 636,
      "Imp": 637,
      "ict": 638,
      "range": 639,
      "gex": 640,
      "char": 641,
      "params": 642,
      "'))": 643,
      ")]": 644,
      "FA": 645,
      "ST": 646,
      "std": 647,
      "ger": 648,
      "response": 649,
      "File": 650,
      "'--": 651,
      "At": 652,
      "us": 653,
      "st_": 654,
      "command": 655,
      "rent_": 656,
      "vi": 657,
      "als": 658,
      "resol": 659,
      "style": 660,
      "mar": 661,
      "red": 662,
      "lazy": 663,
      "tribute": 664,
      "encode": 665,
      "app_label": 666,
      "Attribute": 667,
      "Django": 668,
      "lement": 669,
      "tra": 670,
      "ializer": 671,
      "'\\": 672,
      "timezone": 673,
      "ab": 674,
      "cess": 675,
      "uto": 676,
      "Not": 677,
      "lude": 678,
      "De": 679,
      "copy": 680,
      "keys": 681,
      "tem": 682,
      "ther": 683,
      "new": 684,
      "clo": 685,
      "http": 686,
      "sq": 687,
      "loader": 688,
      "ign": 689,
      "Dict": 690,
      "cation": 691,
      "mon": 692,
      "zip": 693,
      "mpty": 694,
      "Moved": 695,
      "count": 696,
      "'\"": 697,
      "load": 698,
      "').": 699,
      "locale": 700,
      "method": 701,
      "stdout": 702,
      "nd": 703,
      "pattern": 704,
      "_dir": 705,
      "pk": 706,
      "ust": 707,
      "vel": 708,
      "lete": 709,
      "Valid": 710,
      "RE": 711,
      "DEFA": 712,
      "DEFAUL": 713,
      "),": 714,
      "empty": 715,
      "other": 716,
      "python": 717,
      "DEFAULT_": 718,
      "+=": 719,
      "ture": 720,
      "database": 721,
      "set_": 722,
      "html": 723,
      "regis": 724,
      "TE": 725,
      "_meta": 726,
      "main": 727,
      "auto": 728,
      "ctor": 729,
      "qui": 730,
      "_cache": 731,
      "num": 732,
      "acti": 733,
      "_path": 734,
      "cate": 735,
      "pop": 736,
      "tup": 737,
      "strip": 738,
      "gth": 739,
      "den": 740,
      "apps": 741,
      "max_": 742,
      "Lo": 743,
      "pl": 744,
      "sum": 745,
      "choices": 746,
      "TI": 747,
      "_key": 748,
      "orm": 749,
      "fixture": 750,
      "unicode_": 751,
      "CO": 752,
      "mer": 753,
      "ery": 754,
      "initial": 755,
      "ationError": 756,
      "process": 757,
      "register": 758,
      "cre": 759,
      "ype": 760,
      "sig": 761,
      "default_": 762,
      "Multi": 763,
      "sh": 764,
      "ware": 765,
      "length": 766,
      "Input": 767,
      "_f": 768,
      "ies": 769,
      "liter": 770,
      "verse": 771,
      "ception": 772,
      "Exception": 773,
      "Un": 774,
      "pi": 775,
      "ves": 776,
      "__name": 777,
      "now": 778,
      "gettext_": 779,
      "verbo": 780,
      "proper": 781,
      "dle": 782,
      "wh": 783,
      "extra": 784,
      "gettext": 785,
      "Type": 786,
      "iddle": 787,
      "callback": 788,
      "exclude": 789,
      "lower": 790,
      "property": 791,
      "lation": 792,
      "use": 793,
      "ress": 794,
      "row": 795,
      "loa": 796,
      "opts": 797,
      "ear": 798,
      "decode": 799,
      "exec": 800,
      "sity": 801,
      "make": 802,
      "error_messages": 803,
      "__name__": 804,
      "((": 805,
      "],": 806,
      "ot": 807,
      "warning": 808,
      "requi": 809,
      "level": 810,
      "exist": 811,
      "update": 812,
      "month": 813,
      "%(": 814,
      "Par": 815,
      "Res": 816,
      "move": 817,
      "verbosity": 818,
      "Me": 819,
      "ner": 820,
      "put_": 821,
      "EN": 822,
      "middle": 823,
      "ri": 824,
      "vie": 825,
      "state": 826,
      "serializer": 827,
      "_list": 828,
      "om": 829,
      "day": 830,
      "clean": 831,
      "tuple": 832,
      "il": 833,
      "utf": 834,
      "CommandError": 835,
      "ValidationError": 836,
      "Element": 837,
      "MI": 838,
      "block": 839,
      "timeout": 840,
      "forms": 841,
      "close": 842,
      "FI": 843,
      "LO": 844,
      "Warning": 845,
      "gi": 846,
      "delete": 847,
      "chun": 848,
      "Sy": 849,
      "TA": 850,
      "_info": 851,
      "ed_": 852,
      "dig": 853,
      "function": 854,
      "[:": 855,
      "can": 856,
      "js": 857,
      "pp": 858,
      "tz": 859,
      "stat": 860,
      "content_": 861,
      "sign": 862,
      "Se": 863,
      "com": 864,
      "resolve": 865,
      "IA": 866,
      "_check": 867,
      "ize": 868,
      "year": 869,
      "reverse": 870,
      "(?:": 871,
      "//": 872,
      "20": 873,
      "Cache": 874,
      "En": 875,
      "Ke": 876,
      "_data": 877,
      "cr": 878,
      "map": 879,
      "run": 880,
      "ute": 881,
      "impor": 882,
      "bject": 883,
      "contents": 884,
      "my_": 885,
      "moves": 886,
      "Key": 887,
      "HT": 888,
      "ll": 889,
      "uture": 890,
      "idden": 891,
      "'])": 892,
      "start": 893,
      "manage": 894,
      "inter": 895,
      "rel": 896,
      "wrapp": 897,
      "quo": 898,
      "ES": 899,
      "test": 900,
      "rent": 901,
      "query": 902,
      "(['": 903,
      "Ch": 904,
      "cls": 905,
      "root": 906,
      "Module": 907,
      "sour": 908,
      "secon": 909,
      "input_": 910,
      "cook": 911,
      "change": 912,
      "moved": 913,
      "literals": 914,
      "gettext_lazy": 915,
      "\"%": 916,
      "_format": 917,
      "ff": 918,
      "future": 919,
      "ion": 920,
      "rand": 921,
      "sort": 922,
      "translation": 923,
      "quote": 924,
      ">=": 925,
      "ou": 926,
      "pes": 927,
      "ponse": 928,
      "regex": 929,
      "__future": 930,
      "warnings": 931,
      "Response": 932,
      "__future__": 933,
      "Qu": 934,
      "TP": 935,
      "_func": 936,
      "sse": 937,
      "ins": 938,
      "input": 939,
      "atur": 940,
      "comm": 941,
      "tags": 942,
      "-%": 943,
      "Ht": 944,
      "cont": 945,
      "dire": 946,
      "ntax": 947,
      "text_type": 948,
      "current_": 949,
      "findall": 950,
      "Http": 951,
      "'<": 952,
      "19": 953,
      "AN": 954,
      "_str": 955,
      "afe": 956,
      "natur": 957,
      "dest": 958,
      "parse_": 959,
      "spa": 960,
      "\"\"\".": 961,
      "extend": 962,
      "active": 963,
      "_get_": 964,
      "must": 965,
      "})": 966,
      "inue": 967,
      "fir": 968,
      "old_": 969,
      "migrations": 970,
      "abs": 971,
      "import_": 972,
      "continue": 973,
      "12": 974,
      "64": 975,
      "_context": 976,
      "action": 977,
      "cs": 978,
      "types": 979,
      "Model": 980,
      "ING": 981,
      "cursor": 982,
      "unicode_literals": 983,
      "Syntax": 984,
      ":%": 985,
      "[(": 986,
      "ipv": 987,
      "validate_": 988,
      "ect_": 989,
      "sql": 990,
      "middleware": 991,
      "view": 992,
      "source": 993,
      "SyntaxError": 994,
      ">'": 995,
      "_code": 996,
      "uth": 997,
      "valid_": 998,
      "\"\"\"\"": 999,
      "save": 1000,
      "axis": 1001,
      "MovedAttribute": 1002,
      "Parser": 1003,
      "second": 1004,
      "'\\\\": 1005,
      "Ser": 1006,
      "ield": 1007,
      "yield": 1008,
      "orig": 1009,
      "stru": 1010,
      "part": 1011,
      "TemplateSyntaxError": 1012,
      "Data": 1013,
      "Handle": 1014,
      "ing_": 1015,
      "dirs": 1016,
      "domain": 1017,
      "okup": 1018,
      "TypeError": 1019,
      "crip": 1020,
      "Handler": 1021,
      "Safe": 1022,
      "_id": 1023,
      "_iter": 1024,
      "_module": 1025,
      "user": 1026,
      "handle_": 1027,
      "mark_": 1028,
      "D_": 1029,
      "_p": 1030,
      "_text": 1031,
      "iable": 1032,
      "low_": 1033,
      "has_": 1034,
      "unique": 1035,
      "handlers": 1036,
      "List": 1037,
      "ron": 1038,
      "lob": 1039,
      "('\\\\": 1040,
      "exception": 1041,
      "plur": 1042,
      "[^": 1043,
      "leme": 1044,
      "arch": 1045,
      "subject": 1046,
      "oper": 1047,
      "file_": 1048,
      "find_": 1049,
      "Removed": 1050,
      "initial_": 1051,
      "LOC": 1052,
      "management": 1053,
      "HttpResponse": 1054,
      "RemovedIn": 1055,
      "LE": 1056,
      "TO": 1057,
      "ast": 1058,
      "dt": 1059,
      "ols": 1060,
      "pd": 1061,
      "allow_": 1062,
      "().": 1063,
      "ATE_": 1064,
      "objects": 1065,
      "load_": 1066,
      "HTTP": 1067,
      "cc": 1068,
      "glob": 1069,
      "our": 1070,
      "ted_": 1071,
      "class__": 1072,
      "dirname": 1073,
      "ctory": 1074,
      "while": 1075,
      "chunk": 1076,
      "CH": 1077,
      "Do": 1078,
      "Form": 1079,
      "UN": 1080,
      "next": 1081,
      "ssion": 1082,
      "ated": 1083,
      "list_": 1084,
      "headers": 1085,
      "color": 1086,
      "RemovedInDjango": 1087,
      "PY": 1088,
      "amp": 1089,
      "auth": 1090,
      "ci": 1091,
      "mn": 1092,
      "any": 1093,
      "__class__": 1094,
      "classe": 1095,
      "urlconf": 1096,
      "json": 1097,
      "classes": 1098,
      "+)": 1099,
      "Or": 1100,
      "Str": 1101,
      "_AL": 1102,
      "dis": 1103,
      "scrip": 1104,
      "tar": 1105,
      "xt": 1106,
      "temp": 1107,
      "for_": 1108,
      "lable": 1109,
      "delta": 1110,
      "pack": 1111,
      "link": 1112,
      "starts": 1113,
      "mark_safe": 1114,
      "IO": 1115,
      "Text": 1116,
      "UT": 1117,
      "ime": 1118,
      "colu": 1119,
      "ends": 1120,
      "'].": 1121,
      "connections": 1122,
      "random": 1123,
      "column": 1124,
      "Date": 1125,
      "UR": 1126,
      "_type": 1127,
      "sing": 1128,
      "imple": 1129,
      "is_safe": 1130,
      "field_name": 1131,
      "host": 1132,
      "decim": 1133,
      "digits": 1134,
      "queryset": 1135,
      "natural_": 1136,
      "startswith": 1137,
      "NO": 1138,
      "Time": 1139,
      "we": 1140,
      "store": 1141,
      ")))": 1142,
      "sert": 1143,
      "bound": 1144,
      "htm": 1145,
      "address": 1146,
      "logg": 1147,
      "viron": 1148,
      "required": 1149,
      "space": 1150,
      "_to_": 1151,
      "ick": 1152,
      "ple": 1153,
      "txt": 1154,
      "depre": 1155,
      "environ": 1156,
      "form_": 1157,
      "template_": 1158,
      "modules": 1159,
      "system": 1160,
      "force_str": 1161,
      "charset": 1162,
      "IAS": 1163,
      "{'": 1164,
      "on_": 1165,
      "trun": 1166,
      "thread": 1167,
      "ortError": 1168,
      "app_name": 1169,
      "'],": 1170,
      "serializers": 1171,
      "html_": 1172,
      "100": 1173,
      "brea": 1174,
      "email": 1175,
      "ib": 1176,
      "true": 1177,
      "dia": 1178,
      "object_": 1179,
      "lines": 1180,
      "ImportError": 1181,
      "AttributeError": 1182,
      "tem__": 1183,
      "ignore": 1184,
      "exists": 1185,
      "content_type": 1186,
      "origin": 1187,
      "break": 1188,
      ".%": 1189,
      "IP": 1190,
      "ha": 1191,
      "repr": 1192,
      "only": 1193,
      "enu": 1194,
      "conver": 1195,
      "('\\": 1196,
      "ments": 1197,
      "KeyError": 1198,
      "String": 1199,
      "RO": 1200,
      "US": 1201,
      "]))": 1202,
      "flo": 1203,
      "ffix": 1204,
      "lookup": 1205,
      "('%": 1206,
      "supp": 1207,
      "suffix": 1208,
      "to_python": 1209,
      "BaseCommand": 1210,
      "off": 1211,
      "logger": 1212,
      "autoescape": 1213,
      "Choice": 1214,
      "19Warning": 1215,
      "plural": 1216,
      "RemovedInDjango19Warning": 1217,
      "(%": 1218,
      "LE_": 1219,
      "St": 1220,
      "ive": 1221,
      "sep": 1222,
      "lass": 1223,
      "server": 1224,
      "some": 1225,
      "words": 1226,
      "merate": 1227,
      "enumerate": 1228,
      "'/": 1229,
      "'.'": 1230,
      "DI": 1231,
      "FOR": 1232,
      "ftime": 1233,
      "multi": 1234,
      "rary": 1235,
      "ython": 1236,
      "invalid": 1237,
      "strftime": 1238,
      "top": 1239,
      "tools": 1240,
      "provi": 1241,
      "writer": 1242,
      "localize": 1243,
      "addQu": 1244,
      "ickElement": 1245,
      "provide": 1246,
      "addQuickElement": 1247,
      "16": 1248,
      "_dict": 1249,
      "invalid_": 1250,
      "alt": 1251,
      "ied": 1252,
      "ators": 1253,
      "Exist": 1254,
      "groupby": 1255,
      "merge": 1256,
      "Does": 1257,
      "(*": 1258,
      "*?": 1259,
      "_from": 1260,
      "_fields": 1261,
      "ep": 1262,
      "gs": 1263,
      "expi": 1264,
      "dic": 1265,
      "file_name": 1266,
      "uld": 1267,
      "string_": 1268,
      "subprocess": 1269,
      "itertools": 1270,
      "NotExist": 1271,
      "first": 1272,
      "URL": 1273,
      "logging": 1274,
      "float": 1275,
      "DoesNotExist": 1276,
      "04": 1277,
      "DB": 1278,
      "ET": 1279,
      "Email": 1280,
      "ROR": 1281,
      "_class": 1282,
      "_true": 1283,
      "nted": 1284,
      "norm": 1285,
      "smar": 1286,
      "exp": 1287,
      "loc": 1288,
      "as_": 1289,
      "ull": 1290,
      "ular": 1291,
      "format_": 1292,
      "defaults": 1293,
      "_cre": 1294,
      "ERROR": 1295,
      "widgets": 1296,
      "clear": 1297,
      "ANG": 1298,
      "lemented": 1299,
      "author": 1300,
      "://": 1301,
      "By": 1302,
      "The": 1303,
      "fai": 1304,
      "xy": 1305,
      "xml": 1306,
      "titem__": 1307,
      "err": 1308,
      "ent": 1309,
      "sure": 1310,
      "mod": 1311,
      "template_dir": 1312,
      "bug": 1313,
      "help_text": 1314,
      "addr": 1315,
      "Implemented": 1316,
      "NotImplemented": 1317,
      "sql_": 1318,
      "MovedModule": 1319,
      "execute": 1320,
      "cleaned_": 1321,
      "LOCK": 1322,
      "smart_": 1323,
      "NotImplementedError": 1324,
      "\"'": 1325,
      "11": 1326,
      "Name": 1327,
      "Up": 1328,
      "_wrapp": 1329,
      "av": 1330,
      "cat": 1331,
      "ek": 1332,
      "ject": 1333,
      "lst": 1334,
      "mt": 1335,
      "sho": 1336,
      "tle": 1337,
      "warn": 1338,
      "led": 1339,
      "title": 1340,
      "foo": 1341,
      "Context": 1342,
      "decor": 1343,
      "endswith": 1344,
      "CON": 1345,
      "EL": 1346,
      "MP": 1347,
      "nsion": 1348,
      "over": 1349,
      "order": 1350,
      "quen": 1351,
      "check_": 1352,
      "app_configs": 1353,
      "resolver": 1354,
      "directory": 1355,
      "singular": 1356,
      "FORM": 1357,
      "AB": 1358,
      "AG": 1359,
      "Dec": 1360,
      "QL": 1361,
      "SQL": 1362,
      "m2": 1363,
      "remove": 1364,
      "location": 1365,
      "asci": 1366,
      "parent_": 1367,
      "old": 1368,
      "box": 1369,
      "bool": 1370,
      "filters": 1371,
      "mime": 1372,
      "Config": 1373,
      "add_arguments": 1374,
      "ray": 1375,
      "DEFAULT_DB": 1376,
      "pick": 1377,
      "tzinfo": 1378,
      "_ALIAS": 1379,
      "offset": 1380,
      "ascii": 1381,
      "DEFAULT_DB_ALIAS": 1382,
      "'',": 1383,
      "G_": 1384,
      "Var": 1385,
      "]*": 1386,
      "fk": 1387,
      "port": 1388,
      "your": 1389,
      "sen": 1390,
      "dered": 1391,
      "atta": 1392,
      "loop": 1393,
      "pub": 1394,
      "cookie": 1395,
      "m2m": 1396,
      "attach": 1397,
      ")',": 1398,
      "S_": 1399,
      "_label": 1400,
      "_filter": 1401,
      "fa": 1402,
      "rc": 1403,
      "lent": 1404,
      "array": 1405,
      "conta": 1406,
      "utor": 1407,
      "silent": 1408,
      "template_name": 1409,
      "mit_": 1410,
      "_values": 1411,
      "SET": 1412,
      "interactive": 1413,
      "cleaned_data": 1414,
      "Simple": 1415,
      "TH": 1416,
      "TY": 1417,
      "Tok": 1418,
      "ca": 1419,
      "fp": 1420,
      "tk": 1421,
      "ws": 1422,
      "ment_": 1423,
      "lean": 1424,
      "ans": 1425,
      "chil": 1426,
      "ip_str": 1427,
      "Invalid": 1428,
      "MEN": 1429,
      "can_": 1430,
      "operator": 1431,
      "KE": 1432,
      "Migr": 1433,
      "_po": 1434,
      "bin": 1435,
      "bit": 1436,
      "ces": 1437,
      "end_": 1438,
      "get_language": 1439,
      "parent": 1440,
      "ured": 1441,
      "final_": 1442,
      "validators": 1443,
      "cache_": 1444,
      "method_": 1445,
      "':'": 1446,
      "_checks": 1447,
      "ipv6": 1448,
      "HTTP_": 1449,
      "suppor": 1450,
      "Migration": 1451,
      "):": 1452,
      "fl": 1453,
      "l10": 1454,
      "pos": 1455,
      "sche": 1456,
      "search": 1457,
      "ref": 1458,
      "memo": 1459,
      "lect": 1460,
      "ary_": 1461,
      "gest": 1462,
      "__str": 1463,
      "ated_": 1464,
      "dition": 1465,
      "dicts": 1466,
      "all_": 1467,
      "force_bytes": 1468,
      "exc_info": 1469,
      "table_name": 1470,
      "use_l10": 1471,
      "using": 1472,
      "activ": 1473,
      "create_": 1474,
      "ffer": 1475,
      "ChoiceField": 1476,
      "__str__": 1477,
      "use_l10n": 1478,
      "CA": 1479,
      "GI": 1480,
      "MA": 1481,
      "ptime": 1482,
      "ww": 1483,
      "stack": 1484,
      "ters": 1485,
      "(',": 1486,
      "strptime": 1487,
      "appli": 1488,
      "ull_": 1489,
      "Regex": 1490,
      "struct": 1491,
      "KEY": 1492,
      "\".": 1493,
      "--": 1494,
      "..": 1495,
      "App": 1496,
      "Bo": 1497,
      "]+": 1498,
      "_urllib": 1499,
      "fg": 1500,
      "mit": 1501,
      "stamp": 1502,
      "condition": 1503,
      "this": 1504,
      "parts": 1505,
      "assert": 1506,
      "')]": 1507,
      "attribu": 1508,
      "project": 1509,
      "buffer": 1510,
      "META": 1511,
      "extension": 1512,
      "extra_": 1513,
      "require": 1514,
      "cookies": 1515,
      "changed": 1516,
      "boundary": 1517,
      "string_types": 1518,
      "Bytes": 1519,
      "fail_": 1520,
      "LOCK_": 1521,
      "Variable": 1522,
      "attributes": 1523,
      "</": 1524,
      "GR": 1525,
      "Wid": 1526,
      "_tag": 1527,
      "_errors": 1528,
      "_CO": 1529,
      "ager": 1530,
      "eval": 1531,
      "hidden": 1532,
      "ic": 1533,
      "rame": 1534,
      "shel": 1535,
      "teger": 1536,
      "stder": 1537,
      "__repr": 1538,
      "context_": 1539,
      "\"\".": 1540,
      "callable": 1541,
      "feed": 1542,
      "hash": 1543,
      "byte": 1544,
      "compati": 1545,
      "lang_code": 1546,
      "Conver": 1547,
      "loade": 1548,
      "make_": 1549,
      "TAG_": 1550,
      "\"\"\"\"\"\".": 1551,
      "Serializer": 1552,
      "target": 1553,
      "scheme": 1554,
      "stderr": 1555,
      "__repr__": 1556,
      "For": 1557,
      "KEN": 1558,
      "LANG": 1559,
      "SI": 1560,
      "_prefix": 1561,
      "_address": 1562,
      "cke": 1563,
      "element": 1564,
      "hex": 1565,
      "hexte": 1566,
      "iss": 1567,
      "media": 1568,
      "fore": 1569,
      "d_fields": 1570,
      "ations": 1571,
      "split_": 1572,
      "mic": 1573,
      "manager": 1574,
      "Def": 1575,
      "MultiValue": 1576,
      "MIME": 1577,
      "Select": 1578,
      "seconds": 1579,
      "PY3": 1580,
      "template_dirs": 1581,
      "Ar": 1582,
      "Th": 1583,
      "_ex": 1584,
      "io": 1585,
      "ory": 1586,
      "dere": 1587,
      "roper": 1588,
      "('/": 1589,
      "getter": 1590,
      "take": 1591,
      "prog": 1592,
      "dump": 1593,
      "base64": 1594,
      "feren": 1595,
      "cache_key": 1596,
      "lyConfig": 1597,
      "imal": 1598,
      "Improper": 1599,
      "auto_id": 1600,
      "make_key": 1601,
      "statements": 1602,
      "Set": 1603,
      "save_": 1604,
      "smart_text": 1605,
      "Decimal": 1606,
      "Widget": 1607,
      "lyConfigured": 1608,
      "ImproperlyConfigured": 1609,
      "AD": 1610,
      "ML": 1611,
      "MO": 1612,
      "OUT": 1613,
      "_file": 1614,
      "ag": 1615,
      "ds": 1616,
      "dst": 1617,
      "salt": 1618,
      "tt": 1619,
      "uri": 1620,
      "__iter": 1621,
      "no_": 1622,
      "ight": 1623,
      "subclasses": 1624,
      "nump": 1625,
      "_request": 1626,
      "vars": 1627,
      "found": 1628,
      "ATE": 1629,
      "ATOR": 1630,
      "error_class": 1631,
      "Loader": 1632,
      "Multiple": 1633,
      "Uni": 1634,
      "MIGR": 1635,
      "reversed": 1636,
      "import_module": 1637,
      "ipv4": 1638,
      "decimal_": 1639,
      "deprecation": 1640,
      "truncate": 1641,
      "USE_": 1642,
      "wsgi": 1643,
      "child": 1644,
      "__iter__": 1645,
      "MIGRATE_": 1646,
      "200": 1647,
      "CT": 1648,
      "Che": 1649,
      "SER": 1650,
      "UAG": 1651,
      "].": 1652,
      "_2": 1653,
      "nex": 1654,
      "og": 1655,
      "ven": 1656,
      "sequen": 1657,
      "deep": 1658,
      "and_": 1659,
      "last": 1660,
      "limit_": 1661,
      "eno": 1662,
      "('.": 1663,
      "lineno": 1664,
      "configure": 1665,
      "post_": 1666,
      "start_": 1667,
      "hour": 1668,
      "_false": 1669,
      "used": 1670,
      "executor": 1671,
      "FIEL": 1672,
      "Enter": 1673,
      "TOKEN": 1674,
      "threading": 1675,
      "silently": 1676,
      "fail_silently": 1677,
      "LANGUAG": 1678,
      "numpy": 1679,
      "Unicode": 1680,
      "Check": 1681,
      "deepcopy": 1682,
      "/%": 1683,
      "60": 1684,
      "<=": 1685,
      "=\"": 1686,
      ">\\": 1687,
      "OS": 1688,
      "RA": 1689,
      "[[": 1690,
      "bar": 1691,
      "fla": 1692,
      "know": 1693,
      "klass": 1694,
      "rf": 1695,
      "um": 1696,
      "reset_": 1697,
      "ature": 1698,
      "namespace": 1699,
      "ches": 1700,
      "argv": 1701,
      "utable": 1702,
      "serializ": 1703,
      "formats": 1704,
      "stringfilter": 1705,
      "variable": 1706,
      "doc": 1707,
      "width": 1708,
      "msgs": 1709,
      "()),": 1710,
      "mail_": 1711,
      "use_natural_": 1712,
      "raw_": 1713,
      "commit": 1714,
      "csv": 1715,
      "displa": 1716,
      "columns": 1717,
      "DateTime": 1718,
      "expires": 1719,
      "pickle": 1720,
      "application": 1721,
      "shell": 1722,
      "'^": 1723,
      "30": 1724,
      "34": 1725,
      "EX": 1726,
      "IL": 1727,
      "Pro": 1728,
      "Python": 1729,
      "VER": 1730,
      "[-": 1731,
      "_de": 1732,
      "_pattern": 1733,
      "_callback": 1734,
      "dri": 1735,
      "ilt": 1736,
      "pgettext_lazy": 1737,
      "inst": 1738,
      "inner": 1739,
      "rename": 1740,
      "lease": 1741,
      "__ge": 1742,
      "constan": 1743,
      "digest": 1744,
      "apply": 1745,
      "neg": 1746,
      "spec": 1747,
      "ending": 1748,
      "built": 1749,
      "does": 1750,
      "password": 1751,
      "pot": 1752,
      "MEOUT": 1753,
      "filenames": 1754,
      "db_": 1755,
      "TIMEOUT": 1756,
      "abspath": 1757,
      "format_html": 1758,
      "errno": 1759,
      "MultiValueDict": 1760,
      "flags": 1761,
      "(\"": 1762,
      "_function": 1763,
      "non": 1764,
      "ugettext": 1765,
      "wor": 1766,
      "you": 1767,
      "{}": 1768,
      "rec": 1769,
      "gener": 1770,
      "constru": 1771,
      "\\\\.": 1772,
      "prim": 1773,
      "iteritems": 1774,
      "saction": 1775,
      "_cur": 1776,
      "pression": 1777,
      "will": 1778,
      "alize": 1779,
      "indent": 1780,
      "checks": 1781,
      "current": 1782,
      "transaction": 1783,
      "app_labels": 1784,
      "my_list": 1785,
      "store_true": 1786,
      "tkinter": 1787,
      "extensions": 1788,
      "Defaul": 1789,
      "\"\\": 1790,
      "25": 1791,
      "99": 1792,
      ";'": 1793,
      "Back": 1794,
      "QU": 1795,
      "You": 1796,
      "_args": 1797,
      "_FIEL": 1798,
      "cy": 1799,
      "clude": 1800,
      "none": 1801,
      "qs": 1802,
      "wn": 1803,
      "tead": 1804,
      "selec": 1805,
      "enti": 1806,
      "timedelta": 1807,
      "setattr": 1808,
      "setdefault": 1809,
      "ative": 1810,
      "dirpath": 1811,
      "s_to_": 1812,
      "buf": 1813,
      "bod": 1814,
      "labels": 1815,
      "ally": 1816,
      "commands": 1817,
      "new_name": 1818,
      "Validator": 1819,
      "cated": 1820,
      "Message": 1821,
      "chunk_": 1822,
      "status": 1823,
      "instead": 1824,
      "allow_lazy": 1825,
      "FormSet": 1826,
      "package": 1827,
      "natural_key": 1828,
      "have": 1829,
      "'/'": 1830,
      "activate": 1831,
      "compatible": 1832,
      "Converting": 1833,
      "known": 1834,
      "driver": 1835,
      "Backend": 1836,
      "'*": 1837,
      ".\\": 1838,
      "BU": 1839,
      "FF": 1840,
      "Hidden": 1841,
      "Iter": 1842,
      "Lib": 1843,
      "PE": 1844,
      "VAR": 1845,
      "_P": 1846,
      "_view": 1847,
      "_email": 1848,
      "cted": 1849,
      "olean": 1850,
      "pli": 1851,
      "ru": 1852,
      "us_": 1853,
      "alog": 1854,
      "att": 1855,
      "rou": 1856,
      "__all": 1857,
      "ates": 1858,
      "sition": 1859,
      "times": 1860,
      "timestamp": 1861,
      "library": 1862,
      "tokens": 1863,
      "arguments": 1864,
      "urllib2": 1865,
      "'-'": 1866,
      "Request": 1867,
      "compile_filter": 1868,
      "language_code": 1869,
      "colon_": 1870,
      "ustom": 1871,
      "DEFAULT_TIMEOUT": 1872,
      "TEX": 1873,
      "TEMP": 1874,
      "[::": 1875,
      "resolved_": 1876,
      "convert": 1877,
      "MENT_": 1878,
      "flat": 1879,
      "issue": 1880,
      "derer": 1881,
      "specif": 1882,
      "plit": 1883,
      "__all__": 1884,
      ")\"": 1885,
      "+',": 1886,
      ".*?": 1887,
      "24": 1888,
      "AME": 1889,
      "OK": 1890,
      "O_": 1891,
      "]',": 1892,
      "_or": 1893,
      "_options": 1894,
      "_count": 1895,
      "_num": 1896,
      "_unicode_": 1897,
      "fol": 1898,
      "more": 1899,
      "pen": 1900,
      "rb": 1901,
      "til": 1902,
      "trim": 1903,
      "d_attributes": 1904,
      "unpack": 1905,
      "keyword": 1906,
      "opt": 1907,
      "file_path": 1908,
      "_response": 1909,
      "compress": 1910,
      "()))": 1911,
      "new_method_": 1912,
      "field_value": 1913,
      "migration_name": 1914,
      "stream_or": 1915,
      "STAR": 1916,
      "'\"'": 1917,
      "empty_values": 1918,
      "python_2": 1919,
      "CODE": 1920,
      "moved_attributes": 1921,
      "digit": 1922,
      "comment_": 1923,
      "Query": 1924,
      "import_string": 1925,
      "Server": 1926,
      "Ordered": 1927,
      "form_count": 1928,
      "_wrapped": 1929,
      "decorator": 1930,
      "final_attrs": 1931,
      "__getitem__": 1932,
      "_unicode_compatible": 1933,
      "python_2_unicode_compatible": 1934,
      "\"'%": 1935,
      "La": 1936,
      "NAME": 1937,
      "PAR": 1938,
      "TER": 1939,
      "Use": 1940,
      "WAR": 1941,
      "_set": 1942,
      "_date": 1943,
      "_url": 1944,
      "_trans": 1945,
      "_part": 1946,
      "_suffix": 1947,
      "cli": 1948,
      "fd": 1949,
      "gr": 1950,
      "iri": 1951,
      "plt": 1952,
      "src": 1953,
      "uble": 1954,
      "notes": 1955,
      "('[": 1956,
      "tot": 1957,
      "filepath": 1958,
      "ailable": 1959,
      "spon": 1960,
      "(),": 1961,
      "proxy": 1962,
      "message_context": 1963,
      "buil": 1964,
      "validate": 1965,
      "itemgetter": 1966,
      "dot": 1967,
      "double": 1968,
      "soup": 1969,
      "escaped": 1970,
      "Temp": 1971,
      "Debug": 1972,
      "FILE_": 1973,
      "signals": 1974,
      "week": 1975,
      "Upload": 1976,
      "contains": 1977,
      "supported": 1978,
      "CACH": 1979,
      "OSError": 1980,
      "START": 1981,
      "OrderedDict": 1982,
      "Lazy": 1983,
      "'')": 1984,
      "(-": 1985,
      ")'": 1986,
      "01": 1987,
      "36": 1988,
      "HE": 1989,
      "Hel": 1990,
      "OST": 1991,
      "PAT": 1992,
      "Sign": 1993,
      "_encoding": 1994,
      "_files": 1995,
      "_has_": 1996,
      "bold": 1997,
      "flu": 1998,
      "x00": 1999,
      "include": 2000,
      "ten": 2001,
      "round": 2002,
      "expe": 2003,
      "unquote": 2004,
      "div": 2005,
      "('(": 2006,
      "stry": 2007,
      "seriali": 2008,
      "codeError": 2009,
      "upload_": 2010,
      "s_only": 2011,
      "wrap": 2012,
      "olute": 2013,
      "DEBU": 2014,
      "position": 2015,
      "raw": 2016,
      "SEPAR": 2017,
      "status_": 2018,
      "absolute": 2019,
      "exceptions": 2020,
      "archive": 2021,
      "PY2": 2022,
      "deprecated": 2023,
      "template_source": 2024,
      "FORMAT": 2025,
      "loaded": 2026,
      "next_": 2027,
      "TOKEN_": 2028,
      "construc": 2029,
      "primary_": 2030,
      "chunk_size": 2031,
      "Library": 2032,
      "TEMPL": 2033,
      "QueryDict": 2034,
      "sponse_": 2035,
      "build_": 2036,
      "serialize": 2037,
      "SEPARATOR": 2038,
      "status_code": 2039,
      "$'": 2040,
      "18": 2041,
      ":]": 2042,
      ">\"": 2043,
      "BA": 2044,
      "FO": 2045,
      "He": 2046,
      "SGI": 2047,
      "WSGI": 2048,
      "ain": 2049,
      "ad_": 2050,
      "bb": 2051,
      "cand": 2052,
      "dd": 2053,
      "dro": 2054,
      "email_": 2055,
      "win": 2056,
      "zA": 2057,
      "ree": 2058,
      "allow": 2059,
      "leg": 2060,
      "ties": 2061,
      "__dic": 2062,
      "iso": 2063,
      "utc": 2064,
      "importlib": 2065,
      "file__": 2066,
      "ask": 2067,
      "ail": 2068,
      "pare": 2069,
      "six_": 2070,
      "Cook": 2071,
      "post": 2072,
      "param": 2073,
      "mylist": 2074,
      "abc": 2075,
      "REQU": 2076,
      "view_": 2077,
      "wrapper": 2078,
      "SafeData": 2079,
      "_page": 2080,
      "ample": 2081,
      "scription": 2082,
      "_to_uri": 2083,
      "StringIO": 2084,
      "lookup_view": 2085,
      "multiple": 2086,
      "normalize": 2087,
      "available": 2088,
      "requires_": 2089,
      "children": 2090,
      "LANGUAGE_": 2091,
      "body": 2092,
      "router": 2093,
      "stream_or_string": 2094,
      "doublecolon_": 2095,
      "flush": 2096,
      "DEBUG": 2097,
      "candid": 2098,
      "drop": 2099,
      "__dict__": 2100,
      "Cookie": 2101,
      "\"<": 2102,
      "=['": 2103,
      "Es": 2104,
      "If": 2105,
      "My": 2106,
      "ME_": 2107,
      "Oper": 2108,
      "Su": 2109,
      "_message": 2110,
      "_node": 2111,
      "_tags": 2112,
      "_six_": 2113,
      "cap": 2114,
      "fname": 2115,
      "md": 2116,
      "zer": 2117,
      "tent": 2118,
      "description": 2119,
      "ath": 2120,
      "__new": 2121,
      "__file__": 2122,
      "concat": 2123,
      "lists": 2124,
      "need": 2125,
      "upper": 2126,
      "sub_": 2127,
      "templatetag": 2128,
      "bot": 2129,
      "_regex": 2130,
      "0000": 2131,
      "here": 2132,
      "complete": 2133,
      "localtime": 2134,
      "alias": 2135,
      "new_class": 2136,
      "field_type": 2137,
      "mission": 2138,
      "nodelist_": 2139,
      "TemplateDoesNotExist": 2140,
      "trace": 2141,
      "categ": 2142,
      "fixture_name": 2143,
      "moves_urllib": 2144,
      "Module_six_": 2145,
      "CHAR": 2146,
      "EmailBackend": 2147,
      "BytesIO": 2148,
      "hashlib": 2149,
      "micro": 2150,
      "dumps": 2151,
      "total_": 2152,
      "Tempor": 2153,
      "TEMPLATE_": 2154,
      "Escape": 2155,
      "Module_six_moves_urllib": 2156,
      "\")": 2157,
      "32": 2158,
      "AP": 2159,
      "Bad": 2160,
      "CE": 2161,
      "Class": 2162,
      "Fe": 2163,
      "PU": 2164,
      "Please": 2165,
      "Run": 2166,
      "Stop": 2167,
      "User": 2168,
      "WOR": 2169,
      "Z0": 2170,
      "_kwargs": 2171,
      "af": 2172,
      "b64": 2173,
      "cgi": 2174,
      "ection": 2175,
      "ix": 2176,
      "lru": 2177,
      "mory": 2178,
      "na": 2179,
      "nargs": 2180,
      "plo": 2181,
      "page": 2182,
      "sc": 2183,
      "|\\\\": 2184,
      "}'.": 2185,
      "separ": 2186,
      "setitem__": 2187,
      "insert": 2188,
      "ors": 2189,
      "test_": 2190,
      "rest": 2191,
      "rece": 2192,
      "reraise": 2193,
      "remain": 2194,
      "select": 2195,
      "altern": 2196,
      "mean": 2197,
      "ard": 2198,
      "tifi": 2199,
      "urls": 2200,
      "rosp": 2201,
      "lict": 2202,
      "__setitem__": 2203,
      "choi": 2204,
      "chive": 2205,
      "until": 2206,
      "sid": 2207,
      "')[": 2208,
      "ble_": 2209,
      "s_context": 2210,
      "df2": 2211,
      "sublist": 2212,
      "subcommand": 2213,
      "Integer": 2214,
      "finally": 2215,
      "locales": 2216,
      "backend": 2217,
      "BaseCache": 2218,
      "INPU": 2219,
      "indexes": 2220,
      "ALET": 2221,
      "chars": 2222,
      "charac": 2223,
      "loaders": 2224,
      "empty_": 2225,
      "max_age": 2226,
      "max_length": 2227,
      "existing": 2228,
      "Meta": 2229,
      "END": 2230,
      "ride": 2231,
      "utf8": 2232,
      "blocks": 2233,
      "content_length": 2234,
      "_created": 2235,
      "Token": 2236,
      "cket": 2237,
      "Archive": 2238,
      "takes_context": 2239,
      "ferences": 2240,
      "builtins": 2241,
      "HiddenInput": 2242,
      "weekday": 2243,
      "rawdata": 2244,
      "traceback": 2245,
      "lru_cache": 2246,
      "choice_": 2247,
      "INPUT_": 2248,
      "ALETTE": 2249,
      "\",": 2250,
      "'&": 2251,
      ")[": 2252,
      "13": 2253,
      "80": 2254,
      "GN": 2255,
      "Object": 2256,
      "RI": 2257,
      "Ren": 2258,
      "VAL": 2259,
      "_safe": 2260,
      "et": 2261,
      "emon": 2262,
      "full_": 2263,
      "ity": 2264,
      "ly_": 2265,
      "mutable": 2266,
      "ous": 2267,
      "rstrip": 2268,
      "ugettext_lazy": 2269,
      "sent": 2270,
      "orage": 2271,
      "dete": 2272,
      "chain": 2273,
      "example": 2274,
      "than": 2275,
      "verse_": 2276,
      "urlparse": 2277,
      "introsp": 2278,
      "pag": 2279,
      "daemon": 2280,
      "qual": 2281,
      "sysid": 2282,
      "by_": 2283,
      "ATI": 2284,
      "locale_path": 2285,
      "max_num": 2286,
      "plan": 2287,
      "TION": 2288,
      "_fmt": 2289,
      "signal": 2290,
      "HTML": 2291,
      "Order": 2292,
      "script_": 2293,
      "NOT": 2294,
      "object_name": 2295,
      "override": 2296,
      "check_for_": 2297,
      "pubid": 2298,
      "hextets": 2299,
      "This": 2300,
      "_FIELD_": 2301,
      "VARIA": 2302,
      "iri_to_uri": 2303,
      "upload_handlers": 2304,
      "__new__": 2305,
      "plot": 2306,
      ")])": 2307,
      "02": 2308,
      "BLE_": 2309,
      "BLOCK_": 2310,
      "ED": 2311,
      "][": 2312,
      "]]": 2313,
      "_error_": 2314,
      "_headers": 2315,
      "_FORM": 2316,
      "aware": 2317,
      "bf": 2318,
      "br": 2319,
      "go": 2320,
      "send": 2321,
      "seek": 2322,
      "int_": 2323,
      "real": 2324,
      "dex": 2325,
      "comb": 2326,
      "lim": 2327,
      "__deepcopy": 2328,
      "value_from": 2329,
      "that": 2330,
      "aph": 2331,
      "key_prefix": 2332,
      "ops": 2333,
      "asvar": 2334,
      "get_format": 2335,
      "ctions": 2336,
      "Trans": 2337,
      "s_to": 2338,
      "util": 2339,
      "olver": 2340,
      "subtype": 2341,
      "prepare": 2342,
      "compare": 2343,
      "down": 2344,
      "requests": 2345,
      "DER": 2346,
      "migrate": 2347,
      "places": 2348,
      "image": 2349,
      "many": 2350,
      "conflict": 2351,
      "translate": 2352,
      "colle": 2353,
      "myList": 2354,
      "models_module": 2355,
      "https": 2356,
      "Lock": 2357,
      "processors": 2358,
      "default_error_messages": 2359,
      "Resolver": 2360,
      "given": 2361,
      "delete_": 2362,
      "[:,": 2363,
      "comment": 2364,
      "input_type": 2365,
      "current_app": 2366,
      "current_timezone": 2367,
      "first_": 2368,
      "'\\\\'": 2369,
      "operations": 2370,
      "global": 2371,
      "decimal": 2372,
      "system_checks": 2373,
      "invalid_choice": 2374,
      "dict_": 2375,
      "Uploaded": 2376,
      "attachment": 2377,
      "TYPE": 2378,
      "www": 2379,
      "AppCommand": 2380,
      "Boolean": 2381,
      "conditional_": 2382,
      "TAG_START": 2383,
      "foreign": 2384,
      "split_contents": 2385,
      "display": 2386,
      "record": 2387,
      "graph": 2388,
      "CACHE_": 2389,
      "Hello": 2390,
      "Header": 2391,
      "requires_system_checks": 2392,
      "CHARSET": 2393,
      "microsecond": 2394,
      "tifier": 2395,
      "VARIABLE_": 2396,
      "__deepcopy__": 2397,
      "UploadedFile": 2398,
      "'}": 2399,
      "({'": 2400,
      "-=": 2401,
      "56": 2402,
      "Frame": 2403,
      "ID": 2404,
      "MON": 2405,
      "Split": 2406,
      "]{": 2407,
      "_template": 2408,
      "_extra": 2409,
      "_active": 2410,
      "_serializers": 2411,
      "c_": 2412,
      "case": 2413,
      "eleme": 2414,
      "ns": 2415,
      "simple": 2416,
      "wal": 2417,
      "was": 2418,
      "or_": 2419,
      "atch": 2420,
      "lef": 2421,
      "least": 2422,
      "ify": 2423,
      "mple": 2424,
      "robot": 2425,
      "exi": 2426,
      "exit": 2427,
      "isdir": 2428,
      "is_re": 2429,
      "ungettext_lazy": 2430,
      "_names": 2431,
      "produ": 2432,
      "strings_only": 2433,
      "_clo": 2434,
      "Index": 2435,
      "syn": 2436,
      "Coun": 2437,
      "lus": 2438,
      "max_value": 2439,
      "error_dict": 2440,
      "socket": 2441,
      "accep": 2442,
      "miss": 2443,
      "tables": 2444,
      "usage": 2445,
      "encoded": 2446,
      "loading": 2447,
      "Local": 2448,
      "plat": 2449,
      "TIME_": 2450,
      "creation": 2451,
      "Unable": 2452,
      "Media": 2453,
      "runner": 2454,
      "middleware_": 2455,
      "find_eleme": 2456,
      "script": 2457,
      "object_list": 2458,
      "Stream": 2459,
      "localized_fields": 2460,
      "_wrapper": 2461,
      "caches": 2462,
      "progra": 2463,
      "ttl": 2464,
      "wsgi_": 2465,
      "limit_value": 2466,
      "reset_index": 2467,
      "serialization": 2468,
      "_patterns": 2469,
      "instal": 2470,
      "constant_": 2471,
      "selected_": 2472,
      "issues": 2473,
      "new_method_proxy": 2474,
      "primary_keys": 2475,
      "WORD": 2476,
      "introspection": 2477,
      "MONTH": 2478,
      "robotparser": 2479,
      "IndexError": 2480,
      "find_element_": 2481,
      "%%": 2482,
      "22": 2483,
      "2f": 2484,
      "33": 2485,
      "40": 2486,
      "404": 2487,
      "50": 2488,
      "=%": 2489,
      "=(": 2490,
      "=[": 2491,
      "CRE": 2492,
      "CES": 2493,
      "FRO": 2494,
      "Gen": 2495,
      "Lex": 2496,
      "MMENT_": 2497,
      "PRE": 2498,
      "Tel": 2499,
      "Tag": 2500,
      "UP": 2501,
      "X_": 2502,
      "_field": 2503,
      "_error": 2504,
      "_set_": 2505,
      "_moved_attributes": 2506,
      "but": 2507,
      "bidden": 2508,
      "cast": 2509,
      "custom": 2510,
      "dup": 2511,
      "fast": 2512,
      "fmt": 2513,
      "ise": 2514,
      "mtime": 2515,
      "ph": 2516,
      "ps": 2517,
      "pie": 2518,
      "pk_": 2519,
      "sm": 2520,
      "wai": 2521,
      "},": 2522,
      "rev": 2523,
      "red_fields": 2524,
      "decla": 2525,
      "debug": 2526,
      "lear": 2527,
      "lead": 2528,
      "tif": 2529,
      "ungettext": 2530,
      "('{": 2531,
      "('(?": 2532,
      "keyOrder": 2533,
      "romise": 2534,
      "formfield_": 2535,
      "upload": 2536,
      "permission": 2537,
      "bases": 2538,
      "template_string": 2539,
      "Nomin": 2540,
      "label_suffix": 2541,
      "filter_ex": 2542,
      "resul": 2543,
      "]),": 2544,
      "error_list": 2545,
      "INFO": 2546,
      "of_": 2547,
      "field_notes": 2548,
      "ternal_": 2549,
      "nodelist_true": 2550,
      "nodelist_false": 2551,
      "render_context": 2552,
      "Content": 2553,
      "min_num": 2554,
      "SES": 2555,
      "DecodeError": 2556,
      "Lookup": 2557,
      "Part": 2558,
      "statement": 2559,
      "_datadict": 2560,
      "Char": 2561,
      "changes": 2562,
      "direct": 2563,
      "natural": 2564,
      "csrf": 2565,
      "ModelForm": 2566,
      "validate_key": 2567,
      "DataFrame": 2568,
      "initial_form_count": 2569,
      "LOCAL": 2570,
      "UNT": 2571,
      "trunc": 2572,
      "content_type_extra": 2573,
      "_create_": 2574,
      "help_texts": 2575,
      "show_": 2576,
      "mimetype": 2577,
      "sender": 2578,
      "contain": 2579,
      "stacklevel": 2580,
      "Forbidden": 2581,
      "decimal_places": 2582,
      "UnicodeDecodeError": 2583,
      "Defaults": 2584,
      "LANGUAGE_CODE": 2585,
      "Operation": 2586,
      "Temporary": 2587,
      "IntegerField": 2588,
      "combin": 2589,
      "value_from_datadict": 2590,
      "conflicts": 2591,
      "collections": 2592,
      "FROM": 2593,
      "Lexer": 2594,
      "Tells": 2595,
      "declared_fields": 2596,
      "formfield_callback": 2597,
      "Nominates": 2598,
      "LookupError": 2599,
      "(\\": 2600,
      ".*": 2601,
      "F_": 2602,
      "Op": 2603,
      "Po": 2604,
      "To": 2605,
      "]+)": 2606,
      "_size": 2607,
      "_number": 2608,
      "_html": 2609,
      "_default_": 2610,
      "_html_": 2611,
      "_archive": 2612,
      "bi": 2613,
      "fn": 2614,
      "frame": 2615,
      "gre": 2616,
      "hi": 2617,
      "hs": 2618,
      "mk": 2619,
      "mapp": 2620,
      "mage": 2621,
      "pformat": 2622,
      "rsplit": 2623,
      "rhs": 2624,
      "squ": 2625,
      "wo": 2626,
      "wer": 2627,
      "sec": 2628,
      "ories": 2629,
      "ong": 2630,
      "med": 2631,
      "ant": 2632,
      "could": 2633,
      "tried": 2634,
      "__call": 2635,
      "ss_": 2636,
      "thing": 2637,
      "('^": 2638,
      "cto": 2639,
      "tions": 2640,
      "listdir": 2641,
      "from_": 2642,
      "patch": 2643,
      "path_info": 2644,
      "ash": 2645,
      "air": 2646,
      "django_": 2647,
      "upto": 2648,
      "endElement": 2649,
      "get_app_configs": 2650,
      "urlquote": 2651,
      "output_": 2652,
      "basename": 2653,
      "app_or_": 2654,
      "feed_": 2655,
      "sample": 2656,
      "Could": 2657,
      "hed": 2658,
      "model_list": 2659,
      "token_type": 2660,
      "])]": 2661,
      "request_": 2662,
      "to_unicode": 2663,
      "grouping": 2664,
      "use_tz": 2665,
      "minute": 2666,
      "Deserializer": 2667,
      "loads": 2668,
      "empty_label": 2669,
      "_cached_": 2670,
      "num_": 2671,
      "literal": 2672,
      "Unknown": 2673,
      "days": 2674,
      "_formats": 2675,
      "ffset": 2676,
      "command_": 2677,
      "Database": 2678,
      "urlconf_name": 2679,
      "Storage": 2680,
      "_from_": 2681,
      "ERRORS": 2682,
      "factory": 2683,
      "_post": 2684,
      "ull_f": 2685,
      "elements": 2686,
      "sequence": 2687,
      "potfile": 2688,
      "none_value": 2689,
      "[::-": 2690,
      "TERN": 2691,
      "expected": 2692,
      "FORMATS": 2693,
      "needs_": 2694,
      "templatetags_": 2695,
      "categories": 2696,
      "INPUT_FORMATS": 2697,
      "Gener": 2698,
      "truncate_": 2699,
      "_default_manager": 2700,
      "__call__": 2701,
      "app_or_project": 2702,
      ")?": 2703,
      ")\\\\": 2704,
      "1_": 2705,
      "89": 2706,
      "AS": 2707,
      "Cre": 2708,
      "DLE": 2709,
      "DATE": 2710,
      "EST": 2711,
      "EMA": 2712,
      "Fore": 2713,
      "Nu": 2714,
      "Null": 2715,
      "PRO": 2716,
      "Promise": 2717,
      "Wr": 2718,
      "_val": 2719,
      "_to": 2720,
      "_by": 2721,
      "_token": 2722,
      "_is_": 2723,
      "_default": 2724,
      "_dec": 2725,
      "_lock": 2726,
      "_writer": 2727,
      "_ipv4": 2728,
      "aml": 2729,
      "dn": 2730,
      "kip": 2731,
      "tch": 2732,
      "u04": 2733,
      "wb": 2734,
      "where": 2735,
      "yaml": 2736,
      "}\"\"\".": 2737,
      "inator": 2738,
      "inplace": 2739,
      "integer": 2740,
      "relate": 2741,
      "removed": 2742,
      "roll": 2743,
      "lity": 2744,
      "extr": 2745,
      "not_": 2746,
      "isn": 2747,
      "getvalue": 2748,
      "','": 2749,
      "atives": 2750,
      "'),": 2751,
      "class_": 2752,
      "net": 2753,
      "may": 2754,
      "kwds": 2755,
      "df1": 2756,
      "app_list": 2757,
      "renderer": 2758,
      "day_": 2759,
      "taglib": 2760,
      "_response_": 2761,
      "_references": 2762,
      "lug": 2763,
      "read_": 2764,
      "maxsize": 2765,
      "resh": 2766,
      "IN_": 2767,
      "()):": 2768,
      "safestring": 2769,
      "home": 2770,
      "(?!": 2771,
      "nodelists": 2772,
      "groups": 2773,
      "myfile": 2774,
      "newlines": 2775,
      "closure": 2776,
      "ignKey": 2777,
      "pattern_iter": 2778,
      "max_digits": 2779,
      "fixture_dir": 2780,
      "makedirs": 2781,
      "functional": 2782,
      "cannot": 2783,
      "tzname": 2784,
      "Ensure": 2785,
      "startElement": 2786,
      "123": 2787,
      "chunks": 2788,
      "cious": 2789,
      "IPv": 2790,
      "_COUNT": 2791,
      "bytes_": 2792,
      "TAG_END": 2793,
      "targets": 2794,
      "hextet": 2795,
      "no_style": 2796,
      "ending_references": 2797,
      "TEXT_": 2798,
      "HEAD": 2799,
      "absolute_": 2800,
      "BASE": 2801,
      "REQUEST": 2802,
      "after": 2803,
      "recei": 2804,
      "02d": 2805,
      "_FORM_COUNT": 2806,
      "conditional_escape": 2807,
      "platform": 2808,
      "EMAIL": 2809,
      "ForeignKey": 2810,
      "Number": 2811,
      "_writers": 2812,
      "$',": 2813,
      "'(?": 2814,
      "'='": 2815,
      "(\\\\": 2816,
      "+\\\\": 2817,
      "15": 2818,
      "28": 2819,
      ":.": 2820,
      "Le": 2821,
      "Mix": 2822,
      "NU": 2823,
      "NON": 2824,
      "SU": 2825,
      "WE": 2826,
      "\\.": 2827,
      "_is": 2828,
      "_valid": 2829,
      "_output": 2830,
      "_keys": 2831,
      "_supported": 2832,
      "_loading": 2833,
      "bl": 2834,
      "hint": 2835,
      "ning": 2836,
      "otif": 2837,
      "pid": 2838,
      "right": 2839,
      "score": 2840,
      "xpath": 2841,
      "yes": 2842,
      "inotif": 2843,
      "deactivate": 2844,
      "arr": 2845,
      "tize": 2846,
      "urator": 2847,
      "elt": 2848,
      "lain": 2849,
      "row_": 2850,
      "names": 2851,
      "retval": 2852,
      "tries": 2853,
      "entry": 2854,
      "entries": 2855,
      "chr": 2856,
      "expression": 2857,
      "und_": 2858,
      "diction": 2859,
      "idx": 2860,
      "tolist": 2861,
      ")),": 2862,
      "setlist": 2863,
      "endar": 2864,
      "igin": 2865,
      "calendar": 2866,
      "dumm": 2867,
      "basedir": 2868,
      "format_string": 2869,
      "functo": 2870,
      "both": 2871,
      "complain": 2872,
      "item_": 2873,
      "filter_func": 2874,
      "module_loading": 2875,
      "var_": 2876,
      "]).": 2877,
      "add_prefix": 2878,
      "is_aware": 2879,
      "backends": 2880,
      "Redirect": 2881,
      "field_params": 2882,
      "matches": 2883,
      "cached": 2884,
      "choices_to": 2885,
      "how": 2886,
      "([^": 2887,
      "push": 2888,
      "rag": 2889,
      "parsed": 2890,
      "locale_dir": 2891,
      "TEN": 2892,
      "auto_created": 2893,
      "created_": 2894,
      "MultiPart": 2895,
      "shape": 2896,
      "white": 2897,
      "translations": 2898,
      "parse_until": 2899,
      "space_": 2900,
      "_iteritems": 2901,
      "username": 2902,
      "_plus": 2903,
      "file_size": 2904,
      "globals": 2905,
      "color_": 2906,
      "colors": 2907,
      "Origin": 2908,
      "tempfile": 2909,
      "IOError": 2910,
      "loggers": 2911,
      "author_name": 2912,
      "author_email": 2913,
      "should": 2914,
      "CONTEXT_": 2915,
      "loopvars": 2916,
      "SimpleCookie": 2917,
      "can_delete": 2918,
      "cache_timeout": 2919,
      "table_names": 2920,
      "MODI": 2921,
      "MultipleChoiceField": 2922,
      "limit_choices_to": 2923,
      "Checkbox": 2924,
      "umask": 2925,
      "namespaces": 2926,
      "_current_": 2927,
      "specified": 2928,
      "PATH": 2929,
      "next_token": 2930,
      "_pages": 2931,
      "ATION": 2932,
      "CESS": 2933,
      "dupli": 2934,
      "waiting": 2935,
      "CharField": 2936,
      "reshape": 2937,
      "NUM": 2938,
      "functools": 2939,
      "MultiPartParser": 2940,
      "\"\\\\": 2941,
      "\"'\"": 2942,
      "'.\"": 2943,
      "14": 2944,
      ":\\\\": 2945,
      "Add": 2946,
      "ADER": 2947,
      "Can": 2948,
      "DJ": 2949,
      "DO": 2950,
      "Di": 2951,
      "GH": 2952,
      "HAB": 2953,
      "Image": 2954,
      "JS": 2955,
      "Match": 2956,
      "PHAB": 2957,
      "SL": 2958,
      "_encode": 2959,
      "_sql": 2960,
      "aa": 2961,
      "bad_": 2962,
      "brev": 2963,
      "cies": 2964,
      "gue": 2965,
      "hma": 2966,
      "href": 2967,
      "ich": 2968,
      "iden": 2969,
      "icious": 2970,
      "itize": 2971,
      "mw_": 2972,
      "nai": 2973,
      "non_": 2974,
      "ot_": 2975,
      "omic": 2976,
      "pair": 2977,
      "san": 2978,
      "same": 2979,
      "tb": 2980,
      "ug": 2981,
      "}'": 2982,
      "seen": 2983,
      "in_": 2984,
      "ind": 2985,
      "infix": 2986,
      "internal_": 2987,
      "orted": 2988,
      "redu": 2989,
      "only_": 2990,
      "member": 2991,
      "atomic": 2992,
      "lex": 2993,
      "cen": 2994,
      "enter": 2995,
      "enclosure": 2996,
      "isdigit": 2997,
      "('-": 2998,
      "('[^": 2999,
      "))]": 3000,
      "formset": 3001,
      "attribute": 3002,
      "spicious": 3003,
      "call_": 3004,
      "outfile": 3005,
      "()]": 3006,
      "proto": 3007,
      "base_": 3008,
      "basedirs": 3009,
      "fetch": 3010,
      "']).": 3011,
      "pri": 3012,
      "ures": 3013,
      "_clean": 3014,
      "eca": 3015,
      "token_string": 3016,
      "connector": 3017,
      "varargs": 3018,
      "varkw": 3019,
      "do_": 3020,
      "ied_": 3021,
      "is_bound": 3022,
      "widget_": 3023,
      "backend_": 3024,
      "cached_": 3025,
      "ALIAS": 3026,
      "best_": 3027,
      "before": 3028,
      "NodeList": 3029,
      "id_for_": 3030,
      "FileUpload": 3031,
      "abbrev": 3032,
      "copyright": 3033,
      "http_": 3034,
      "empty_value": 3035,
      "set_index": 3036,
      "dencies": 3037,
      "max_width": 3038,
      "fixtures": 3039,
      "Multipart": 3040,
      "shutil": 3041,
      "which": 3042,
      "extract": 3043,
      "extra_context": 3044,
      "used_": 3045,
      "months": 3046,
      "FIED": 3047,
      "plural_": 3048,
      "_ALPHAB": 3049,
      "target_": 3050,
      "weight": 3051,
      "store_false": 3052,
      "converter": 3053,
      "multipart": 3054,
      "CONTEN": 3055,
      "ordering": 3056,
      "parent_model": 3057,
      "pickled": 3058,
      "MENT": 3059,
      "VariableDoesNotExist": 3060,
      "hidden_": 3061,
      "Format": 3062,
      "takes": 3063,
      "ference": 3064,
      "_callback_str": 3065,
      "attname": 3066,
      "pendencies": 3067,
      "trimmed": 3068,
      "_setup": 3069,
      "click": 3070,
      "Suspicious": 3071,
      "characters": 3072,
      "locale_paths": 3073,
      "HTMLParser": 3074,
      "_FIELD_ERRORS": 3075,
      "BooleanField": 3076,
      "567": 3077,
      "product": 3078,
      "fastcgi": 3079,
      "csrf_token": 3080,
      "Post": 3081,
      "templatetags_modules": 3082,
      "Mixin": 3083,
      "NON_FIELD_ERRORS": 3084,
      "_isdst": 3085,
      "MODIFIED": 3086,
      "duplicate": 3087,
      "Address": 3088,
      "hmac": 3089,
      "naive": 3090,
      "sanitize": 3091,
      "best_doublecolon_": 3092,
      "id_for_label": 3093,
      "FileUploadHandler": 3094,
      "_ALPHABET": 3095,
      "\"#": 3096,
      "'})": 3097,
      "';'": 3098,
      "(.": 3099,
      "((?:": 3100,
      ")*": 3101,
      ").'": 3102,
      "*'": 3103,
      "42": 3104,
      "<<": 3105,
      "Auto": 3106,
      "CGI": 3107,
      "DUL": 3108,
      "EMP": 3109,
      "HOST": 3110,
      "IGN": 3111,
      "KD": 3112,
      "OP": 3113,
      "Popen": 3114,
      "PIP": 3115,
      "PALETTE": 3116,
      "Ra": 3117,
      "RING": 3118,
      "Sorted": 3119,
      "TR": 3120,
      "UES": 3121,
      "[]": 3122,
      "_var": 3123,
      "_stream": 3124,
      "_delete": 3125,
      "ass": 3126,
      "bati": 3127,
      "bcc": 3128,
      "beca": 3129,
      "cor": 3130,
      "cmp": 3131,
      "dk": 3132,
      "ea": 3133,
      "eq": 3134,
      "istry": 3135,
      "lar": 3136,
      "lati": 3137,
      "nor": 3138,
      "ns_": 3139,
      "ob": 3140,
      "ound": 3141,
      "poin": 3142,
      "pgettext": 3143,
      "slug": 3144,
      "tmp": 3145,
      "u00": 3146,
      "{{": 3147,
      "org": 3148,
      "rel_": 3149,
      "deconstruc": 3150,
      "deps": 3151,
      "lea": 3152,
      "ank": 3153,
      "tible": 3154,
      "timi": 3155,
      "erce": 3156,
      "fill": 3157,
      "defin": 3158,
      "val1": 3159,
      "val2": 3160,
      "coerce": 3161,
      "rol": 3162,
      "limit": 3163,
      "__doc": 3164,
      "cho": 3165,
      "chdir": 3166,
      "isfile": 3167,
      "unc": 3168,
      "unescape": 3169,
      "andard": 3170,
      "utdown": 3171,
      "dialog": 3172,
      "strict": 3173,
      ")).": 3174,
      "ason": 3175,
      "attrvalue": 3176,
      "class_name": 3177,
      "codecs": 3178,
      "uple": 3179,
      "ped": 3180,
      "get_default_": 3181,
      "get_current_timezone": 3182,
      "kwarg": 3183,
      "()[": 3184,
      "s_mode": 3185,
      "app_dir": 3186,
      "feature": 3187,
      "rendered": 3188,
      "aders": 3189,
      "iterable": 3190,
      "link_": 3191,
      "Inline": 3192,
      "sym": 3193,
      "has_key": 3194,
      "splitext": 3195,
      "000": 3196,
      "filter_name": 3197,
      "hello": 3198,
      "new_value": 3199,
      "been": 3200,
      "use_ipv6": 3201,
      "registry": 3202,
      "stype": 3203,
      "STRING": 3204,
      "mark": 3205,
      "Deserializ": 3206,
      "fixture_label": 3207,
      "COL": 3208,
      "shutdown": 3209,
      "updated": 3210,
      "ENG": 3211,
      "[:-": 3212,
      "stats": 3213,
      "_checkbox": 3214,
      "my_string": 3215,
      "starttag": 3216,
      "changed_": 3217,
      "changeset": 3218,
      "ssed_": 3219,
      "1234": 3220,
      "domain_part": 3221,
      "SafeMIME": 3222,
      "_itervalues": 3223,
      "unique_check": 3224,
      "UNI": 3225,
      "tempdir": 3226,
      "templati": 3227,
      "TextInput": 3228,
      "html_message": 3229,
      "ignore_patterns": 3230,
      "support": 3231,
      "Standard": 3232,
      "provided": 3233,
      "clear_checkbox": 3234,
      "send_": 3235,
      "m2m_data": 3236,
      "attachments": 3237,
      "answer": 3238,
      "flup": 3239,
      "MAX_": 3240,
      "mitted": 3241,
      "loaded_": 3242,
      "SION": 3243,
      "save_m2m": 3244,
      "MODUL": 3245,
      "MIGRATE_HEAD": 3246,
      "rfc": 3247,
      "use_natural_foreign": 3248,
      "display_": 3249,
      "DateTimeWidget": 3250,
      "_deleg": 3251,
      "renamed": 3252,
      "negated": 3253,
      "Default": 3254,
      "cycle": 3255,
      "entity": 3256,
      "entities": 3257,
      "'*'": 3258,
      "TEXT": 3259,
      "folder": 3260,
      "unpack_ipv4": 3261,
      "construct_": 3262,
      "zero": 3263,
      "Feed": 3264,
      "remaining": 3265,
      "Renderer": 3266,
      "VALUES": 3267,
      "detector": 3268,
      "paginator": 3269,
      "display_name": 3270,
      "walk": 3271,
      "middleware_method": 3272,
      "program": 3273,
      "permissions_mode": 3274,
      "_html_parser": 3275,
      "Generator": 3276,
      "rollback": 3277,
      "netloc": 3278,
      "Level": 3279,
      "DJANG": 3280,
      "JSON": 3281,
      "reduce": 3282,
      "call_command": 3283,
      "http_cookies": 3284,
      "56789": 3285,
      "PIPE": 3286,
      "SortedDict": 3287,
      "batim": 3288,
      "because": 3289,
      "deconstructible": 3290,
      "__doc__": 3291,
      "DeserializationError": 3292,
      "templatize": 3293,
      "StandardError": 3294,
      "MIGRATE_HEADING": 3295,
      "use_natural_foreign_keys": 3296,
      "_delegate_": 3297,
      "(('": 3298,
      "+'": 3299,
      "-\\": 3300,
      "/'": 3301,
      "0x": 3302,
      ":'": 3303,
      "BO": 3304,
      "CCESS": 3305,
      "Du": 3306,
      "Dis": 3307,
      "DIA": 3308,
      "DDLE": 3309,
      "ECA": 3310,
      "HER": 3311,
      "NING": 3312,
      "Page": 3313,
      "Path": 3314,
      "Ta": 3315,
      "TAL": 3316,
      "WHER": 3317,
      "XY": 3318,
      "]'": 3319,
      "]|": 3320,
      "]['": 3321,
      "_in": 3322,
      "_attrs": 3323,
      "_add_": 3324,
      "_models": 3325,
      "_command": 3326,
      "_pk": 3327,
      "_input": 3328,
      "_decor": 3329,
      "_gener": 3330,
      "_Lazy": 3331,
      "bp": 3332,
      "big": 3333,
      "cmd": 3334,
      "ei": 3335,
      "frag": 3336,
      "jav": 3337,
      "kind": 3338,
      "ld": 3339,
      "mcached": 3340,
      "ngettext": 3341,
      "rst": 3342,
      "sv": 3343,
      "skip": 3344,
      "two": 3345,
      "ulate": 3346,
      "u20": 3347,
      "vent": 3348,
      "ycle": 3349,
      "}}": 3350,
      "}</": 3351,
      "ince": 3352,
      "requen": 3353,
      "reason": 3354,
      "memory": 3355,
      "urlen": 3356,
      "ified": 3357,
      "last_": 3358,
      "defini": 3359,
      "lice": 3360,
      "lient": 3361,
      "__module": 3362,
      "__bool": 3363,
      "__contains": 3364,
      "noop": 3365,
      "d_forms": 3366,
      "(''.": 3367,
      "site": 3368,
      "sites": 3369,
      "today": 3370,
      "key_func": 3371,
      "from_email": 3372,
      "fileno": 3373,
      "time_format": 3374,
      "admin": 3375,
      "escap": 3376,
      "ascen": 3377,
      "ited": 3378,
      "obj_pk": 3379,
      "ipython": 3380,
      "base_fields": 3381,
      "formatter": 3382,
      "option_value": 3383,
      "strings": 3384,
      "']))": 3385,
      "Filter": 3386,
      "template_cache": 3387,
      "iterator": 3388,
      "settings_": 3389,
      "pyinotif": 3390,
      "_repr": 3391,
      "_reloader": 3392,
      "_readers": 3393,
      "nodes": 3394,
      "alling": 3395,
      "allback": 3396,
      "''.": 3397,
      "oid_": 3398,
      "var_name": 3399,
      "vary_": 3400,
      "ieve": 3401,
      "migrated_": 3402,
      "version_info": 3403,
      "Exec": 3404,
      "INTO": 3405,
      "INSER": 3406,
      "\"\"\",": 3407,
      "\"\"\"{": 3408,
      "new_path": 3409,
      "trans_": 3410,
      "ORECA": 3411,
      "access": 3412,
      "MEDIA": 3413,
      "Test": 3414,
      "exc_type": 3415,
      "readline": 3416,
      "readlines": 3417,
      "tablename": 3418,
      "compile_func": 3419,
      "k_field": 3420,
      "dec_part": 3421,
      "col_name": 3422,
      "counter": 3423,
      "min_value": 3424,
      "stdin": 3425,
      "pk_value": 3426,
      "DEFAULT_CHARSET": 3427,
      "Log": 3428,
      "unicode_escape": 3429,
      "COOK": 3430,
      "COMMENT_": 3431,
      "_fail": 3432,
      "gettext_noop": 3433,
      "MIDDLE": 3434,
      "[:]": 3435,
      "(?:[": 3436,
      "(?:\\\\": 3437,
      "run_": 3438,
      "randint": 3439,
      "common_": 3440,
      "director": 3441,
      "view_name": 3442,
      "handle_app_config": 3443,
      "has_header": 3444,
      "initial_data": 3445,
      "HttpResponseNot": 3446,
      "dispatch": 3447,
      "original_": 3448,
      "convert_": 3449,
      "xyz": 3450,
      "publi": 3451,
      "TY_": 3452,
      "can_order": 3453,
      "supported_": 3454,
      "ated_function": 3455,
      "RegexURL": 3456,
      "db_table": 3457,
      "nonzero": 3458,
      "work": 3459,
      "generic": 3460,
      "_current": 3461,
      "tkinter_": 3462,
      "9999": 3463,
      "flatatt": 3464,
      "follow": 3465,
      "WARE_": 3466,
      "WARNING": 3467,
      "_has_changed": 3468,
      "wraps": 3469,
      "WSGIServer": 3470,
      "abcdef": 3471,
      "candidate": 3472,
      "sub_match": 3473,
      "nodelist_empty": 3474,
      "nodelist_loop": 3475,
      "test_runner": 3476,
      "prepare_value": 3477,
      "missing_": 3478,
      "find_element_by": 3479,
      "leading": 3480,
      "results": 3481,
      "LOCALE_": 3482,
      "green": 3483,
      "mapping": 3484,
      "django_template_source": 3485,
      "output_transaction": 3486,
      "ull_frequen": 3487,
      "related": 3488,
      "EMAIL_": 3489,
      "SUCCESS": 3490,
      "blank": 3491,
      "dictionary": 3492,
      "created_models": 3493,
      "_current_timezone": 3494,
      "identifier": 3495,
      "mw_instance": 3496,
      "protocol": 3497,
      "IGNORECA": 3498,
      "dklen": 3499,
      "pointer": 3500,
      "Tags": 3501,
      "WHERE": 3502,
      "_decorated_function": 3503,
      "urlencode": 3504,
      "definition": 3505,
      "__module__": 3506,
      "__bool__": 3507,
      "ascending": 3508,
      "pyinotify": 3509,
      "migrated_apps": 3510,
      "INSERT": 3511,
      "COOKI": 3512,
      "MIDDLEWARE_": 3513,
      "ull_frequency": 3514,
      "IGNORECASE": 3515,
      "\">": 3516,
      "'{": 3517,
      "'()": 3518,
      "31": 3519,
      "59": 3520,
      ":\"": 3521,
      "::": 3522,
      "={'": 3523,
      "?'": 3524,
      "AY": 3525,
      "Auth": 3526,
      "CE_": 3527,
      "DWORD": 3528,
      "I18": 3529,
      "LAB": 3530,
      "Many": 3531,
      "Per": 3532,
      "POST": 3533,
      "Tuple": 3534,
      "Vary": 3535,
      "_un": 3536,
      "_time": 3537,
      "_as": 3538,
      "_length": 3539,
      "_parse_": 3540,
      "_middleware": 3541,
      "_load_": 3542,
      "_link": 3543,
      "_robotparser": 3544,
      "_white": 3545,
      "ay": 3546,
      "aches": 3547,
      "astype": 3548,
      "bc": 3549,
      "cnt": 3550,
      "dtype": 3551,
      "ele": 3552,
      "emit_": 3553,
      "i18": 3554,
      "jan": 3555,
      "pand": 3556,
      "popen": 3557,
      "p_pattern": 3558,
      "pending_references": 3559,
      "qdn": 3560,
      "rt": 3561,
      "slo": 3562,
      "sol": 3563,
      "vis": 3564,
      "xc": 3565,
      "|[": 3566,
      "sed": 3567,
      "session": 3568,
      "ints": 3569,
      "tell": 3570,
      "onent": 3571,
      "deli": 3572,
      "led_": 3573,
      "arange": 3574,
      "mpath": 3575,
      "t_mutable": 3576,
      "coffset": 3577,
      "named": 3578,
      "retr": 3579,
      "trail": 3580,
      "__len": 3581,
      "__eq": 3582,
      "d_method": 3583,
      "termin": 3584,
      "ate_cache": 3585,
      "utcoffset": 3586,
      "apper": 3587,
      "getlist": 3588,
      "list1": 3589,
      "))))": 3590,
      "filelist": 3591,
      "parti": 3592,
      "time_str": 3593,
      "formfield": 3594,
      "formset_": 3595,
      "paths": 3596,
      "atio": 3597,
      "sert_mutable": 3598,
      "verbatim": 3599,
      "')'": 3600,
      "'):": 3601,
      "ve_": 3602,
      "coder": 3603,
      "pec": 3604,
      "endblock": 3605,
      "get_connection": 3606,
      "get_text_": 3607,
      "get_by_": 3608,
      "url_fields": 3609,
      "obj_dict": 3610,
      "ipi": 3611,
      "base_path": 3612,
      "s_nodelists": 3613,
      "bound_": 3614,
      "quer": 3615,
      "tag_": 3616,
      "_cat": 3617,
      "_clear": 3618,
      "_csv": 3619,
      "_caches": 3620,
      "configurator": 3621,
      "pytz": 3622,
      "_read_": 3623,
      "appendlist": 3624,
      "there": 3625,
      "model_": 3626,
      "var2": 3627,
      "DELE": 3628,
      "sorted_": 3629,
      "resour": 3630,
      "BaseLoader": 3631,
      "BaseEmailBackend": 3632,
      "checkbox": 3633,
      "poss": 3634,
      "field_node": 3635,
      "unicodedata": 3636,
      "compile_function": 3637,
      "headerlist": 3638,
      "metavar": 3639,
      "streaming_": 3640,
      "TemplateLibrary": 3641,
      "mystring": 3642,
      "SELE": 3643,
      "FileEx": 3644,
      "FileInput": 3645,
      "patterns": 3646,
      "DEFAULT_CACHE_": 3647,
      "strip_": 3648,
      "TIC": 3649,
      "TICE": 3650,
      "create": 3651,
      "rows": 3652,
      "existing_": 3653,
      "Memory": 3654,
      "closed": 3655,
      "git_": 3656,
      "Sys": 3657,
      "function_name": 3658,
      "20Warning": 3659,
      "Encoder": 3660,
      "management_": 3661,
      "input_formats": 3662,
      "validate_max": 3663,
      "validate_min": 3664,
      "SafeText": 3665,
      "_iterkeys": 3666,
      "handle_m2m": 3667,
      "unique_id": 3668,
      "[^\\\\": 3669,
      "initial_value": 3670,
      "list_of_": 3671,
      "RemovedInDjango20Warning": 3672,
      "+)',": 3673,
      "for_model": 3674,
      "column_name": 3675,
      "NOTICE": 3676,
      "form_errors": 3677,
      "ibi": 3678,
      "object_count": 3679,
      "ignored": 3680,
      "servers": 3681,
      "author_link": 3682,
      "order_by": 3683,
      "locations": 3684,
      "parent_name": 3685,
      "parent_instance": 3686,
      "factor": 3687,
      "InvalidTemplateLibrary": 3688,
      "get_language_from": 3689,
      "ipv6_address": 3690,
      "(',',": 3691,
      "conditions_nodelists": 3692,
      "extra_params": 3693,
      "schemes": 3694,
      "cked": 3695,
      "hexdigest": 3696,
      "_expr": 3697,
      "USE_T": 3698,
      "MIGRATE_LAB": 3699,
      "SERVER": 3700,
      "sequences": 3701,
      "=\"{": 3702,
      "use_natural_keys": 3703,
      "Proxy": 3704,
      "renamed_method": 3705,
      "doesn": 3706,
      "recipi": 3707,
      "ConvertingDict": 3708,
      "FFSET": 3709,
      "Iteration": 3710,
      "Iterator": 3711,
      "resolved_args": 3712,
      "specific": 3713,
      "LazyObject": 3714,
      "PATTERN": 3715,
      "build_attrs": 3716,
      "allowed": 3717,
      "md5": 3718,
      "StopIteration": 3719,
      "full_path": 3720,
      "daemonize": 3721,
      "check_for_language": 3722,
      "left": 3723,
      "exit_": 3724,
      "accept_": 3725,
      "installed": 3726,
      "MONTHS": 3727,
      "filter_expression": 3728,
      "truncate_len": 3729,
      "Wrapper": 3730,
      "extras": 3731,
      "IPv6": 3732,
      "MultiPartParserError": 3733,
      "widget_attrs": 3734,
      "cached_property": 3735,
      "CONTENT_": 3736,
      "EMPTY_": 3737,
      "normpath": 3738,
      "123456789": 3739,
      "MEDIA_": 3740,
      "RegexURLResolver": 3741,
      "abcdefg": 3742,
      "I18N": 3743,
      "_assert_mutable": 3744,
      "i18n": 3745,
      "slots": 3746,
      "__len__": 3747,
      "__eq__": 3748,
      "formset_factory": 3749,
      "get_text_list": 3750,
      "get_by_natural_key": 3751,
      "streaming_content": 3752,
      "SELECT": 3753,
      "DEFAULT_CACHE_ALIAS": 3754,
      "MIGRATE_LABEL": 3755,
      "'(?:": 3756,
      ").\"": 3757,
      ",%": 3758,
      "500": 3759,
      "<!": 3760,
      "=',": 3761,
      "><": 3762,
      "?\\": 3763,
      "All": 3764,
      "Block": 3765,
      "BLOCK": 3766,
      "CL": 3767,
      "C_": 3768,
      "Cycle": 3769,
      "DATE_": 3770,
      "Equal": 3771,
      "Found": 3772,
      "HI": 3773,
      "IS": 3774,
      "LENG": 3775,
      "Man": 3776,
      "Non": 3777,
      "PP": 3778,
      "So": 3779,
      "XML": 3780,
      "ZE": 3781,
      "Zip": 3782,
      "_1": 3783,
      "_d": 3784,
      "_lib": 3785,
      "_text_": 3786,
      "_version": 3787,
      "_match": 3788,
      "_line": 3789,
      "_header": 3790,
      "_parse": 3791,
      "_types": 3792,
      "_urlconf": 3793,
      "_charset": 3794,
      "_expi": 3795,
      "_KEY": 3796,
      "_assert": 3797,
      "_separ": 3798,
      "_override": 3799,
      "_upload_handlers": 3800,
      "_newlines": 3801,
      "_translations": 3802,
      "ctime": 3803,
      "cwords": 3804,
      "d1": 3805,
      "etag": 3806,
      "equal": 3807,
      "echo": 3808,
      "flow": 3809,
      "happ": 3810,
      "ible_": 3811,
      "jk": 3812,
      "just": 3813,
      "ject_": 3814,
      "long": 3815,
      "mu": 3816,
      "mal": 3817,
      "mcs": 3818,
      "por": 3819,
      "pun": 3820,
      "sle": 3821,
      "td": 3822,
      "ton": 3823,
      "utions": 3824,
      "xrange": 3825,
      "x80": 3826,
      "|'": 3827,
      "incre": 3828,
      "in_tag": 3829,
      "tep": 3830,
      "rect": 3831,
      "reader": 3832,
      "repre": 3833,
      "relation": 3834,
      "re_info": 3835,
      "response_": 3836,
      "ont": 3837,
      "ded": 3838,
      "decompress": 3839,
      "desc": 3840,
      "stit": 3841,
      "medi": 3842,
      "ance": 3843,
      "tick": 3844,
      "urli": 3845,
      "gen": 3846,
      "mper": 3847,
      "fork": 3848,
      "t_list": 3849,
      "root_": 3850,
      "like": 3851,
      "__get": 3852,
      "__cast": 3853,
      "__dispatch": 3854,
      "conn": 3855,
      "ssl": 3856,
      "value_": 3857,
      "d_item": 3858,
      "argparse": 3859,
      "('<": 3860,
      "('([": 3861,
      "sult": 3862,
      "mod_": 3863,
      "to_csv": 3864,
      "getLog": 3865,
      "fromtimestamp": 3866,
      "part_": 3867,
      "timetuple": 3868,
      "ser_fmt": 3869,
      "')['": 3870,
      "attrib": 3871,
      "attrgetter": 3872,
      "classmethod": 3873,
      "date_format": 3874,
      "endtag": 3875,
      "mental": 3876,
      "get_template": 3877,
      "get_backend_": 3878,
      "urlun": 3879,
      "permitted": 3880,
      "project_": 3881,
      "base_url": 3882,
      "submodule": 3883,
      "substit": 3884,
      "sable": 3885,
      "_css": 3886,
      "pre_": 3887,
      "_remove": 3888,
      "'%(": 3889,
      "module_has_": 3890,
      "uniq": 3891,
      "datetime_safe": 3892,
      "with_": 3893,
      "var1": 3894,
      "resultclasses": 3895,
      "plain": 3896,
      "to_locale": 3897,
      "is_valid": 3898,
      "msgmerge": 3899,
      "msgattrib": 3900,
      "msguniq": 3901,
      "INE": 3902,
      "Reverse": 3903,
      "curr": 3904,
      "new_list": 3905,
      "new_file": 3906,
      "point": 3907,
      "ERS": 3908,
      "readable": 3909,
      "linebreak": 3910,
      "ternal": 3911,
      "k_file": 3912,
      "render_value": 3913,
      "replaces": 3914,
      "TemplateResponse": 3915,
      "mydict": 3916,
      "ARK": 3917,
      "npgettext": 3918,
      "style_func": 3919,
      "locale_": 3920,
      "localedir": 3921,
      "pks": 3922,
      "other_dict": 3923,
      "pythonrc": 3924,
      "registe": 3925,
      "max_entries": 3926,
      "fixture_file": 3927,
      "literal_": 3928,
      "Unreadable": 3929,
      "when": 3930,
      "Typed": 3931,
      "rowser": 3932,
      "Memcached": 3933,
      "state__": 3934,
      "block_tag": 3935,
      "FIL": 3936,
      "running": 3937,
      "relative": 3938,
      "source_": 3939,
      "second_item": 3940,
      "input_data": 3941,
      "input_iter": 3942,
      "_format_string": 3943,
      "ioner": 3944,
      "outer": 3945,
      "common": 3946,
      "old_method_": 3947,
      "validate_unique": 3948,
      "validate_ipv4": 3949,
      "unique_": 3950,
      "initial_forms": 3951,
      "load_template_source": 3952,
      "dirnames": 3953,
      "disposition": 3954,
      "logging_": 3955,
      "html_class_": 3956,
      "1000": 3957,
      "lookups": 3958,
      "ChoiceInput": 3959,
      "top_dir": 3960,
      "normcase": 3961,
      "err_": 3962,
      "ABC": 3963,
      "fk_name": 3964,
      "pubdate": 3965,
      "S_I": 3966,
      "cache_choices": 3967,
      "all_issues": 3968,
      "(',')]": 3969,
      "extra_classes": 3970,
      "context_extras": 3971,
      "bytes_to_": 3972,
      "SIZE": 3973,
      "SelectMultiple": 3974,
      "prog_name": 3975,
      "base64d": 3976,
      "ADD": 3977,
      "lineno_cache": 3978,
      "configure_": 3979,
      "use_natural_primary_keys": 3980,
      "raw_data": 3981,
      "DateTimeField": 3982,
      "constant": 3983,
      "work_file": 3984,
      "ConvertingList": 3985,
      "ConvertingTuple": 3986,
      "_PALETTE": 3987,
      "flatten": 3988,
      "comment_lineno_cache": 3989,
      "client": 3990,
      "Signer": 3991,
      "Signature": 3992,
      "TOKEN_BLOCK": 3993,
      "email_messages": 3994,
      "candidate_": 3995,
      "total_form_count": 3996,
      "EscapeData": 3997,
      "alternative": 3998,
      "urlsplit": 3999,
      "choice_value": 4000,
      "script_name": 4001,
      "check_for_migrations": 4002,
      "realpath": 4003,
      "delete_first_": 4004,
      "sync": 4005,
      "phone": 4006,
      "piece": 4007,
      "smtp": 4008,
      "F_IN": 4009,
      "squash": 4010,
      "needs_autoescape": 4011,
      "receiver": 4012,
      "color_style": 4013,
      "guessed_": 4014,
      "lexer": 4015,
      "PostError": 4016,
      "correct": 4017,
      "get_default_timezone": 4018,
      "symlink": 4019,
      "changed_data": 4020,
      "DJANGO_": 4021,
      "Dumper": 4022,
      "__contains__": 4023,
      "COOKIES": 4024,
      "'()'": 4025,
      "pandas": 4026,
      "retrieve": 4027,
      "System": 4028,
      "CycleNode": 4029,
      "LENGTH": 4030,
      "_expire_info": 4031,
      "punct": 4032,
      "sleep": 4033,
      "incremental": 4034,
      "medium": 4035,
      "urlize": 4036,
      "getLogger": 4037,
      "get_backend_timeout": 4038,
      "substitutions": 4039,
      "module_has_submodule": 4040,
      "UnreadablePostError": 4041,
      "MemcachedCache": 4042,
      "old_method_name": 4043,
      "html_class_attr": 4044,
      "bytes_to_text": 4045,
      "delete_first_token": 4046,
      "\"/": 4047,
      "#-": 4048,
      "'#": 4049,
      "'+'": 4050,
      "'?'": 4051,
      "({": 4052,
      ")')": 4053,
      "/>'": 4054,
      "03": 4055,
      "17": 4056,
      "1e": 4057,
      "300": 4058,
      "70": 4059,
      "859": 4060,
      ">|": 4061,
      ">',": 4062,
      "@'": 4063,
      "AC": 4064,
      "BLE": 4065,
      "BRA": 4066,
      "CRI": 4067,
      "CTION": 4068,
      "DN": 4069,
      "DS": 4070,
      "Gro": 4071,
      "GET": 4072,
      "IST": 4073,
      "IF_IN": 4074,
      "Jan": 4075,
      "Liter": 4076,
      "L10": 4077,
      "Mer": 4078,
      "MUL": 4079,
      "MTP": 4080,
      "Pr": 4081,
      "Raise": 4082,
      "SING": 4083,
      "SMTP": 4084,
      "TRI": 4085,
      "Vie": 4086,
      "[%": 4087,
      "\\]": 4088,
      "\\.\\": 4089,
      "]])": 4090,
      "_S": 4091,
      "_di": 4092,
      "_all": 4093,
      "_model": 4094,
      "_table": 4095,
      "_pop": 4096,
      "_exception": 4097,
      "_boundary": 4098,
      "_raw_": 4099,
      "_convert": 4100,
      "_auto_created": 4101,
      "_IF_IN": 4102,
      "``": 4103,
      "ct_": 4104,
      "css": 4105,
      "cdata": 4106,
      "d2": 4107,
      "ef": 4108,
      "edi": 4109,
      "even": 4110,
      "fer": 4111,
      "false": 4112,
      "gz": 4113,
      "jp": 4114,
      "lat": 4115,
      "lator": 4116,
      "lstrip": 4117,
      "null": 4118,
      "pdf": 4119,
      "qrst": 4120,
      "rfind": 4121,
      "ratio": 4122,
      "son": 4123,
      "slice": 4124,
      "step": 4125,
      "ub": 4126,
      "upath": 4127,
      "vw": 4128,
      "wd": 4129,
      "x1": 4130,
      "xa": 4131,
      "zlib": 4132,
      "|\\": 4133,
      "ink": 4134,
      "incr": 4135,
      "inverse_": 4136,
      "tend": 4137,
      "release": 4138,
      "de_": 4139,
      "select_": 4140,
      "alter": 4141,
      "me_": 4142,
      "mem": 4143,
      "meth": 4144,
      "mension": 4145,
      "let": 4146,
      "ard_": 4147,
      "urlo": 4148,
      "role": 4149,
      "__copy": 4150,
      "__nex": 4151,
      "__exi": 4152,
      "__enter": 4153,
      "__deli": 4154,
      "construct": 4155,
      "chron": 4156,
      "exe": 4157,
      "nop": 4158,
      "d_value": 4159,
      "d_params": 4160,
      "this_": 4161,
      "unget": 4162,
      "under": 4163,
      "unhandle": 4164,
      "termi": 4165,
      "dio": 4166,
      "diter": 4167,
      "silen": 4168,
      "list2": 4169,
      "opt_": 4170,
      "optimi": 4171,
      "ErrorList": 4172,
      "span": 4173,
      "dates": 4174,
      "endpos": 4175,
      "get_queryset": 4176,
      "latest_": 4177,
      "igu": 4178,
      "urlretrieve": 4179,
      "mbigu": 4180,
      "per_page": 4181,
      "prox": 4182,
      "propag": 4183,
      "base36": 4184,
      "format_module": 4185,
      "format_type": 4186,
      "']['": 4187,
      "boolean": 4188,
      "itervalues": 4189,
      "NoReverse": 4190,
      "_custom": 4191,
      "_client": 4192,
      "_cull_frequency": 4193,
      "Inst": 4194,
      "Inter": 4195,
      "Info": 4196,
      "finditer": 4197,
      "_resol": 4198,
      "wise": 4199,
      "them": 4200,
      "module_name": 4201,
      "model_class": 4202,
      "without": 4203,
      "request_repr": 4204,
      "y_string": 4205,
      "migrate_": 4206,
      "to_path": 4207,
      "ATUS": 4208,
      "sort_": 4209,
      "is_hidden": 4210,
      "error_msg": 4211,
      "BaseModel": 4212,
      "BaseConver": 4213,
      "BaseInline": 4214,
      "cache_clear": 4215,
      "started": 4216,
      "ALLO": 4217,
      "img": 4218,
      "exc_value": 4219,
      "ground": 4220,
      "compiled_": 4221,
      "header_": 4222,
      "findAll": 4223,
      "locks": 4224,
      "1024": 4225,
      "myString": 4226,
      "min_length": 4227,
      "_string_": 4228,
      "')))": 4229,
      "STATUS": 4230,
      "FileField": 4231,
      "style_list": 4232,
      "main_func": 4233,
      "num_pages": 4234,
      "COD": 4235,
      "versed": 4236,
      "excluded_": 4237,
      "Metho": 4238,
      "block_context": 4239,
      "gistry": 4240,
      "TABLE": 4241,
      "signing": 4242,
      "comments": 4243,
      "2010": 4244,
      "Enti": 4245,
      "my_dict": 4246,
      "wrapping": 4247,
      "current_token": 4248,
      "'<%": 4249,
      "})'": 4250,
      "old_style_list": 4251,
      "'\\\\\\\\": 4252,
      "ing_bits": 4253,
      "SafeBytes": 4254,
      "SafeDumper": 4255,
      "_iterable": 4256,
      "has_changed": 4257,
      "[^\"": 4258,
      "UNK": 4259,
      "auth_": 4260,
      "UTF": 4261,
      "NOT_": 4262,
      "IPython": 4263,
      "IPAddress": 4264,
      "('%.": 4265,
      "LE_BRA": 4266,
      "DIRE": 4267,
      "DICT": 4268,
      "expand": 4269,
      "avoid_": 4270,
      "fks_to_": 4271,
      "senten": 4272,
      "cookie_": 4273,
      "child_": 4274,
      "_post_": 4275,
      "binascii": 4276,
      "cache_model_class": 4277,
      "HTTP_NOT_": 4278,
      "MigrationExec": 4279,
      "refto": 4280,
      "KEY_": 4281,
      "...": 4282,
      "]+',": 4283,
      "context_processors": 4284,
      "compatibi": 4285,
      "issub": 4286,
      "agg": 4287,
      "decimal_pos": 4288,
      "USE_L10": 4289,
      "CheckMessage": 4290,
      "negate": 4291,
      "(\"//": 4292,
      "\\\\.\\\\": 4293,
      "selected": 4294,
      "resolved_kwargs": 4295,
      "new_method_name": 4296,
      "include_auto_created": 4297,
      "expect": 4298,
      "('(\\\\": 4299,
      "isoformat": 4300,
      "view_func": 4301,
      "\"<%": 4302,
      "TEMPLATE_STRING": 4303,
      "BadHeader": 4304,
      "remaining_bits": 4305,
      "alternatives": 4306,
      "character": 4307,
      "empty_permitted": 4308,
      "Metaclass": 4309,
      "VALID": 4310,
      "verse_dict": 4311,
      "by_xpath": 4312,
      "plan_node": 4313,
      "is_reversed": 4314,
      "Count": 4315,
      "Locale": 4316,
      "TIME_INPUT_FORMATS": 4317,
      "wsgi_opts": 4318,
      "wsgi_application": 4319,
      "selected_choices": 4320,
      "MONTHS_": 4321,
      "CREATE": 4322,
      "pieces": 4323,
      "container": 4324,
      "TemporaryFile": 4325,
      "_is_rendered": 4326,
      "taglib_module": 4327,
      "_response_middleware": 4328,
      "read_csv": 4329,
      "NumberInput": 4330,
      "_validator": 4331,
      "dummy": 4332,
      "waiting_writers": 4333,
      "non_form_errors": 4334,
      "hidden_widget": 4335,
      "PALETTES": 4336,
      "cmp_fmt": 4337,
      "rel_model": 4338,
      "fillna": 4339,
      "features": 4340,
      "UNICODE": 4341,
      "send_messages": 4342,
      "JSONEncoder": 4343,
      "_LazyModule": 4344,
      "memoryview": 4345,
      "popen_wrapper": 4346,
      "query_string": 4347,
      "_catalog": 4348,
      "TICAL": 4349,
      "git_changeset": 4350,
      "management_form": 4351,
      "USE_TZ": 4352,
      "SERVER_": 4353,
      "recipien": 4354,
      "Manage": 4355,
      "XMLGenerator": 4356,
      "urlunsplit": 4357,
      "linebreaks": 4358,
      "smtplib": 4359,
      "1e200": 4360,
      "CRITICAL": 4361,
      "Group": 4362,
      "Literal": 4363,
      "MULTI": 4364,
      "Prints": 4365,
      "SINGLE_BRA": 4366,
      "View": 4367,
      "_dimension": 4368,
      "_populate": 4369,
      "_IF_INVALID": 4370,
      "editable": 4371,
      "jpg": 4372,
      "latin": 4373,
      "vwxyz": 4374,
      "inverse_match": 4375,
      "urlopen": 4376,
      "__copy__": 4377,
      "__next__": 4378,
      "__exit__": 4379,
      "__enter__": 4380,
      "__delitem__": 4381,
      "unhandled_params": 4382,
      "termios": 4383,
      "propagate": 4384,
      "format_module_path": 4385,
      "NoReverseMatch": 4386,
      "migrate_signal": 4387,
      "BaseModelFormSet": 4388,
      "BaseConverter": 4389,
      "BaseInlineFormSet": 4390,
      "IPAddressField": 4391,
      "avoid_wrapping": 4392,
      "fks_to_parent": 4393,
      "sentence": 4394,
      "MigrationExecutor": 4395,
      "compatibility": 4396,
      "USE_L10N": 4397,
      "TEMPLATE_STRING_IF_INVALID": 4398,
      "BadHeaderError": 4399,
      "SINGLE_BRACE_": 4400,
      "\".\"": 4401,
      "\"%(": 4402,
      "$')": 4403,
      "'!": 4404,
      "'(": 4405,
      "'('": 4406,
      "'[^": 4407,
      "'@'": 4408,
      ")+": 4409,
      ")}": 4410,
      "+?": 4411,
      ",\\": 4412,
      ".\\\\": 4413,
      "05": 4414,
      "07": 4415,
      "0123456789": 4416,
      "2nu": 4417,
      "304": 4418,
      "400": 4419,
      "62": 4420,
      "8859": 4421,
      ">{": 4422,
      ">%(": 4423,
      "Alter": 4424,
      "Clear": 4425,
      "EKD": 4426,
      "Event": 4427,
      "FC": 4428,
      "IZ": 4429,
      "Ite": 4430,
      "Len": 4431,
      "LAP": 4432,
      "Middle": 4433,
      "MMENT": 4434,
      "OL": 4435,
      "Out": 4436,
      "Over": 4437,
      "One": 4438,
      "OVER": 4439,
      "PES": 4440,
      "Rel": 4441,
      "TS": 4442,
      "Tar": 4443,
      "TING": 4444,
      "TRA": 4445,
      "Ver": 4446,
      "[['": 4447,
      "\\/": 4448,
      "_B": 4449,
      "_O": 4450,
      "_os": 4451,
      "_join": 4452,
      "_migrations": 4453,
      "_chunk": 4454,
      "_thread": 4455,
      "_changed": 4456,
      "_tokens": 4457,
      "_OK": 4458,
      "_view_": 4459,
      "_body": 4460,
      "_ordering": 4461,
      "act": 4462,
      "bz": 4463,
      "bpython": 4464,
      "d0": 4465,
      "dr": 4466,
      "dified": 4467,
      "ek_": 4468,
      "fh": 4469,
      "fset": 4470,
      "ftp": 4471,
      "full": 4472,
      "fcnt": 4473,
      "font": 4474,
      "gu": 4475,
      "got": 4476,
      "hist": 4477,
      "js_": 4478,
      "l1": 4479,
      "lm": 4480,
      "nate": 4481,
      "natives": 4482,
      "pprint": 4483,
      "tls": 4484,
      "tree": 4485,
      "trol": 4486,
      "ual_": 4487,
      "usable": 4488,
      "uvwxyz": 4489,
      "who": 4490,
      "xed": 4491,
      "xgettext_": 4492,
      "yload": 4493,
      "zfile": 4494,
      "zy_": 4495,
      "seq": 4496,
      "into": 4497,
      "inplural": 4498,
      "ority": 4499,
      "reset": 4500,
      "real_": 4501,
      "dev": 4502,
      "alone": 4503,
      "stor": 4504,
      "stand": 4505,
      "atty": 4506,
      "less": 4507,
      "another": 4508,
      "ified_": 4509,
      "fil": 4510,
      "mpt": 4511,
      "lazy_": 4512,
      "ced": 4513,
      "namelist": 4514,
      "__offset": 4515,
      "__starttag": 4516,
      "__nonzero": 4517,
      "ender": 4518,
      "concate": 4519,
      "confir": 4520,
      "chmod": 4521,
      "noinput": 4522,
      "isatty": 4523,
      "term": 4524,
      "keep": 4525,
      "('\"": 4526,
      "str1": 4527,
      "str_number": 4528,
      "tom": 4529,
      "too": 4530,
      "key1": 4531,
      "getIn": 4532,
      "getElement": 4533,
      "getmtime": 4534,
      "patParser": 4535,
      "notation": 4536,
      "args_message": 4537,
      "filesize": 4538,
      "atable_": 4539,
      "ashed": 4540,
      "setter": 4541,
      "djangojs": 4542,
      "datastruct": 4543,
      "uld_": 4544,
      "checked": 4545,
      "date_check": 4546,
      "get_node": 4547,
      "get_migr": 4548,
      "get_version": 4549,
      "get_app_config": 4550,
      "get_bytes_": 4551,
      "get_hist": 4552,
      "init": 4553,
      "url_name": 4554,
      "urljoin": 4555,
      "url_info": 4556,
      "urlresolver": 4557,
      "maj": 4558,
      "ip_address": 4559,
      "Trunc": 4560,
      "payload": 4561,
      "prompt": 4562,
      "string1": 4563,
      "s_re": 4564,
      "s_by": 4565,
      "s_cache": 4566,
      "s_opt": 4567,
      "s_in_": 4568,
      "app_dict": 4569,
      "app_models": 4570,
      "app_template_dirs": 4571,
      "']]": 4572,
      "libr": 4573,
      "print_": 4574,
      "subdir": 4575,
      "submit": 4576,
      "join_tokens": 4577,
      "handle_f": 4578,
      "tagname": 4579,
      "_cull": 4580,
      "finder": 4581,
      "compres": 4582,
      "Modified": 4583,
      "thefile": 4584,
      "union": 4585,
      "unicate": 4586,
      "model_de": 4587,
      "])',": 4588,
      "dow": 4589,
      "resultclass": 4590,
      "lusion": 4591,
      "add_fields": 4592,
      "write_": 4593,
      "to_field": 4594,
      "to_field_name": 4595,
      "CommandParser": 4596,
      "ATTRI": 4597,
      "is_localize": 4598,
      "is_usable": 4599,
      "objects_in_": 4600,
      "ExpatParser": 4601,
      "BaseContext": 4602,
      "BaseMemcachedCache": 4603,
      "\"\"\"\\\\": 4604,
      "solete": 4605,
      "()).": 4606,
      "new_file_name": 4607,
      "field_desc": 4608,
      "safe_join": 4609,
      "escapejs": 4610,
      "ready": 4611,
      "render_callback": 4612,
      "Control": 4613,
      "numbers": 4614,
      "transfer": 4615,
      "use_grouping": 4616,
      "use_ssl": 4617,
      "counters": 4618,
      ")],": 4619,
      "FAST": 4620,
      "usr": 4621,
      "virt": 4622,
      "http_date": 4623,
      "ignor": 4624,
      "'\"%": 4625,
      "RES": 4626,
      "REDIRE": 4627,
      "otherwise": 4628,
      "html_name": 4629,
      "autodetector": 4630,
      "quire": 4631,
      "num_errors": 4632,
      "meric": 4633,
      "process_response": 4634,
      "signe": 4635,
      "default_kwargs": 4636,
      "default_validators": 4637,
      "default_locale_path": 4638,
      "MultiAlter": 4639,
      "verbose": 4640,
      "Parse": 4641,
      "nerText": 4642,
      "ENT": 4643,
      "MIS": 4644,
      "block_": 4645,
      "block_name": 4646,
      "ized": 4647,
      "years": 4648,
      "Entry": 4649,
      "EncodeError": 4650,
      "testlist": 4651,
      "input_val": 4652,
      "input_class": 4653,
      "quote_name": 4654,
      "communicate": 4655,
      "'<'": 4656,
      "'</": 4657,
      "afe_": 4658,
      "destro": 4659,
      "parse_error": 4660,
      "active_writers": 4661,
      "old_field_name": 4662,
      "[(-": 4663,
      "saved_": 4664,
      "Series": 4665,
      "orig_file": 4666,
      "handle_field": 4667,
      "D_HOST": 4668,
      "unique_checks": 4669,
      "file_ext": 4670,
      "file_complete": 4671,
      "find_all": 4672,
      "HttpResponseRedirect": 4673,
      "load_initial_data": 4674,
      "ted_path": 4675,
      "Doc": 4676,
      "list_of": 4677,
      "disable": 4678,
      "tempor": 4679,
      "decimals": 4680,
      "Timezone": 4681,
      "week_": 4682,
      "original": 4683,
      "merge_migrations": 4684,
      "expired": 4685,
      "string_escape": 4686,
      "EmailMultiAlter": 4687,
      "as_ul": 4688,
      "_create": 4689,
      "modified_": 4690,
      "addrport": 4691,
      "Named": 4692,
      "should_": 4693,
      "mime_type": 4694,
      "]*)": 4695,
      "loop_dict": 4696,
      "S_NAME": 4697,
      "S_MODUL": 4698,
      "fake": 4699,
      "SETTING": 4700,
      "SimpleTemplateResponse": 4701,
      "TYPES": 4702,
      "_pot": 4703,
      "bind": 4704,
      "final_output": 4705,
      "refs": 4706,
      "create_token": 4707,
      "RegexValidator": 4708,
      "buffer_": 4709,
      "LOCK_EX": 4710,
      "VariableNode": 4711,
      "_COMMENT": 4712,
      "That": 4713,
      "MultipleHiddenInput": 4714,
      "MIGRATE_SUCCESS": 4715,
      "post_migrate": 4716,
      "hours": 4717,
      "TOKEN_COMMENT": 4718,
      "LANGUAGES": 4719,
      "UnicodeEncodeError": 4720,
      "reset_sequences": 4721,
      "'^\\": 4722,
      "EXT": 4723,
      "EXIST": 4724,
      "builtin": 4725,
      "potfiles": 4726,
      "256": 4727,
      "s_to_delete": 4728,
      "known_models": 4729,
      "PED": 4730,
      "timesince": 4731,
      "RequestContext": 4732,
      "[::(-": 4733,
      "issue_count": 4734,
      "dotted_path": 4735,
      "FILE_CHARSET": 4736,
      "HEADER": 4737,
      "absolute_path": 4738,
      "TOKEN_VAR": 4739,
      "serialized": 4740,
      "WSGIRequest": 4741,
      "email_message": 4742,
      "utcnow": 4743,
      "normalize_newlines": 4744,
      "IfParser": 4745,
      "Sub": 4746,
      "_regex_dict": 4747,
      "Runtime": 4748,
      "urlsafe_": 4749,
      "choice_input_class": 4750,
      "TIONS": 4751,
      "_FIELD_NAME": 4752,
      "BLOCK_TAG_START": 4753,
      "BLOCK_CONTEXT_": 4754,
      "Translation": 4755,
      "SplitDateTimeWidget": 4756,
      "missing": 4757,
      "LocalTimezone": 4758,
      "installed_": 4759,
      "selected_fields": 4760,
      "PREV": 4761,
      "filter_expr": 4762,
      "Option": 4763,
      "hijk": 4764,
      "from_wsgi": 4765,
      "feed_url": 4766,
      "feed_copyright": 4767,
      "DatabaseCache": 4768,
      "1_weekday": 4769,
      "integer_types": 4770,
      "fixture_dirs": 4771,
      "WEEKD": 4772,
      "row_data": 4773,
      "row_ender": 4774,
      "setlistdefault": 4775,
      "space_dict": 4776,
      "CheckboxInput": 4777,
      "fetchone": 4778,
      "priority": 4779,
      "SuspiciousOperation": 4780,
      "CGI_": 4781,
      "Radio": 4782,
      "ns_pattern": 4783,
      "obsolete": 4784,
      "slugify": 4785,
      "leave_": 4786,
      "shutdown_message": 4787,
      "MAX_NUM": 4788,
      "display_num_errors": 4789,
      "_delegate_bytes": 4790,
      "_generate_cache": 4791,
      "missing_args_message": 4792,
      "leading_dir": 4793,
      "blankout": 4794,
      "_unget_hist": 4795,
      "_load_serializers": 4796,
      "elem": 4797,
      "jan1_weekday": 4798,
      "visible_": 4799,
      "xc3": 4800,
      "tag_exists": 4801,
      "model_identifier": 4802,
      "DELETE": 4803,
      "exit_code": 4804,
      "EMPTY_DICT": 4805,
      "abcdefghijk": 4806,
      "happen": 4807,
      "__getstate__": 4808,
      "project_name": 4809,
      "locale_alone": 4810,
      "syncdb": 4811,
      "phone2nu": 4812,
      "DNS_NAME": 4813,
      "qrstuvwxyz": 4814,
      "proxy_": 4815,
      "ALLOWE": 4816,
      "Management": 4817,
      "Items": 4818,
      "Length": 4819,
      "LAPPED": 4820,
      "Middleware": 4821,
      "Output": 4822,
      "OVERLAPPED": 4823,
      "bz2": 4824,
      "fcntl": 4825,
      "whole": 4826,
      "xgettext_options": 4827,
      "standard_": 4828,
      "__starttag_text": 4829,
      "__nonzero__": 4830,
      "concatenate": 4831,
      "confirm": 4832,
      "getInnerText": 4833,
      "notation_name": 4834,
      "atable_models": 4835,
      "datastructures": 4836,
      "get_nodes_by": 4837,
      "get_migratable_models": 4838,
      "get_bytes_from_wsgi": 4839,
      "urlresolvers": 4840,
      "Truncator": 4841,
      "compressed": 4842,
      "model_dependencies": 4843,
      "ATTRIB": 4844,
      "is_localized": 4845,
      "objects_in_fixture": 4846,
      "FASTCGI_": 4847,
      "virtual_": 4848,
      "week_number": 4849,
      "EmailMultiAlternatives": 4850,
      "S_MODULE": 4851,
      "SETTINGS_MODULE": 4852,
      "BLOCK_CONTEXT_KEY": 4853,
      "WEEKDAY": 4854,
      "leave_locale_alone": 4855,
      "_unget_history": 4856,
      "visible_issue_count": 4857,
      "phone2numeric": 4858,
      "get_nodes_by_type": 4859,
      "\".'": 4860,
      "\").": 4861,
      "\"[^\"": 4862,
      "'>'": 4863,
      "'|'": 4864,
      ")|": 4865,
      "*[": 4866,
      "*',": 4867,
      ",))": 4868,
      "/',": 4869,
      "06": 4870,
      "08": 4871,
      "1c": 4872,
      "1d": 4873,
      "29": 4874,
      "37": 4875,
      ":\\": 4876,
      ":(?": 4877,
      ";\"": 4878,
      "={": 4879,
      ">%": 4880,
      "AD_": 4881,
      "Ambigu": 4882,
      "Col": 4883,
      "CATE": 4884,
      "Don": 4885,
      "DST": 4886,
      "IAL": 4887,
      "IRE": 4888,
      "Jun": 4889,
      "LI": 4890,
      "LINE": 4891,
      "MAN": 4892,
      "MIN_": 4893,
      "MARK": 4894,
      "NEXT": 4895,
      "Offset": 4896,
      "Pick": 4897,
      "Pass": 4898,
      "Que": 4899,
      "Rss": 4900,
      "RUN": 4901,
      "Tot": 4902,
      "Win": 4903,
      "Wor": 4904,
      "Y_": 4905,
      "Your": 4906,
      "]\"": 4907,
      "]:": 4908,
      "]\\": 4909,
      "]*?": 4910,
      "_a": 4911,
      "_m": 4912,
      "_per": 4913,
      "_base": 4914,
      "_settings": 4915,
      "_item": 4916,
      "_handler": 4917,
      "_new_": 4918,
      "_compile": 4919,
      "_range": 4920,
      "_Moved": 4921,
      "_choices": 4922,
      "_warning": 4923,
      "_map": 4924,
      "_glob": 4925,
      "_loc": 4926,
      "_lang_code": 4927,
      "_vars": 4928,
      "_localtime": 4929,
      "_subtype": 4930,
      "_lef": 4931,
      "_INFO": 4932,
      "_bi": 4933,
      "_none_value": 4934,
      "_globals": 4935,
      "_coerce": 4936,
      "_construct_": 4937,
      "_ipython": 4938,
      "_counter": 4939,
      "_max_entries": 4940,
      "_changed_data": 4941,
      "_meth": 4942,
      "_container": 4943,
      "_js_": 4944,
      "ba": 4945,
      "bmatch": 4946,
      "bid_": 4947,
      "bash": 4948,
      "cer": 4949,
      "cas": 4950,
      "cwd": 4951,
      "dCycleNode": 4952,
      "est": 4953,
      "etags": 4954,
      "fA": 4955,
      "fget": 4956,
      "fdel": 4957,
      "gd": 4958,
      "gn": 4959,
      "gnu": 4960,
      "hr": 4961,
      "hu": 4962,
      "ht_": 4963,
      "hlen": 4964,
      "iant": 4965,
      "lt__": 4966,
      "mro": 4967,
      "mment": 4968,
      "ng": 4969,
      "ni": 4970,
      "nm": 4971,
      "nel": 4972,
      "nd_": 4973,
      "npath": 4974,
      "plist": 4975,
      "pha": 4976,
      "png": 4977,
      "qn": 4978,
      "rp": 4979,
      "rmt": 4980,
      "rXMLGenerator": 4981,
      "sal": 4982,
      "sBy": 4983,
      "sRegex": 4984,
      "utes": 4985,
      "wan": 4986,
      "xe": 4987,
      "xfrom": 4988,
      "xaxis": 4989,
      "xd0": 4990,
      "z0": 4991,
      "section": 4992,
      "insp": 4993,
      "in1d": 4994,
      "re_": 4995,
      "red_": 4996,
      "remo": 4997,
      "reloader": 4998,
      "reload": 4999,
      "references": 5000,
      "reference": 5001,
      "ded_": 5002,
      "dent": 5003,
      "deactiv": 5004,
      "delim": 5005,
      "dependencies": 5006,
      "already": 5007,
      "alpha": 5008,
      "sting": 5009,
      "lege": 5010,
      "anded_": 5011,
      "tical": 5012,
      "geDict": 5013,
      "mp3": 5014,
      "forbid_": 5015,
      "t_path": 5016,
      "t_unicode": 5017,
      "t_log": 5018,
      "live": 5019,
      "__args": 5020,
      "__ne": 5021,
      "__kw": 5022,
      "__unicode": 5023,
      "__language": 5024,
      "__getattr": 5025,
      "__builtin": 5026,
      "__lt__": 5027,
      "concre": 5028,
      "ingClass": 5029,
      "ch2": 5030,
      "ch_": 5031,
      "exha": 5032,
      "ext_list": 5033,
      "ished": 5034,
      "d_context": 5035,
      "then": 5036,
      "unlock": 5037,
      "unlink": 5038,
      "('#": 5039,
      "('$": 5040,
      "sive": 5041,
      "idstring": 5042,
      "most": 5043,
      "tover": 5044,
      "from_string": 5045,
      "from_current_timezone": 5046,
      ")):": 5047,
      "filemsg": 5048,
      "paras": 5049,
      "pathext": 5050,
      "as_string": 5051,
      "ascrip": 5052,
      "data_value": 5053,
      "data_list": 5054,
      "spare": 5055,
      "date_checks": 5056,
      "endif": 5057,
      "get_field": 5058,
      "get_model": 5059,
      "get_migration": 5060,
      "get_valid_": 5061,
      "get_exception": 5062,
      "get_commands": 5063,
      "get_internal_": 5064,
      "get_supported_": 5065,
      "_namedCycleNode": 5066,
      "lated_context": 5067,
      "urlunquote": 5068,
      "blem": 5069,
      "delattr": 5070,
      "mmutable": 5071,
      "():": 5072,
      "()])": 5073,
      "formatting": 5074,
      "formatters": 5075,
      "option_label": 5076,
      "typed": 5077,
      "app_path": 5078,
      "fixed_": 5079,
      "subs": 5080,
      "subtitle": 5081,
      "iterlists": 5082,
      "al_row": 5083,
      "_css_": 5084,
      "configured": 5085,
      "InMemory": 5086,
      "finingClass": 5087,
      "finished": 5088,
      "_read": 5089,
      "_result": 5090,
      "Comment": 5091,
      "validation": 5092,
      "head": 5093,
      "''))": 5094,
      "they": 5095,
      "the_path": 5096,
      "module_to_": 5097,
      "unixfrom": 5098,
      "E_ERROR": 5099,
      "E_SEPARATOR": 5100,
      "token_kwargs": 5101,
      "dows": 5102,
      "local_": 5103,
      "add_option": 5104,
      "add_item_": 5105,
      "T_override": 5106,
      "T_PATTERN": 5107,
      "DEF": 5108,
      "DEX": 5109,
      "DEPRE": 5110,
      "y_run": 5111,
      "y_permissions_mode": 5112,
      "to_language": 5113,
      "tpl": 5114,
      "is_naive": 5115,
      "is_templatize": 5116,
      "Extend": 5117,
      "backout": 5118,
      "background": 5119,
      "msgid": 5120,
      "msg_count": 5121,
      "error_row": 5122,
      "add__": 5123,
      "INDEX": 5124,
      "\"\"\"^": 5125,
      "sole": 5126,
      "())}": 5127,
      "Reference": 5128,
      "Registry": 5129,
      "new_ip": 5130,
      "new_context": 5131,
      "pofile": 5132,
      "field_list": 5133,
      "field_stream": 5134,
      "OR_PALETTE": 5135,
      "ALL": 5136,
      "ate_all": 5137,
      "escape_html": 5138,
      "opening": 5139,
      "open_tags": 5140,
      "(?=": 5141,
      "([(": 5142,
      "ableFileInput": 5143,
      "k_v": 5144,
      "groupdict": 5145,
      "many_": 5146,
      "number_format": 5147,
      "language_var": 5148,
      "extend_": 5149,
      "use_only": 5150,
      "use_tls": 5151,
      "1010": 5152,
      "minutes": 5153,
      "'::'": 5154,
      "')).": 5155,
      "DjangoJSONEncoder": 5156,
      "DefiningClass": 5157,
      "close_": 5158,
      "closing": 5159,
      "zipfile": 5160,
      "DEFAULT_LOCALE_": 5161,
      "TED": 5162,
      "TIAL": 5163,
      "register_to": 5164,
      "created": 5165,
      "default_list": 5166,
      "default_args": 5167,
      "sha": 5168,
      "Unsupported": 5169,
      "gettext_module": 5170,
      "updates": 5171,
      "update_wrapper": 5172,
      "monthrange": 5173,
      "move_safe": 5174,
      "ENCOD": 5175,
      "rix": 5176,
      "ritical": 5177,
      "tuples": 5178,
      "ill": 5179,
      "illeg": 5180,
      "FIX": 5181,
      "LOADER": 5182,
      "LOAD_": 5183,
      "Syn": 5184,
      "can_fail": 5185,
      "_check_": 5186,
      "(?:\\": 5187,
      "201": 5188,
      "2011": 5189,
      "CacheBackend": 5190,
      "run_checks": 5191,
      "EST_": 5192,
      "test2": 5193,
      "_format_cache": 5194,
      "_format_module": 5195,
      "translation_function": 5196,
      "out_log": 5197,
      "current_len": 5198,
      "Http404": 5199,
      "ANSL": 5200,
      "parse_args": 5201,
      "active_readers": 5202,
      "_get_pk_": 5203,
      "old_list": 5204,
      "old_attr": 5205,
      "old_file_name": 5206,
      "import_settings": 5207,
      "ModelMultipleChoiceField": 5208,
      "middleware_class": 5209,
      "viewname": 5210,
      "orig_vars": 5211,
      "_iterlists": 5212,
      "user_function": 5213,
      "user_settings": 5214,
      "D_LOCAL": 5215,
      "_pk_field": 5216,
      "file_permissions_mode": 5217,
      "file_move_safe": 5218,
      "find_module": 5219,
      "initial_prefix": 5220,
      "TOCOL": 5221,
      "TOTAL": 5222,
      "allow_cas": 5223,
      "HTTPServer": 5224,
      "cc_de": 5225,
      "UND": 5226,
      "TextNode": 5227,
      "UTE_SEPARATOR": 5228,
      "column_names": 5229,
      "NOCOL": 5230,
      "_to_file": 5231,
      "template_localtime": 5232,
      "html_join": 5233,
      "10000": 5234,
      "DIR": 5235,
      "multi_line": 5236,
      "EmailMessage": 5237,
      "normal_row": 5238,
      "expanded_": 5239,
      "as_widget": 5240,
      "as_tuple": 5241,
      "format_html_join": 5242,
      "xmlrp": 5243,
      "sql_flush": 5244,
      "sql_indexes": 5245,
      "resolver_match": 5246,
      "]*\\\\": 5247,
      "m2m_convert": 5248,
      "SimplerXMLGenerator": 5249,
      "THO": 5250,
      "cade": 5251,
      "InvalidCacheBackend": 5252,
      "can_import_settings": 5253,
      "end_serialization": 5254,
      "get_language_bi": 5255,
      "MigrationLoader": 5256,
      "all_models": 5257,
      "all_locales": 5258,
      "(','))": 5259,
      "applied": 5260,
      "----": 5261,
      "...\"": 5262,
      "Bound": 5263,
      "extra_attrs": 5264,
      "_COL": 5265,
      "_COMMENT_": 5266,
      "SerializerDoesNotExist": 5267,
      "Defused": 5268,
      "MIMEText": 5269,
      "DecimalField": 5270,
      "_request_middleware": 5271,
      "ATOR_COMMENT_": 5272,
      "deprecation_warning": 5273,
      "USE_I18N": 5274,
      "SERIAL": 5275,
      "sequence_": 5276,
      "start_serialization": 5277,
      "[[]": 5278,
      "variable_name": 5279,
      "mail_admin": 5280,
      "PythonSerializer": 5281,
      "VERSION": 5282,
      "abspathu": 5283,
      "255": 5284,
      "buf_size": 5285,
      "comment_notes": 5286,
      "TER_": 5287,
      "src_data": 5288,
      "FILE_UP": 5289,
      "CACHES": 5290,
      "TOKEN_TEXT": 5291,
      "primary_key": 5292,
      "FOUND": 5293,
      "allowed_": 5294,
      "isolated_context": 5295,
      "REQUIRE": 5296,
      "multiple_": 5297,
      "MyModel": 5298,
      "capfirst": 5299,
      "category": 5300,
      "APP": 5301,
      "StopUpload": 5302,
      "b64decode": 5303,
      "receive": 5304,
      "selector": 5305,
      "ityError": 5306,
      "detected": 5307,
      "script_prefix": 5308,
      "_error_message": 5309,
      "_error_files": 5310,
      "bf_errors": 5311,
      "goals": 5312,
      "lim_re": 5313,
      "limited": 5314,
      "BooleanSelect": 5315,
      "CACHE_MIDDLEWARE_": 5316,
      "VARIABLE_TAG_START": 5317,
      "VARIABLE_ATTRIB": 5318,
      "synchron": 5319,
      "Counter": 5320,
      "creation_counter": 5321,
      "MediaDefiningClass": 5322,
      "Streaming": 5323,
      "programs": 5324,
      "TagName": 5325,
      "button": 5326,
      "pk_field": 5327,
      "show_value": 5328,
      "_number_format": 5329,
      "mktime": 5330,
      "secret": 5331,
      "secure": 5332,
      "request_finished": 5333,
      "_cached_modules": 5334,
      "_cached_filenames": 5335,
      "DatabaseError": 5336,
      "Creates": 5337,
      "NullBooleanSelect": 5338,
      "PROTOCOL": 5339,
      "_decl": 5340,
      "received": 5341,
      "_validation": 5342,
      "both_": 5343,
      "var_obj": 5344,
      "CONTEXT_SEPARATOR": 5345,
      "Dialog": 5346,
      "seen_data": 5347,
      "internal_use_only": 5348,
      "used_column_names": 5349,
      "target_var": 5350,
      "_callback_strs": 5351,
      "OPTIONS": 5352,
      "TRANSL": 5353,
      "each": 5354,
      "u003": 5355,
      "define": 5356,
      "unescape_string_": 5357,
      "fixture_labels": 5358,
      "updateddate": 5359,
      "loaded_object_count": 5360,
      "construct_instance": 5361,
      "Disallowed": 5362,
      "either": 5363,
      "javascrip": 5364,
      "vary_headers": 5365,
      "\"\"\",\"\"\".": 5366,
      "COMMENT_TAG_START": 5367,
      "directory_permissions_mode": 5368,
      "public": 5369,
      "generic_lang_code": 5370,
      "find_element_by_css_": 5371,
      "AuthHandler": 5372,
      "ManyTo": 5373,
      "possibi": 5374,
      "accept_lang": 5375,
      "CONTENT_TYPE": 5376,
      "DATE_INPUT_FORMATS": 5377,
      "PPING": 5378,
      "flowError": 5379,
      "porter": 5380,
      "relations": 5381,
      "mod_name": 5382,
      "msgmerge_options": 5383,
      "msgattrib_options": 5384,
      "msguniq_options": 5385,
      "registered_": 5386,
      "FILTER_": 5387,
      "validate_ipv4_address": 5388,
      "logging_config": 5389,
      "err_log": 5390,
      "ADDR": 5391,
      "candidate_subs": 5392,
      "guessed_filename": 5393,
      "symlinks": 5394,
      "#-#-": 5395,
      "MergeDict": 5396,
      "RaisesRegex": 5397,
      "cdata_tag": 5398,
      "x1b": 5399,
      "letter": 5400,
      "nopqrstuvwxyz": 5401,
      "silenced": 5402,
      "_resolve": 5403,
      "sort_values": 5404,
      "Methods": 5405,
      "recipients": 5406,
      "MULTILINE": 5407,
      "ClearableFileInput": 5408,
      "OverflowError": 5409,
      "TarArchive": 5410,
      "dry_run": 5411,
      "full_clean": 5412,
      "lmnopqrstuvwxyz": 5413,
      "getElementsBy": 5414,
      "filesize_number_format": 5415,
      "transfer_encoding": 5416,
      "REDIRECT": 5417,
      "Document": 5418,
      "temporary_": 5419,
      "NamedTemporaryFile": 5420,
      "abcdefghijklmnopqrstuvwxyz": 5421,
      "happened": 5422,
      "whole_": 5423,
      "AmbiguityError": 5424,
      "CATED_LOCAL": 5425,
      "MIN_NUM": 5426,
      "Pickle": 5427,
      "Password": 5428,
      "Total": 5429,
      "_mtimes": 5430,
      "_MovedItems": 5431,
      "_locs_": 5432,
      "_leftover": 5433,
      "_construct_form": 5434,
      "rmtree": 5435,
      "want_unicode": 5436,
      "deactivate_all": 5437,
      "delimiter": 5438,
      "legend": 5439,
      "forbid_multi_line": 5440,
      "__ne__": 5441,
      "__unicode__": 5442,
      "__getattr__": 5443,
      "__builtin__": 5444,
      "concrete": 5445,
      "exhaust": 5446,
      "get_supported_language_var": 5447,
      "_namedCycleNodes": 5448,
      "InMemoryUploadedFile": 5449,
      "add_item_elements": 5450,
      "DEPRECATED_LOCAL": 5451,
      "is_templatized": 5452,
      "Extends": 5453,
      "extend_nodelist": 5454,
      "DEFAULT_LOCALE_ENCOD": 5455,
      "_get_pk_val": 5456,
      "allow_cascade": 5457,
      "cc_delim_re": 5458,
      "NOCOLOR_PALETTE": 5459,
      "expanded_template": 5460,
      "InvalidCacheBackendError": 5461,
      "get_language_bidi": 5462,
      "ATOR_COMMENT_MARK": 5463,
      "SERIALIZ": 5464,
      "mail_admins": 5465,
      "FILE_UPLOAD_": 5466,
      "REQUIRED": 5467,
      "VARIABLE_ATTRIBUTE_SEPARATOR": 5468,
      "TRANSLATOR_COMMENT_MARK": 5469,
      "unescape_string_literal": 5470,
      "find_element_by_css_selector": 5471,
      "registered_checks": 5472,
      "getElementsByTagName": 5473,
      "forbid_multi_line_headers": 5474,
      "get_supported_language_variant": 5475,
      "DEPRECATED_LOCALES": 5476,
      "DEFAULT_LOCALE_ENCODING": 5477,
      "!')": 5478,
      "*.": 5479,
      "*\\\\": 5480,
      "/')": 5481,
      "09": 5482,
      "21": 5483,
      "27": 5484,
      "39": 5485,
      "45": 5486,
      "98": 5487,
      "9a": 5488,
      ":,": 5489,
      ":/": 5490,
      ":])": 5491,
      ">[": 5492,
      "?)": 5493,
      "?[": 5494,
      "@\\": 5495,
      "Al": 5496,
      "Aug": 5497,
      "CR": 5498,
      "Cap": 5499,
      "Des": 5500,
      "Empty": 5501,
      "End": 5502,
      "EEXIST": 5503,
      "Future": 5504,
      "GE": 5505,
      "GM": 5506,
      "HAN": 5507,
      "It": 5508,
      "ITIAL": 5509,
      "LY": 5510,
      "MB": 5511,
      "Mar": 5512,
      "NB": 5513,
      "Next": 5514,
      "On": 5515,
      "Pop": 5516,
      "POR": 5517,
      "RLock": 5518,
      "RFC": 5519,
      "SH": 5520,
      "Spec": 5521,
      "SCR": 5522,
      "Tex": 5523,
      "WRA": 5524,
      "ZER": 5525,
      "](?": 5526,
      "][-": 5527,
      "_config": 5528,
      "_object": 5529,
      "_help": 5530,
      "_open": 5531,
      "_params": 5532,
      "_update": 5533,
      "_js": 5534,
      "_handlers": 5535,
      "_queryset": 5536,
      "_defaults": 5537,
      "_sql_": 5538,
      "_comment_": 5539,
      "_script": 5540,
      "_home": 5541,
      "_entities": 5542,
      "_servers": 5543,
      "_input_data": 5544,
      "_non_form_errors": 5545,
      "_should_": 5546,
      "_standard_": 5547,
      "amin": 5548,
      "aei": 5549,
      "bs": 5550,
      "browser": 5551,
      "c2": 5552,
      "cmatch": 5553,
      "ccess": 5554,
      "cted_": 5555,
      "css_": 5556,
      "cPickle": 5557,
      "don": 5558,
      "djang": 5559,
      "dll": 5560,
      "ee": 5561,
      "ful": 5562,
      "fs_": 5563,
      "fallback": 5564,
      "fqdn": 5565,
      "gin": 5566,
      "ght": 5567,
      "iz": 5568,
      "ible": 5569,
      "imatch": 5570,
      "itable": 5571,
      "l2": 5572,
      "lbp": 5573,
      "ljust": 5574,
      "mask": 5575,
      "ngettext_lazy": 5576,
      "null_f": 5577,
      "p1": 5578,
      "pal": 5579,
      "psu": 5580,
      "ridden": 5581,
      "s1": 5582,
      "sMetaclass": 5583,
      "tc": 5584,
      "twe": 5585,
      "uation": 5586,
      "van": 5587,
      "ving": 5588,
      "war": 5589,
      "xx": 5590,
      "xls": 5591,
      "yel": 5592,
      "|%": 5593,
      "|=": 5594,
      "|(?:": 5595,
      "inte": 5596,
      "inline": 5597,
      "in_dir": 5598,
      "incomplete": 5599,
      "orth": 5600,
      "orph": 5601,
      "tected_": 5602,
      "reco": 5603,
      "rerror": 5604,
      "repe": 5605,
      "resent": 5606,
      "once": 5607,
      "deconstruct": 5608,
      "alField": 5609,
      "stati": 5610,
      "state_": 5611,
      "stioner": 5612,
      "strerror": 5613,
      "ating": 5614,
      "titem": 5615,
      "ifunc": 5616,
      "ifest": 5617,
      "for_p": 5618,
      "forloop": 5619,
      "t_name": 5620,
      "t_args": 5621,
      "vals": 5622,
      "cols": 5623,
      "roject": 5624,
      "__D": 5625,
      "__Y": 5626,
      "__g": 5627,
      "__in": 5628,
      "__path": 5629,
      "__get_": 5630,
      "__add__": 5631,
      "en_tags": 5632,
      "value_to_": 5633,
      "notifier": 5634,
      "nofollow": 5635,
      "istent": 5636,
      "d_text": 5637,
      "d_css": 5638,
      "three": 5639,
      "unk": 5640,
      "unsign": 5641,
      "unbound": 5642,
      "unifunc": 5643,
      "arg_val": 5644,
      "didn": 5645,
      "(':": 5646,
      "(';": 5647,
      "('?": 5648,
      "cture": 5649,
      "ctype": 5650,
      "str_list": 5651,
      "apply_": 5652,
      "idna": 5653,
      "to_current_timezone": 5654,
      "key_": 5655,
      "getargs": 5656,
      "getAttribute": 5657,
      "getpid": 5658,
      "from_iterable": 5659,
      "opname": 5660,
      "oproject": 5661,
      "parame": 5662,
      "time_": 5663,
      "tarea": 5664,
      "paths_to": 5665,
      "as_data": 5666,
      "data_": 5667,
      "code_list": 5668,
      "code_changed": 5669,
      "nesting": 5670,
      "get_models": 5671,
      "get_template_": 5672,
      "get_callable": 5673,
      "get_library": 5674,
      "get_git_changeset": 5675,
      "get_fixed_": 5676,
      "url_": 5677,
      "len_values": 5678,
      "errors_": 5679,
      "mbo": 5680,
      "permal": 5681,
      "protected_": 5682,
      "formatdate": 5683,
      "format_key": 5684,
      "option_list": 5685,
      "s_list": 5686,
      "s_dict": 5687,
      "s_be": 5688,
      "s_directory": 5689,
      "s_in_dir": 5690,
      "dict1": 5691,
      "fed": 5692,
      "sublist_": 5693,
      "templates": 5694,
      "iterkeys": 5695,
      "iterations": 5696,
      "quant": 5697,
      "tag_re": 5698,
      "sable_": 5699,
      "al_formatting": 5700,
      "nud": 5701,
      "pyc": 5702,
      "ce_string": 5703,
      "prev": 5704,
      "previ": 5705,
      "_reset": 5706,
      "nodetype": 5707,
      "toks": 5708,
      "001": 5709,
      "005": 5710,
      "the_list": 5711,
      "unichr": 5712,
      "with_meta": 5713,
      "var_format_string": 5714,
      "force_grouping": 5715,
      "splitlines": 5716,
      "connection_reset": 5717,
      "add_to_": 5718,
      "add_trun": 5719,
      "add_root_": 5720,
      "T_KEY": 5721,
      "to_digits": 5722,
      "to_many": 5723,
      "is_valid_": 5724,
      "is_over": 5725,
      "is_dst": 5726,
      "is_iterable": 5727,
      "is_silenced": 5728,
      "is_permal": 5729,
      "is_protected_": 5730,
      "math": 5731,
      "matrix": 5732,
      "FieldsMetaclass": 5733,
      "Exha": 5734,
      "External": 5735,
      "help_text_": 5736,
      "urllib_parse": 5737,
      "error_message": 5738,
      "BaseInput": 5739,
      "BaseForm": 5740,
      "BaseValidator": 5741,
      "BaseFormSet": 5742,
      "BaseTempor": 5743,
      "BaseArchive": 5744,
      "BaseModelForm": 5745,
      "BaseDatabaseCache": 5746,
      "check_path": 5747,
      "INST": 5748,
      "INITIAL": 5749,
      "new_attr": 5750,
      "new_obj": 5751,
      "new_datetime": 5752,
      "new_objects": 5753,
      "new_filenames": 5754,
      "field_output": 5755,
      "ORDER": 5756,
      "matching": 5757,
      "acy": 5758,
      "ALLE": 5759,
      "ate_row": 5760,
      "opener": 5761,
      "ER_": 5762,
      "thous": 5763,
      "([('%": 5764,
      "'.%": 5765,
      "manize": 5766,
      "manifest": 5767,
      "replacement": 5768,
      "ONE": 5769,
      "metaclass": 5770,
      "meta_data": 5771,
      "translator": 5772,
      "='\\": 5773,
      "decr": 5774,
      "use_threading": 5775,
      "use_argparse": 5776,
      "use_null_f": 5777,
      "streaming": 5778,
      "lockFileEx": 5779,
      "TemplateCommand": 5780,
      "myDict": 5781,
      "SECRE": 5782,
      "id_is_permal": 5783,
      "FileException": 5784,
      "FileProxy": 5785,
      "usted": 5786,
      "vider": 5787,
      "styles": 5788,
      "'\\''": 5789,
      "cation_text": 5790,
      "loaddata": 5791,
      "pythonpath": 5792,
      "quired": 5793,
      "num_args": 5794,
      "strip_tags": 5795,
      "Location": 5796,
      "_key_to_file": 5797,
      "fixture_count": 5798,
      "process_template": 5799,
      "signer": 5800,
      "MultiWidget": 5801,
      "shorth": 5802,
      "InputStream": 5803,
      "_fd": 5804,
      "_fqdn": 5805,
      "UnlockFileEx": 5806,
      "piv": 5807,
      "use_reloader": 5808,
      "executable": 5809,
      "(((": 5810,
      "month_val": 5811,
      "%(%": 5812,
      "serializer_formats": 5813,
      "clean_": 5814,
      "deleted_forms": 5815,
      "signature": 5816,
      "Sep": 5817,
      "comma": 5818,
      "_checkLevel": 5819,
      "year_val": 5820,
      "CacheKey": 5821,
      "Encoding": 5822,
      "_data_chunk": 5823,
      "runfastcgi": 5824,
      "ffff": 5825,
      "ion_formats": 5826,
      "quote_plus": 5827,
      "regexes": 5828,
      "current_version": 5829,
      "current_expires": 5830,
      "HttpRequest": 5831,
      "192": 5832,
      "parse_header": 5833,
      "parse_qs": 5834,
      "extends": 5835,
      "_get_val": 5836,
      "})-": 5837,
      "})?": 5838,
      "old_method": 5839,
      "125": 5840,
      "ModelChoiceField": 5841,
      "views": 5842,
      "savefig": 5843,
      "domain_white": 5844,
      "Handlers": 5845,
      "handle_extensions": 5846,
      "mark_for_": 5847,
      "D_APP": 5848,
      "_port": 5849,
      "_phr": 5850,
      "operation": 5851,
      "find_command": 5852,
      "allow_files": 5853,
      "allow_over": 5854,
      "allow_empty_": 5855,
      "allow_folder": 5856,
      "our_home": 5857,
      "color_names": 5858,
      "urlconf_module": 5859,
      "json_data": 5860,
      "json_kwargs": 5861,
      "+)\\\\": 5862,
      "temp_lib": 5863,
      "DateInput": 5864,
      "TimeField": 5865,
      "TimeInput": 5866,
      "Timestamp": 5867,
      "spaces_be": 5868,
      "form_class": 5869,
      "template_source_": 5870,
      "on_separ": 5871,
      "app_names": 5872,
      "IPT_": 5873,
      "some_list": 5874,
      "something": 5875,
      "DICTION": 5876,
      "multipart_": 5877,
      "invalid_var_format_string": 5878,
      "(*[": 5879,
      "(*[(": 5880,
      "*?'))": 5881,
      "URLValidator": 5882,
      "exponent": 5883,
      "as_table": 5884,
      "as_bytes": 5885,
      "as_new": 5886,
      "fail": 5887,
      "failed": 5888,
      "sql_destro": 5889,
      "sql_for_p": 5890,
      "NameError": 5891,
      "decorated": 5892,
      "CONTRA": 5893,
      "overla": 5894,
      "check_test": 5895,
      "Declar": 5896,
      "SQL_KEY": 5897,
      "remove_tags": 5898,
      "oldroot": 5899,
      "face": 5900,
      "SimpleLazyObject": 5901,
      "InvalidOperation": 5902,
      "can_write": 5903,
      "end_object": 5904,
      "end_index": 5905,
      "final_path": 5906,
      "MigrationWr": 5907,
      "MigrationAuto": 5908,
      "MigrationQue": 5909,
      "table_name_filter": 5910,
      "activated": 5911,
      "create_parser": 5912,
      "create_models": 5913,
      "(',')": 5914,
      "RegexPro": 5915,
      "buffering": 5916,
      "extra_headers": 5917,
      "required_css": 5918,
      "fail_message": 5919,
      "LOCK_NB": 5920,
      "LOCK_SH": 5921,
      "hidden_fields": 5922,
      "shells": 5923,
      "context_instance": 5924,
      "make_bytes": 5925,
      "make_origin": 5926,
      "SIG": 5927,
      "MultiValueField": 5928,
      "MIMEBase": 5929,
      "MIMEMultipart": 5930,
      "dered_": 5931,
      "save_as_new": 5932,
      "2000": 5933,
      "ogle": 5934,
      "and_ip": 5935,
      "and_sep": 5936,
      "lineno_comment_": 5937,
      "post_migrate_signal": 5938,
      "start_object": 5939,
      "UnicodeError": 5940,
      "document": 5941,
      "DateTimeBaseInput": 5942,
      "'^[": 5943,
      "Process": 5944,
      "install": 5945,
      "db_manager": 5946,
      "nonlocal_": 5947,
      "world": 5948,
      "{}'.": 5949,
      "generator": 5950,
      "primary": 5951,
      "_FIELDS": 5952,
      "ativeFieldsMetaclass": 5953,
      "body_": 5954,
      "package_path": 5955,
      "HiddenDateTimeWidget": 5956,
      "library_name": 5957,
      ".*?\\\\": 5958,
      "_num_pages": 5959,
      "trim_url": 5960,
      "trim_white": 5961,
      "compression_formats": 5962,
      "('[\\\\": 5963,
      "DebugParser": 5964,
      "DebugLexer": 5965,
      "FILE_INPUT_": 5966,
      "UploadFileException": 5967,
      "365": 5968,
      "Signal": 5969,
      "allows_": 5970,
      "legacy": 5971,
      "tiesForbidden": 5972,
      "doublecolon_len": 5973,
      "doublecolon_start": 5974,
      "dropna": 5975,
      "zeros": 5976,
      "_regex_validator": 5977,
      "total_forms": 5978,
      "total_ordering": 5979,
      "TEMPLATE_DEBUG": 5980,
      "\")|(?:": 5981,
      "BadSignature": 5982,
      "CEP": 5983,
      "ClassType": 5984,
      "Runs": 5985,
      "StopFuture": 5986,
      "b64encode": 5987,
      "b64encoded": 5988,
      "utf8_charset": 5989,
      "TokenBase": 5990,
      "choice_label": 5991,
      "ette": 5992,
      "daemon_kwargs": 5993,
      "HTMLParse": 5994,
      "script_url": 5995,
      "BLOCK_TAG_END": 5996,
      "google": 5997,
      "int_part": 5998,
      "Transl": 5999,
      "compare_to": 6000,
      "download": 6001,
      "image_dimension": 6002,
      "LockFileEx": 6003,
      "Resolver404": 6004,
      "delete_form": 6005,
      "first_page": 6006,
      "VARIABLE_TAG_END": 6007,
      "SplitHiddenDateTimeWidget": 6008,
      "is_relation": 6009,
      "is_required": 6010,
      "producer": 6011,
      "_closure": 6012,
      "_closable_": 6013,
      "constant_arg": 6014,
      "constant_string": 6015,
      "find_element_by_xpath": 6016,
      "('(?<=": 6017,
      "('(?<!": 6018,
      "result_args": 6019,
      "show_hidden_": 6020,
      "TemporaryUploadedFile": 6021,
      "combine": 6022,
      "combinations": 6023,
      "Options": 6024,
      "]+)',": 6025,
      "grep": 6026,
      "squashed": 6027,
      "couldn": 6028,
      "needs_multipart_": 6029,
      "ASSES": 6030,
      "PROXY": 6031,
      "extrac": 6032,
      "isnan": 6033,
      "isnull": 6034,
      "day_val": 6035,
      "IPv4": 6036,
      "absolute_import": 6037,
      "absolute_max": 6038,
      "item_copyright": 6039,
      "var_arg": 6040,
      "PATHS": 6041,
      "waiting_readers": 6042,
      "Cannot": 6043,
      "DOTAL": 6044,
      "GHEST_": 6045,
      "bad_cookies": 6046,
      "base_manager": 6047,
      "Formatter": 6048,
      "fastcgi_help": 6049,
      "sanitize_address": 6050,
      "best_doublecolon_len": 6051,
      "best_doublecolon_start": 6052,
      "AutoField": 6053,
      "Raw": 6054,
      "ns_resolver": 6055,
      "unescape_entities": 6056,
      "get_current_timezone_name": 6057,
      "kwarg_re": 6058,
      "SafeMIMEText": 6059,
      "SafeMIMEMultipart": 6060,
      "supports_": 6061,
      "display_url": 6062,
      "_delegate_text": 6063,
      "_in_context": 6064,
      "_add_doc": 6065,
      "bigdict": 6066,
      "fragment": 6067,
      "java": 6068,
      "skipped": 6069,
      "reason_phr": 6070,
      "last_row": 6071,
      "escaping": 6072,
      "settings_dict": 6073,
      "trans_real": 6074,
      "COMMENT_TAG_END": 6075,
      "directories": 6076,
      "LOCALE_PATHS": 6077,
      "MIDDLEWARE_CL": 6078,
      "Permission": 6079,
      "emit_post_migrate_signal": 6080,
      "partition": 6081,
      "_read_started": 6082,
      "_read_limited": 6083,
      "resource": 6084,
      "resource_string": 6085,
      "strip_spaces_be": 6086,
      "handle_m2m_field": 6087,
      "get_language_from_path": 6088,
      "get_language_from_request": 6089,
      "MEDIA_TYPES": 6090,
      "HIGHEST_": 6091,
      "ISO_": 6092,
      "NonCap": 6093,
      "Some": 6094,
      "_done": 6095,
      "_urlconfs": 6096,
      "mutex": 6097,
      "represent": 6098,
      "ancestor": 6099,
      "render_value_in_context": 6100,
      "fixture_files_in_dir": 6101,
      "TypedMultipleChoiceField": 6102,
      "unique_id_is_permal": 6103,
      "ABCDEF": 6104,
      "punctuation": 6105,
      "'#:": 6106,
      ">|<": 6107,
      "select_template": 6108,
      "latest_date": 6109,
      "Installing": 6110,
      "STATUS_OK": 6111,
      "excluded_apps": 6112,
      "EntitiesForbidden": 6113,
      "'\\\\\\\\'": 6114,
      "expanduser": 6115,
      "child_nodelists": 6116,
      "issubset": 6117,
      "CountEqual": 6118,
      "LocaleRegexPro": 6119,
      "MONTHS_3": 6120,
      "ViewDoesNotExist": 6121,
      "'[^']": 6122,
      "EventHandler": 6123,
      "termcolors": 6124,
      "major": 6125,
      "handle_fk_field": 6126,
      "signed_value": 6127,
      "MISSES": 6128,
      "block_content": 6129,
      "WSGIRequestHandler": 6130,
      "RuntimeWarning": 6131,
      "installed_models": 6132,
      "ManagementForm": 6133,
      "OutputWrapper": 6134,
      "virtual_fields": 6135,
      "Windows": 6136,
      "_perce": 6137,
      "_globs_": 6138,
      "gnized": 6139,
      "humanize": 6140,
      "liveserver": 6141,
      "get_valid_filename": 6142,
      "get_internal_wsgi_application": 6143,
      "\"\"\"^\\": 6144,
      "ALL_FIELDS": 6145,
      "many_to_many": 6146,
      "illegal_formatting": 6147,
      "TOTAL_FORM_COUNT": 6148,
      "xmlrpc": 6149,
      "receive_data_chunk": 6150,
      "temporary_file_path": 6151,
      "whole_digits": 6152,
      "ExtendsNode": 6153,
      "Allow": 6154,
      "EndToken": 6155,
      "GMT": 6156,
      "SCRIPT_": 6157,
      "Textarea": 6158,
      "ZERO": 6159,
      "_should_delete_form": 6160,
      "_standard_context_processors": 6161,
      "aeiou": 6162,
      "css_classes": 6163,
      "djangoproject": 6164,
      "fs_encoding": 6165,
      "palette": 6166,
      "psutil": 6167,
      "tween_tags": 6168,
      "yellow": 6169,
      "interest": 6170,
      "orphans": 6171,
      "recognized": 6172,
      "repeat": 6173,
      "static": 6174,
      "state_frame": 6175,
      "__path__": 6176,
      "__get__": 6177,
      "arg_vals": 6178,
      "getargspec": 6179,
      "paths_to_remove": 6180,
      "get_template_from_string": 6181,
      "get_fixed_timezone": 6182,
      "errors_on_separ": 6183,
      "sublist_item": 6184,
      "with_metaclass": 6185,
      "add_to_builtins": 6186,
      "add_truncation_text": 6187,
      "add_root_elements": 6188,
      "is_overridden": 6189,
      "is_protected_type": 6190,
      "Exhausted": 6191,
      "help_text_html": 6192,
      "BaseTemporalField": 6193,
      "INSTALLE": 6194,
      "thousand_sep": 6195,
      "use_null_fallback": 6196,
      "SECRET_KEY": 6197,
      "FileProxyMixin": 6198,
      "process_template_response": 6199,
      "shorthand_ip": 6200,
      "InputStreamExhausted": 6201,
      "CacheKeyWarning": 6202,
      "domain_whitelist": 6203,
      "mark_for_escaping": 6204,
      "D_APPS": 6205,
      "allow_overwrite": 6206,
      "allow_empty_first_page": 6207,
      "allow_folders": 6208,
      "our_home_dir": 6209,
      "TimestampSigner": 6210,
      "template_source_loaders": 6211,
      "sql_destroy_": 6212,
      "sql_for_pending_references": 6213,
      "CONTRADICTION": 6214,
      "DeclarativeFieldsMetaclass": 6215,
      "SQL_KEYWORD": 6216,
      "MigrationWriter": 6217,
      "MigrationAutodetector": 6218,
      "MigrationQuestioner": 6219,
      "required_css_class": 6220,
      "lineno_comment_map": 6221,
      "nonlocal_root": 6222,
      "FILE_INPUT_CONTRADICTION": 6223,
      "StopFutureHandlers": 6224,
      "HTMLParseError": 6225,
      "image_dimensions": 6226,
      "_closable_objects": 6227,
      "show_hidden_initial": 6228,
      "needs_multipart_form": 6229,
      "DOTALL": 6230,
      "reason_phrase": 6231,
      "MIDDLEWARE_CLASSES": 6232,
      "strip_spaces_between_tags": 6233,
      "HIGHEST_PROTOCOL": 6234,
      "NonCapture": 6235,
      "unique_id_is_permalink": 6236,
      "LocaleRegexProvider": 6237,
      "errors_on_separate_row": 6238,
      "INSTALLED_APPS": 6239,
      "\"$": 6240,
      "\"^": 6241,
      "\"',": 6242,
      "\"')": 6243,
      "\"(%": 6244,
      "##": 6245,
      "#$": 6246,
      "#\\": 6247,
      "$\"": 6248,
      "$$": 6249,
      "${": 6250,
      "$)',": 6251,
      "%'": 6252,
      "%.": 6253,
      "(**": 6254,
      ")\"\"\"": 6255,
      "*)": 6256,
      "*)',": 6257,
      "+]": 6258,
      "+|": 6259,
      "+|\\\\": 6260,
      "+((?:": 6261,
      ",}": 6262,
      ",\\\\": 6263,
      "->": 6264,
      "-\\\\": 6265,
      "-]{": 6266,
      ".')": 6267,
      "/#": 6268,
      "/?": 6269,
      "0b": 6270,
      "0o": 6271,
      "2to": 6272,
      "2model": 6273,
      "35": 6274,
      "38": 6275,
      "3f": 6276,
      "44": 6277,
      "76": 6278,
      ":<": 6279,
      ":])]": 6280,
      ">>": 6281,
      "?\"": 6282,
      "?\\\\": 6283,
      "?://": 6284,
      "@%": 6285,
      "Ab": 6286,
      "An": 6287,
      "Apr": 6288,
      "AT_": 6289,
      "Aware": 6290,
      "AUT": 6291,
      "BR": 6292,
      "Ba": 6293,
      "CUR": 6294,
      "Critical": 6295,
      "DT": 6296,
      "DAT": 6297,
      "Dns": 6298,
      "DForbidden": 6299,
      "FY": 6300,
      "Flo": 6301,
      "FKD": 6302,
      "GB": 6303,
      "Gzip": 6304,
      "Ho": 6305,
      "IM": 6306,
      "IDE": 6307,
      "Immutable": 6308,
      "JK": 6309,
      "Jo": 6310,
      "Jul": 6311,
      "Json": 6312,
      "KB": 6313,
      "LM": 6314,
      "M_": 6315,
      "Min": 6316,
      "Mor": 6317,
      "Mon": 6318,
      "Max": 6319,
      "May": 6320,
      "NFKD": 6321,
      "OTI": 6322,
      "OFFSET": 6323,
      "OENT": 6324,
      "PB": 6325,
      "PQ": 6326,
      "PTR": 6327,
      "RST": 6328,
      "SY": 6329,
      "Spare": 6330,
      "Skip": 6331,
      "TB": 6332,
      "Tue": 6333,
      "UV": 6334,
      "USE": 6335,
      "URE": 6336,
      "UATION": 6337,
      "WN": 6338,
      "Wi": 6339,
      "WXY": 6340,
      "Xml": 6341,
      "XSIZE": 6342,
      "Za": 6343,
      "ZONE": 6344,
      "[@": 6345,
      "[{'": 6346,
      "\\'": 6347,
      "]')": 6348,
      "]],": 6349,
      "])))": 6350,
      "]|\\\\": 6351,
      "_0": 6352,
      "_self": 6353,
      "_en": 6354,
      "_hel": 6355,
      "_exc": 6356,
      "_serializer": 6357,
      "_quo": 6358,
      "_sep": 6359,
      "_exp": 6360,
      "_help_text": 6361,
      "_location": 6362,
      "_make_": 6363,
      "_dd": 6364,
      "_win": 6365,
      "_DATE": 6366,
      "_empty_value": 6367,
      "_converter": 6368,
      "_MODIFIED": 6369,
      "_hmac": 6370,
      "_lea": 6371,
      "_existing_": 6372,
      "_object_count": 6373,
      "_pre_": 6374,
      "_SIZE": 6375,
      "_alternative": 6376,
      "_cookie_": 6377,
      "_app_dict": 6378,
      "_ExpatParser": 6379,
      "_proxy_": 6380,
      "`%": 6381,
      "area": 6382,
      "a_string": 6383,
      "bk": 6384,
      "ban": 6385,
      "bad": 6386,
      "cm": 6387,
      "cword": 6388,
      "dT": 6389,
      "dDns": 6390,
      "ein": 6391,
      "epo": 6392,
      "emit": 6393,
      "event": 6394,
      "flt": 6395,
      "gh": 6396,
      "g_name": 6397,
      "gument": 6398,
      "gzip": 6399,
      "gmtime": 6400,
      "hfile": 6401,
      "hibi": 6402,
      "ial_": 6403,
      "iloc": 6404,
      "ident": 6405,
      "jar": 6406,
      "kill": 6407,
      "lon": 6408,
      "mut": 6409,
      "mts": 6410,
      "nan": 6411,
      "od": 6412,
      "ow": 6413,
      "ose": 6414,
      "ock": 6415,
      "ots": 6416,
      "p2": 6417,
      "pret": 6418,
      "plen": 6419,
      "pped": 6420,
      "pbk": 6421,
      "rm": 6422,
      "rup": 6423,
      "rig": 6424,
      "s2": 6425,
      "sday": 6426,
      "sing_": 6427,
      "since": 6428,
      "tf": 6429,
      "uary": 6430,
      "ually": 6431,
      "vf": 6432,
      "vo": 6433,
      "ward": 6434,
      "watch": 6435,
      "xX": 6436,
      "xb": 6437,
      "xs": 6438,
      "xgettext": 6439,
      "xreadlines": 6440,
      "xistent": 6441,
      "ypes": 6442,
      "zh": 6443,
      "}\"": 6444,
      "}{": 6445,
      "}(?:": 6446,
      "}>{": 6447,
      "~/": 6448,
      "ses": 6449,
      "secur": 6450,
      "inc": 6451,
      "inf": 6452,
      "ination": 6453,
      "intrans": 6454,
      "incomment": 6455,
      "in_names": 6456,
      "inhibi": 6457,
      "ores": 6458,
      "or_path": 6459,
      "tech": 6460,
      "testr": 6461,
      "rer": 6462,
      "recur": 6463,
      "regroup": 6464,
      "reverse_dict": 6465,
      "dead": 6466,
      "devel": 6467,
      "alen": 6468,
      "stu": 6469,
      "storage": 6470,
      "stock": 6471,
      "atField": 6472,
      "att_name": 6473,
      "le__": 6474,
      "leaf": 6475,
      "ana": 6476,
      "annel": 6477,
      "aries": 6478,
      "gest_": 6479,
      "ifequal": 6480,
      "five": 6481,
      "elist": 6482,
      "forward": 6483,
      "t_command": 6484,
      "t_quote": 6485,
      "t_request_": 6486,
      "t_post_migrate": 6487,
      "t_legacy": 6488,
      "val_expr": 6489,
      "come_": 6490,
      "roots": 6491,
      "lic": 6492,
      "lis": 6493,
      "name2": 6494,
      "name_str": 6495,
      "nameMethods": 6496,
      "returned": 6497,
      "trib": 6498,
      "__M": 6499,
      "__T": 6500,
      "__set": 6501,
      "__text_": 6502,
      "__bytes": 6503,
      "__wrapper": 6504,
      "__bytes_": 6505,
      "__le__": 6506,
      "enone": 6507,
      "ensure": 6508,
      "conv": 6509,
      "consu": 6510,
      "conversion": 6511,
      "console": 6512,
      "contrib": 6513,
      "expr": 6514,
      "lol": 6515,
      "isin": 6516,
      "isabs": 6517,
      "d_url": 6518,
      "d_options": 6519,
      "d_form_": 6520,
      "d_block_tag": 6521,
      "apt": 6522,
      "unner": 6523,
      "unclose": 6524,
      "unca": 6525,
      "unexpected": 6526,
      "unmigrated_apps": 6527,
      "did": 6528,
      "dication": 6529,
      "('&": 6530,
      "ctxt": 6531,
      "ctypes": 6532,
      "importing": 6533,
      "success": 6534,
      "sic": 6535,
      "sio": 6536,
      "appear": 6537,
      "key_value": 6538,
      "getctime": 6539,
      "getcwd": 6540,
      "opfunc": 6541,
      "',),": 6542,
      "))[": 6543,
      "args_check": 6544,
      "timeuntil": 6545,
      "ady": 6546,
      "form_data": 6547,
      "forms_to_delete": 6548,
      "path_to": 6549,
      "as_text": 6550,
      "setup": 6551,
      "setLevel": 6552,
      "vers": 6553,
      "very": 6554,
      "')])": 6555,
      "attr_list": 6556,
      "data_set": 6557,
      "dateformat": 6558,
      "date_value": 6559,
      "get_function": 6560,
      "get_unique": 6561,
      "get_format_": 6562,
      "get_resolver": 6563,
      "get_resolved_": 6564,
      "get_template_source": 6565,
      "get_runner": 6566,
      "get_attname": 6567,
      "get_publi": 6568,
      "get_cookie_": 6569,
      "_namespace_dict": 6570,
      "url_patterns": 6571,
      "cal_": 6572,
      "called": 6573,
      "len_item": 6574,
      "perNode": 6575,
      "base_name": 6576,
      "basetype": 6577,
      "formatted": 6578,
      "string2": 6579,
      "s_data": 6580,
      "s_len": 6581,
      "s_version": 6582,
      "s_comment_": 6583,
      "s_localtime": 6584,
      "writable": 6585,
      "dictConfig": 6586,
      "app_dirs": 6587,
      "olCol": 6588,
      "instances": 6589,
      "']].": 6590,
      "rendered_": 6591,
      "Fixed": 6592,
      "lib2to": 6593,
      "[''.": 6594,
      "fixes": 6595,
      "fix_location": 6596,
      "subset": 6597,
      "subclass": 6598,
      "substring": 6599,
      "subcommands": 6600,
      "bob": 6601,
      "book": 6602,
      "NoAr": 6603,
      "tagtype": 6604,
      "sax": 6605,
      "al_char": 6606,
      "_cls": 6607,
      "Inf": 6608,
      "Include": 6609,
      "final": 6610,
      "_reverse_dict": 6611,
      "Combo": 6612,
      "node_class": 6613,
      "questioner": 6614,
      "heet": 6615,
      "item_date": 6616,
      "unit": 6617,
      "model_fields": 6618,
      "modelformset_factory": 6619,
      "model_validation": 6620,
      "tokenize": 6621,
      "connect": 6622,
      "var3": 6623,
      "])\"": 6624,
      "dog": 6625,
      "dom": 6626,
      "luding": 6627,
      "localpart": 6628,
      "local_fields": 6629,
      "add_error": 6630,
      "add_library": 6631,
      "add_initial_prefix": 6632,
      "func_name": 6633,
      "write_po": 6634,
      "four": 6635,
      "found_": 6636,
      "migrated": 6637,
      "to_end": 6638,
      "to_dict": 6639,
      "to_datetime": 6640,
      "to_bytes": 6641,
      "ATTA": 6642,
      "is_multipart": 6643,
      "FieldRenderer": 6644,
      "Expi": 6645,
      "msg_data": 6646,
      "urllib_error": 6647,
      "Require": 6648,
      "RenameMethods": 6649,
      "Ready": 6650,
      "new_migration": 6651,
      "new_method": 6652,
      "new_thread": 6653,
      "new_mod": 6654,
      "new_operations": 6655,
      "po_path": 6656,
      "field_dict": 6657,
      "ORS": 6658,
      "ValueValidator": 6659,
      "match_re": 6660,
      "safe_input": 6661,
      "acce": 6662,
      "MEM": 6663,
      "AL_": 6664,
      "migration_": 6665,
      "migrations_to_": 6666,
      "migrations_directory": 6667,
      "choice_cache": 6668,
      "hook": 6669,
      "initialize": 6670,
      "table_output": 6671,
      "table2model": 6672,
      "compile_string": 6673,
      "k_to_end": 6674,
      "be_": 6675,
      "become_": 6676,
      "prefixed": 6677,
      "prefix_args": 6678,
      "render_": 6679,
      "rendering_": 6680,
      "ONG_": 6681,
      "language_re": 6682,
      "transform": 6683,
      "ULT": 6684,
      "ULONG_": 6685,
      "use_base_manager": 6686,
      "collect": 6687,
      "TemplateLoader": 6688,
      "TemplateTag": 6689,
      "TemplateIfParser": 6690,
      "mydir": 6691,
      "myVar": 6692,
      "myproject": 6693,
      "ravel": 6694,
      "aryIter": 6695,
      "parsed_": 6696,
      "SECUR": 6697,
      "ARY": 6698,
      "FAIL": 6699,
      "STOR": 6700,
      "STATI": 6701,
      "STDO": 6702,
      "commands_dict": 6703,
      "vice": 6704,
      "DjangoSafeDumper": 6705,
      "abcc": 6706,
      "NotRen": 6707,
      "NotFound": 6708,
      "NotReady": 6709,
      "Depre": 6710,
      "Deserialized": 6711,
      "newlist": 6712,
      "closing_": 6713,
      "httpd": 6714,
      "ignment": 6715,
      "RESET": 6716,
      "READ": 6717,
      "DEFAULT_CH": 6718,
      "DEFAULT_ATTA": 6719,
      "set_x": 6720,
      "main_help_text": 6721,
      "quit_command": 6722,
      "_cache_key": 6723,
      "popitem": 6724,
      "max_expr": 6725,
      "fixture_files": 6726,
      "fixture_object_count": 6727,
      "process_request": 6728,
      "process_view": 6729,
      "process_exception": 6730,
      "register_serializer": 6731,
      "default_options": 6732,
      "_fa": 6733,
      "_fname": 6734,
      "_fmts": 6735,
      "Unexpected": 6736,
      "excludes": 6737,
      "((\\\\": 6738,
      "requires": 6739,
      "ENOENT": 6740,
      "states": 6741,
      "cleaned": 6742,
      "ild": 6743,
      "MIME_": 6744,
      "ed_name": 6745,
      "can_read": 6746,
      "content_params": 6747,
      "content_remo": 6748,
      "2012": 6749,
      "2014": 6750,
      "CacheClass": 6751,
      "CachedDns": 6752,
      "run_from_": 6753,
      "importer": 6754,
      "imported_": 6755,
      "my_file": 6756,
      "managed": 6757,
      "intersection": 6758,
      "interface": 6759,
      "wrapped_": 6760,
      "tests": 6761,
      "(['/": 6762,
      "Change": 6763,
      "input_text": 6764,
      "input_format": 6765,
      "randn": 6766,
      "quoted_url": 6767,
      "_func_path": 6768,
      "ssed": 6769,
      "commas": 6770,
      "direct_": 6771,
      "current_fields": 6772,
      "current_chunk": 6773,
      "AND_": 6774,
      "parse_cookie": 6775,
      "_get_model": 6776,
      "_get_size": 6777,
      "_get_choices": 6778,
      "_get_page": 6779,
      "_get_validation": 6780,
      "}):(?": 6781,
      "old_option": 6782,
      "old_handler": 6783,
      "import_library": 6784,
      "ING_FIELD_NAME": 6785,
      "validate_number": 6786,
      "sql_custom": 6787,
      "sql_create": 6788,
      "valid_forms": 6789,
      "saved_forms": 6790,
      "savepoint": 6791,
      "DataException": 6792,
      "domains": 6793,
      "SafeLoader": 6794,
      "handle_app": 6795,
      "handle_unca": 6796,
      "handle_default_options": 6797,
      "D_REQUEST": 6798,
      "has_old_option": 6799,
      "('\\\\[": 6800,
      "file_dict": 6801,
      "file_or_path": 6802,
      "find_template": 6803,
      "find_template_": 6804,
      "find_template_cache": 6805,
      "initial_text": 6806,
      "initial_set": 6807,
      "HttpResponseBad": 6808,
      "LED": 6809,
      "TOO": 6810,
      "load_template": 6811,
      "CHMENT_": 6812,
      "UNCT": 6813,
      "colorize": 6814,
      "anything": 6815,
      "+)'": 6816,
      "for_write": 6817,
      "UTC": 6818,
      "UTF_": 6819,
      "DateField": 6820,
      "DateWidget": 6821,
      "hostname": 6822,
      "NOWN": 6823,
      "webb": 6824,
      "object_data": 6825,
      "IPS": 6826,
      "ham": 6827,
      "StringOrigin": 6828,
      "ROO": 6829,
      "ROP": 6830,
      "USAND_": 6831,
      "offset_": 6832,
      "State": 6833,
      "somedir": 6834,
      "some_string": 6835,
      "top_errors": 6836,
      "168": 6837,
      "invalid_time": 6838,
      "invalid_date": 6839,
      "invalid_apps": 6840,
      "gsCommand": 6841,
      "URLField": 6842,
      "URLInput": 6843,
      "floats": 6844,
      "EmailInput": 6845,
      "normal": 6846,
      "as_form": 6847,
      "format_locations": 6848,
      "://'": 6849,
      "xmlns": 6850,
      "sql_files": 6851,
      "execute_script": 6852,
      "cleaned_line": 6853,
      "1111": 6854,
      "jectState": 6855,
      "show": 6856,
      "shown": 6857,
      "ContextPop": 6858,
      "check_output": 6859,
      "parent_widget": 6860,
      "mime_": 6861,
      "mimetypes": 6862,
      "Configurator": 6863,
      "your_list": 6864,
      "deredError": 6865,
      "attach_alternative": 6866,
      "cause": 6867,
      "can_rollback": 6868,
      "parentloop": 6869,
      "HTTP_BA": 6870,
      "HTTP_INFO": 6871,
      "HTTP_HOST": 6872,
      "HTTP_SUCCESS": 6873,
      "HTTP_SERVER_": 6874,
      "HTTP_REDIRECT": 6875,
      "support_legacy": 6876,
      "all_unique_checks": 6877,
      "all_date_checks": 6878,
      "table_name_converter": 6879,
      "create_select": 6880,
      "ChoiceFieldRenderer": 6881,
      "MAPPING": 6882,
      "MAXSIZE": 6883,
      "structure": 6884,
      "...'": 6885,
      "...\\": 6886,
      "AppRegistry": 6887,
      "BoolCol": 6888,
      "extra_files": 6889,
      "require_de": 6890,
      "require_all": 6891,
      "_tag_compile": 6892,
      "icy": 6893,
      "icIPAddressField": 6894,
      "context_match": 6895,
      "make_aware": 6896,
      "make_naive": 6897,
      "make_msgid": 6898,
      "SIGN": 6899,
      "_prefixes": 6900,
      "hex_format_string": 6901,
      "split_re": 6902,
      "split_leading_dir": 6903,
      "MIMEMixin": 6904,
      "SelectDateWidget": 6905,
      "Argument": 6906,
      "ious": 6907,
      "save_form_data": 6908,
      "no_obsolete": 6909,
      "MIGRATE_FAIL": 6910,
      "('.*": 6911,
      "configure_custom": 6912,
      "start_new_thread": 6913,
      "RAW": 6914,
      "RAIS": 6915,
      "docs_version": 6916,
      "widthratio": 6917,
      "raw_input": 6918,
      "DateTimeInput": 6919,
      "'^/'": 6920,
      "ProjectState": 6921,
      "PythonDeserializer": 6922,
      "VERBO": 6923,
      "inner_text": 6924,
      "__ge__": 6925,
      "db_for_write": 6926,
      "constructor": 6927,
      "_curr": 6928,
      "currently": 6929,
      "cyan": 6930,
      "FFFF": 6931,
      "_PUNCT": 6932,
      "colon_in_names": 6933,
      "resolved_path": 6934,
      ".*?)\\\\": 6935,
      "validate_name": 6936,
      "FILE_MODIFIED": 6937,
      "HelperNode": 6938,
      "_has_expired": 6939,
      "include_html": 6940,
      "next_item": 6941,
      "build_absolute_": 6942,
      "build_request_repr": 6943,
      "serialize_headers": 6944,
      "email_backend": 6945,
      "win32": 6946,
      "window": 6947,
      "windll": 6948,
      "param_dict": 6949,
      "abcd": 6950,
      "requires_model_validation": 6951,
      "LANGUAGE_SES": 6952,
      "Operator": 6953,
      "_nodes": 6954,
      "TEMPLATE_LOADER": 6955,
      "EscapeText": 6956,
      "EscapeBytes": 6957,
      "Module_six_moves_urllib_request": 6958,
      "Module_six_moves_urllib_response": 6959,
      "Module_six_moves_urllib_error": 6960,
      "Module_six_moves_urllib_robotparser": 6961,
      "Module_six_moves_urllib_parse": 6962,
      "Feb": 6963,
      "Users": 6964,
      "UserList": 6965,
      "scores": 6966,
      "alternate": 6967,
      "'&#": 6968,
      "GNU": 6969,
      "Render": 6970,
      "etc": 6971,
      "full_file": 6972,
      "full_statement": 6973,
      "_FORMS": 6974,
      "got_request_": 6975,
      "int_part_": 6976,
      "real_name": 6977,
      "translated": 6978,
      "ResolverMatch": 6979,
      "conditional_content_remo": 6980,
      "SplitDateTimeField": 6981,
      "_template_response_middleware": 6982,
      "c_serializer_formats": 6983,
      "simple_url": 6984,
      "simpledialog": 6985,
      "walk_to_end": 6986,
      "Country": 6987,
      "TIME_FORMAT": 6988,
      "TIME_ZONE": 6989,
      "constant_re": 6990,
      "constant_time_": 6991,
      "3339": 6992,
      "403": 6993,
      "TagHelperNode": 6994,
      "custom_sql_": 6995,
      "of_year": 6996,
      "ContentNotRen": 6997,
      "show_traceback": 6998,
      "TemporaryFileUploadHandler": 6999,
      "combined": 7000,
      ".*)": 7001,
      "Optimi": 7002,
      "_html_output": 7003,
      "hide_": 7004,
      "_cached_loaders": 7005,
      "num_loopvars": 7006,
      "command_line": 7007,
      "command_stack": 7008,
      "GenericIPAddressField": 7009,
      "1_6": 7010,
      "Creating": 7011,
      "DATETIME_INPUT_FORMATS": 7012,
      "related_": 7013,
      "not_found": 7014,
      "not_found_": 7015,
      "maybe": 7016,
      "app_list_value": 7017,
      "day_of_year": 7018,
      "BASE64": 7019,
      "ForeignKeyField": 7020,
      "dummy_": 7021,
      "locale_dirs": 7022,
      "file_size_d": 7023,
      "\"\\\\\"": 7024,
      "GHT_": 7025,
      "ImageFile": 7026,
      "bad_app_labels": 7027,
      "ot_table": 7028,
      "samefile": 7029,
      "ught_": 7030,
      "seen_models": 7031,
      "in_index": 7032,
      "only_django": 7033,
      "only_new": 7034,
      "only_initial": 7035,
      "members": 7036,
      "formsets": 7037,
      "fetch_command": 7038,
      "used_name": 7039,
      "MENTS": 7040,
      "_setupfunc": 7041,
      "PostDataException": 7042,
      "sanitize_separ": 7043,
      "_deleted_form_": 7044,
      "tmpdir": 7045,
      "rel_to": 7046,
      "kwarg_format": 7047,
      "InlineForeignKeyField": 7048,
      "0005": 7049,
      "markup": 7050,
      "clear_checkbox_name": 7051,
      "clear_checkbox_id": 7052,
      "clear_checkbox_label": 7053,
      "flup_module": 7054,
      "SION_KEY": 7055,
      "rfcdate": 7056,
      "rfc3339": 7057,
      "cyclevars": 7058,
      "entity_re": 7059,
      "entity_decl": 7060,
      "RendererMixin": 7061,
      "_inf": 7062,
      "_generator": 7063,
      "last_bit": 7064,
      "settings_exception": 7065,
      "vary_on": 7066,
      "run_validators": 7067,
      "run_syncdb": 7068,
      "common_prefix": 7069,
      "common_ancestor": 7070,
      "HttpResponseNotModified": 7071,
      "HttpResponseNotAllow": 7072,
      "original_path": 7073,
      "convert_to_": 7074,
      "generic_tag_compile": 7075,
      "99999999": 7076,
      "following": 7077,
      "test_runner_class": 7078,
      "\">%": 7079,
      "terminal_char": 7080,
      "partial": 7081,
      "sorted_list": 7082,
      "checkbox_name": 7083,
      "existing_headers": 7084,
      "list_of_tuples": 7085,
      "accept_language_re": 7086,
      "MEDIA_URL": 7087,
      "I18N_MODIFIED": 7088,
      "=',',": 7089,
      "><\\/": 7090,
      "BlockNode": 7091,
      "C_URL": 7092,
      "HITS": 7093,
      "ZipFile": 7094,
      "_urlconf_module": 7095,
      "ancestry": 7096,
      "ticklabels": 7097,
      "root_attributes": 7098,
      "conn_type": 7099,
      "value_not_found_": 7100,
      "with_ctxt": 7101,
      "curry": 7102,
      "literal_eval": 7103,
      "TypedChoiceField": 7104,
      "relative_dir": 7105,
      "unique_for": 7106,
      "correctly": 7107,
      "DJANGO_SETTINGS_MODULE": 7108,
      "ACCEP": 7109,
      "January": 7110,
      "_SO": 7111,
      "_SSL": 7112,
      "_exception_middleware": 7113,
      "_raw_ipv6": 7114,
      "xa3": 7115,
      "alter_sql": 7116,
      "me_next": 7117,
      "mem_args": 7118,
      "opt_dict": 7119,
      "optimize": 7120,
      "compiled_parent": 7121,
      "header_end": 7122,
      "UNK_SIZE": 7123,
      "UNKNOWN": 7124,
      "auth_user": 7125,
      "auth_password": 7126,
      "_post_render_callback": 7127,
      "_post_parse_error": 7128,
      "HTTP_NOT_MODIFIED": 7129,
      "HTTP_NOT_FOUND": 7130,
      "expects_localtime": 7131,
      "SINGLE_BRACE_START": 7132,
      "SINGLE_BRACE_END": 7133,
      "_view_middleware": 7134,
      "fill_": 7135,
      "lazy_number": 7136,
      "keep_pot": 7137,
      "libraries": 7138,
      "lusions": 7139,
      "write_items": 7140,
      "ignorenone": 7141,
      "RESULT": 7142,
      "saved_locale": 7143,
      "D_HOSTS": 7144,
      "HttpResponseRedirectBase": 7145,
      "modified_code": 7146,
      "bindAddress": 7147,
      "Subclasses": 7148,
      "Optional": 7149,
      "_generate_cache_key": 7150,
      "ALLOWED_HOSTS": 7151,
      "LengthValidator": 7152,
      "FASTCGI_OPTIONS": 7153,
      "WEEKDAYS_": 7154,
      "\"[^\"]*?": 7155,
      "={!": 7156,
      "DSTOFFSET": 7157,
      "RUN_": 7158,
      "World": 7159,
      "_new_gnu": 7160,
      "_ipython_pre_": 7161,
      "baz": 7162,
      "ch_seconds": 7163,
      "get_exception_response": 7164,
      "ReferenceForbidden": 7165,
      "Syndication": 7166,
      "_format_modules_cache": 7167,
      "THOUSAND_": 7168,
      "BoundaryIter": 7169,
      "DefusedXml": 7170,
      "StreamingHttpResponse": 7171,
      "javascript_quote": 7172,
      "ManyToMany": 7173,
      "PasswordInput": 7174,
      "concrete_model": 7175,
      "HANDLE": 7176,
      "Only": 7177,
      "](?=[": 7178,
      "ization": 7179,
      "xlsx": 7180,
      "__gt__": 7181,
      "key_salt": 7182,
      "parameter": 7183,
      "previous": 7184,
      "is_valid_ipv6_address": 7185,
      "ExternalReferenceForbidden": 7186,
      "INITIAL_FORM_COUNT": 7187,
      "ORDERING_FIELD_NAME": 7188,
      "translators_comment_": 7189,
      "pivot_table": 7190,
      "parse_qsl": 7191,
      "})-(?": 7192,
      "overlapped": 7193,
      "body_msg": 7194,
      "allows_colon_in_names": 7195,
      "\")|(?:'[^']": 7196,
      "('(?<!\\\\": 7197,
      "extracted": 7198,
      "RawPostDataException": 7199,
      "ABCDEFGH": 7200,
      "WindowsError": 7201,
      "SCRIPT_NAME": 7202,
      "interesting": 7203,
      "staticmethod": 7204,
      "sql_destroy_indexes": 7205,
      "+((?:\"[^\"]*?": 7206,
      "AUTH": 7207,
      "Basic": 7208,
      "DTDForbidden": 7209,
      "DATA": 7210,
      "FloatField": 7211,
      "GzipFile": 7212,
      "ImmutableList": 7213,
      "JKLM": 7214,
      "Joe": 7215,
      "JsonResponse": 7216,
      "Morsel": 7217,
      "PQRST": 7218,
      "SkipFile": 7219,
      "UVWXY": 7220,
      "With": 7221,
      "_enters": 7222,
      "_helper": 7223,
      "_exclusions": 7224,
      "_quotes": 7225,
      "_ddl": 7226,
      "_leaves": 7227,
      "_cookie_allows_colon_in_names": 7228,
      "_proxy_method": 7229,
      "banana": 7230,
      "cmd_options": 7231,
      "einsum": 7232,
      "epoch_seconds": 7233,
      "pretty": 7234,
      "pbkdf2": 7235,
      "security": 7236,
      "inhibit_post_migrate": 7237,
      "techni": 7238,
      "testrunner": 7239,
      "recursive": 7240,
      "leaf_nodes": 7241,
      "__text_cast": 7242,
      "__bytes__": 7243,
      "__wrapper__": 7244,
      "__bytes_cast": 7245,
      "consume_next": 7246,
      "unclosed_block_tag": 7247,
      "path_to_remove": 7248,
      "get_unique_error_message": 7249,
      "get_format_lazy": 7250,
      "get_resolved_arguments": 7251,
      "get_template_sources": 7252,
      "get_public_serializer_formats": 7253,
      "get_cookie_signer": 7254,
      "FixedOffset": 7255,
      "lib2to3": 7256,
      "fix_location_header": 7257,
      "NoArgsCommand": 7258,
      "ComboField": 7259,
      "RequireDebug": 7260,
      "RenameMethodsBase": 7261,
      "migrations_to_squash": 7262,
      "become_daemon": 7263,
      "rendering_attrs": 7264,
      "ULONG_PTR": 7265,
      "TemplateTagNode": 7266,
      "STATIC_URL": 7267,
      "STDOFFSET": 7268,
      "DeserializedObject": 7269,
      "DEFAULT_CHUNK_SIZE": 7270,
      "DEFAULT_ATTACHMENT_": 7271,
      "MIME_TYPE": 7272,
      "CachedDnsName": 7273,
      "run_from_argv": 7274,
      "imported_objects": 7275,
      "_get_validation_exclusions": 7276,
      "handle_uncaught_": 7277,
      "find_template_loader": 7278,
      "HttpResponseBadRequest": 7279,
      "UTF_8": 7280,
      "webbrowser": 7281,
      "ContextPopException": 7282,
      "can_rollback_ddl": 7283,
      "HTTP_BAD_REQUEST": 7284,
      "HTTP_SERVER_ERROR": 7285,
      "AppRegistryNotReady": 7286,
      "require_debug": 7287,
      "require_all_fields": 7288,
      "ArgumentParser": 7289,
      "MIGRATE_FAILURE": 7290,
      "RAISE_ERROR": 7291,
      "VERBOSE": 7292,
      "_PUNCTUATION": 7293,
      "build_absolute_uri": 7294,
      "LANGUAGE_SESSION_KEY": 7295,
      "TEMPLATE_LOADERS": 7296,
      "got_request_exception": 7297,
      "int_part_gd": 7298,
      "conditional_content_removal": 7299,
      "constant_time_compare": 7300,
      "custom_sql_for_model": 7301,
      "ContentNotRenderedError": 7302,
      "hide_empty": 7303,
      "file_size_dl": 7304,
      "sanitize_separators": 7305,
      "_deleted_form_indexes": 7306,
      "rfc3339_date": 7307,
      "HttpResponseNotAllowed": 7308,
      "generic_tag_compiler": 7309,
      "value_not_found_exception": 7310,
      "_post_render_callbacks": 7311,
      "ignorenonexistent": 7312,
      "_new_gnu_trans": 7313,
      "SyndicationFeed": 7314,
      "THOUSAND_SEPARATOR": 7315,
      "DefusedXmlException": 7316,
      "translators_comment_start": 7317,
      "\")|(?:'[^']*?'))": 7318,
      "+((?:\"[^\"]*?\")|(?:'[^']*?'))": 7319,
      "PQRSTUVWXY": 7320,
      "DEFAULT_ATTACHMENT_MIME_TYPE": 7321,
      "handle_uncaught_exception": 7322,
      "!\"": 7323,
      "\":": 7324,
      "\";": 7325,
      "\"[": 7326,
      "\"([": 7327,
      "\")]": 7328,
      "\"[%": 7329,
      "$\"\"\"": 7330,
      "%^": 7331,
      "&=": 7332,
      "'`": 7333,
      "'([": 7334,
      "'').": 7335,
      "'(%": 7336,
      "(~": 7337,
      "(([": 7338,
      ")(": 7339,
      ")>\"": 7340,
      ")|\\\\": 7341,
      "*\\": 7342,
      "*$'": 7343,
      "*(\\": 7344,
      "+')": 7345,
      "+.*": 7346,
      "-'": 7347,
      "-]+": 7348,
      ".)',": 7349,
      ".+?": 7350,
      "/\"": 7351,
      "/'))": 7352,
      "011": 7353,
      "1123": 7354,
      "23": 7355,
      "26": 7356,
      "2byte": 7357,
      "234": 7358,
      "233": 7359,
      "4f": 7360,
      "58": 7361,
      "6_address": 7362,
      "79": 7363,
      "95": 7364,
      ":-": 7365,
      ":],": 7366,
      ":]+": 7367,
      ";.": 7368,
      ";')": 7369,
      "=?": 7370,
      "=('": 7371,
      "=')": 7372,
      "='%": 7373,
      "=\"%": 7374,
      "></": 7375,
      "?!": 7376,
      "?',": 7377,
      "@',": 7378,
      "Ac": 7379,
      "Ad": 7380,
      "Av": 7381,
      "Ass": 7382,
      "Atom": 7383,
      "BB": 7384,
      "Bu": 7385,
      "But": 7386,
      "Brand": 7387,
      "BUS": 7388,
      "Bea": 7389,
      "Cur": 7390,
      "Case": 7391,
      "CT_": 7392,
      "CKEN": 7393,
      "City": 7394,
      "Client": 7395,
      "Den": 7396,
      "Dig": 7397,
      "DOUT": 7398,
      "DARK": 7399,
      "ED_": 7400,
      "ELE": 7401,
      "EOL": 7402,
      "F0": 7403,
      "Fai": 7404,
      "Fol": 7405,
      "Fast": 7406,
      "GU": 7407,
      "Gone": 7408,
      "HO": 7409,
      "HEL": 7410,
      "HRA": 7411,
      "IT": 7412,
      "IDI": 7413,
      "ILED": 7414,
      "IJKLM": 7415,
      "Js": 7416,
      "LP": 7417,
      "LS": 7418,
      "LC_": 7419,
      "Link": 7420,
      "Ma": 7421,
      "Mal": 7422,
      "More": 7423,
      "MAT": 7424,
      "MIN": 7425,
      "March": 7426,
      "M10000": 7427,
      "N80": 7428,
      "Of": 7429,
      "O_COL": 7430,
      "PER": 7431,
      "Pag": 7432,
      "POS": 7433,
      "RW": 7434,
      "RON": 7435,
      "SS": 7436,
      "Sun": 7437,
      "Send": 7438,
      "ST_": 7439,
      "Sear": 7440,
      "Scrip": 7441,
      "Star": 7442,
      "Slug": 7443,
      "SSL": 7444,
      "Tk": 7445,
      "TE_": 7446,
      "TTO": 7447,
      "Task": 7448,
      "TIN_": 7449,
      "We": 7450,
      "Word": 7451,
      "Wed": 7452,
      "WSER": 7453,
      "WRON": 7454,
      "Y19": 7455,
      "[.": 7456,
      "[\\": 7457,
      "[~": 7458,
      "[\\\\": 7459,
      "[]).": 7460,
      "\\[": 7461,
      "]?\\": 7462,
      "_for": 7463,
      "_get": 7464,
      "_attr": 7465,
      "_end": 7466,
      "_cal": 7467,
      "_out": 7468,
      "_choice": 7469,
      "_render": 7470,
      "_find": 7471,
      "_bytes": 7472,
      "_exclude": 7473,
      "_decode": 7474,
      "_level": 7475,
      "_run": 7476,
      "_findall": 7477,
      "_mark_": 7478,
      "_object_": 7479,
      "_server": 7480,
      "_norm": 7481,
      "_cookie": 7482,
      "_hidden": 7483,
      "_import_module": 7484,
      "_start_": 7485,
      "_variable": 7486,
      "_filenames": 7487,
      "_content_length": 7488,
      "_mutable": 7489,
      "_truncate_": 7490,
      "_renderer": 7491,
      "_templatetags_modules": 7492,
      "_limit": 7493,
      "_MODUL": 7494,
      "_rollback": 7495,
      "_for_model": 7496,
      "_i18n": 7497,
      "_validate_unique": 7498,
      "_err_": 7499,
      "_DJANGO_": 7500,
      "_urlize": 7501,
      "_TABLE": 7502,
      "_HEADER": 7503,
      "_producer": 7504,
      "_lon": 7505,
      "_watch": 7506,
      "_constructor": 7507,
      "_convert_to_": 7508,
      "a2": 7509,
      "a_": 7510,
      "am": 7511,
      "a_list": 7512,
      "aug": 7513,
      "bla": 7514,
      "blab": 7515,
      "brow": 7516,
      "cp": 7517,
      "cfg": 7518,
      "cum": 7519,
      "cmatches": 7520,
      "cull_frequency": 7521,
      "dc": 7522,
      "dq": 7523,
      "dct": 7524,
      "dlen": 7525,
      "dparser": 7526,
      "dnd": 7527,
      "dCache": 7528,
      "dtemp": 7529,
      "eE": 7530,
      "em": 7531,
      "ev": 7532,
      "eol": 7533,
      "f0": 7534,
      "ft": 7535,
      "fu": 7536,
      "fre": 7537,
      "fro": 7538,
      "fext": 7539,
      "fav": 7540,
      "gg": 7541,
      "gra": 7542,
      "gold": 7543,
      "gca": 7544,
      "hn": 7545,
      "hits": 7546,
      "hib": 7547,
      "ir": 7548,
      "il_": 7549,
      "jun": 7550,
      "jul": 7551,
      "k2": 7552,
      "ktop": 7553,
      "l_c": 7554,
      "lHandler": 7555,
      "lify": 7556,
      "mc": 7557,
      "nYou": 7558,
      "ntranslate": 7559,
      "nlar": 7560,
      "oct": 7561,
      "oad": 7562,
      "oser": 7563,
      "pdict": 7564,
      "plus": 7565,
      "ponent": 7566,
      "r1": 7567,
      "rs": 7568,
      "rv": 7569,
      "ry": 7570,
      "rss": 7571,
      "rindex": 7572,
      "sla": 7573,
      "scal": 7574,
      "scat": 7575,
      "turn": 7576,
      "ttk": 7577,
      "utime": 7578,
      "ugettext_noop": 7579,
      "ucture": 7580,
      "vate": 7581,
      "vas": 7582,
      "vcr": 7583,
      "vstack": 7584,
      "void_": 7585,
      "w3": 7586,
      "wm": 7587,
      "wis": 7588,
      "x7": 7589,
      "xbb": 7590,
      "zen": 7591,
      "zzy": 7592,
      "zbuf": 7593,
      "{,": 7594,
      "}%": 7595,
      "}]": 7596,
      "}')": 7597,
      "}\\\\": 7598,
      "}).": 7599,
      "}\"'": 7600,
      "}\">": 7601,
      "}\\.\\": 7602,
      "}\\\\.\\\\": 7603,
      "}:<": 7604,
      "~'": 7605,
      "sent_": 7606,
      "inal": 7607,
      "inform": 7608,
      "invo": 7609,
      "or_name": 7610,
      "ret_": 7611,
      "redirect_": 7612,
      "dep": 7613,
      "self__": 7614,
      "alties": 7615,
      "stop": 7616,
      "stination": 7617,
      "men": 7618,
      "menu": 7619,
      "mesh": 7620,
      "atom": 7621,
      "leap": 7622,
      "leter": 7623,
      "lets": 7624,
      "anch": 7625,
      "ticle": 7626,
      "uring_": 7627,
      "geo": 7628,
      "ifi": 7629,
      "ifies": 7630,
      "eload": 7631,
      "t_stream": 7632,
      "ceil": 7633,
      "amel_c": 7634,
      "rot": 7635,
      "lities": 7636,
      "light": 7637,
      "name_num": 7638,
      "namespace_dict": 7639,
      "tried_": 7640,
      "__dir": 7641,
      "__py": 7642,
      "__version": 7643,
      "__html": 7644,
      "__impor": 7645,
      "__hash": 7646,
      "__loaded_": 7647,
      "__mro": 7648,
      "__self__": 7649,
      "contra": 7650,
      "ssi": 7651,
      "ching": 7652,
      "chap": 7653,
      "one_perce": 7654,
      "exts": 7655,
      "examin": 7656,
      "love": 7657,
      "look": 7658,
      "lode_": 7659,
      "value_encode": 7660,
      "value_expr": 7661,
      "nov": 7662,
      "noargs": 7663,
      "nofol": 7664,
      "isleap": 7665,
      "d_cls": 7666,
      "d_for_": 7667,
      "d_operations": 7668,
      "throu": 7669,
      "thelist": 7670,
      "apr": 7671,
      "unstack": 7672,
      "unused_": 7673,
      "unbound_": 7674,
      "unmigrated": 7675,
      "ter3": 7676,
      "distance": 7677,
      "dicate": 7678,
      "ked": 7679,
      "ked_for_": 7680,
      "('!": 7681,
      "('.'": 7682,
      "('(?:": 7683,
      "('{}": 7684,
      "('=')": 7685,
      "ctx": 7686,
      "strs": 7687,
      "strsq": 7688,
      "strong": 7689,
      "stract": 7690,
      "str_hidden": 7691,
      "strdq": 7692,
      "apple": 7693,
      "nta": 7694,
      "getarray": 7695,
      "getMessage": 7696,
      "gettempdir": 7697,
      "fromkeys": 7698,
      "fromtxt": 7699,
      "opment": 7700,
      "fileobj": 7701,
      "filedialog": 7702,
      "ErrorDict": 7703,
      "parate": 7704,
      "added": 7705,
      "advan": 7706,
      "tabs": 7707,
      "tail_": 7708,
      "forms_": 7709,
      "forms_re": 7710,
      "form_fa": 7711,
      "atable": 7712,
      "path_override": 7713,
      "as_p": 7714,
      "serious": 7715,
      "vertex": 7716,
      "verify": 7717,
      "django_po": 7718,
      "')[:": 7719,
      "')[-": 7720,
      "')}}": 7721,
      "attrs_": 7722,
      "ulong": 7723,
      "ul_renderer": 7724,
      "ned": 7725,
      "spose": 7726,
      "uploaded": 7727,
      "msvcr": 7728,
      "date_": 7729,
      "date__": 7730,
      "date_data": 7731,
      "date_fmt": 7732,
      "date_range": 7733,
      "fieldname": 7734,
      "fields_": 7735,
      "get_data": 7736,
      "get_cache": 7737,
      "get_serializer": 7738,
      "get_urlconf": 7739,
      "get_random": 7740,
      "get_host": 7741,
      "get_form_": 7742,
      "get_dump": 7743,
      "get_available": 7744,
      "get_complete": 7745,
      "get_field_type": 7746,
      "get_many": 7747,
      "get_renderer": 7748,
      "get_attribute": 7749,
      "get_templatetags_modules": 7750,
      "get_mod_": 7751,
      "get_script_name": 7752,
      "get_wsgi_application": 7753,
      "get_fqdn": 7754,
      "get_json_data": 7755,
      "get_ns_resolver": 7756,
      "get_unbound_": 7757,
      "init_path": 7758,
      "igned": 7759,
      "url2": 7760,
      "os_err_": 7761,
      "obj_list": 7762,
      "int2byte": 7763,
      "ipy": 7764,
      "outdict": 7765,
      "outlog": 7766,
      "outbox": 7767,
      "errorlist": 7768,
      "mmap": 7769,
      "person": 7770,
      "permut": 7771,
      "dir_": 7772,
      "dir_suffix": 7773,
      "packed": 7774,
      "proce": 7775,
      "props": 7776,
      "problem": 7777,
      "prohib": 7778,
      "base62": 7779,
      "baseconv": 7780,
      "s_non": 7781,
      "s_available": 7782,
      "s_candid": 7783,
      "s_plan": 7784,
      "s_by_xpath": 7785,
      "s_correctly": 7786,
      "typeca": 7787,
      "app_output": 7788,
      "utiful": 7789,
      "feb": 7790,
      "']'": 7791,
      "'])]": 7792,
      "']\")": 7793,
      "']\").": 7794,
      "Fix": 7795,
      "First": 7796,
      "defaulten": 7797,
      "libmc": 7798,
      "contextlib": 7799,
      "fixer": 7800,
      "subwidgets": 7801,
      "submod": 7802,
      "subcommand_": 7803,
      "submitted": 7804,
      "parser_class": 7805,
      "board": 7806,
      "handle_data": 7807,
      "quan": 7808,
      "Nov": 7809,
      "tag_function": 7810,
      "tags_re": 7811,
      "tags_available": 7812,
      "saving": 7813,
      "al_field": 7814,
      "label_output": 7815,
      "label_for": 7816,
      "_capt": 7817,
      "config_string": 7818,
      "pylibmc": 7819,
      "Internal": 7820,
      "ce_iterator": 7821,
      "syms": 7822,
      "syntax": 7823,
      "prec": 7824,
      "predicate": 7825,
      "_reset_": 7826,
      "_reverse_": 7827,
      "Comp": 7828,
      "nodeType": 7829,
      "nodeName": 7830,
      "byref": 7831,
      "toktext": 7832,
      "height": 7833,
      "completer": 7834,
      "'%%'": 7835,
      "item_type": 7836,
      "filter_re": 7837,
      "filter_function": 7838,
      "filter_raw_": 7839,
      "sionWarning": 7840,
      "modulename": 7841,
      "module_values": 7842,
      "modules_candid": 7843,
      "se_files": 7844,
      "E_PROXY": 7845,
      "model_name": 7846,
      "model_to_": 7847,
      "model_label": 7848,
      "modelform_fa": 7849,
      "hell": 7850,
      "with_prefix": 7851,
      "])[": 7852,
      "doy": 7853,
      "docs": 7854,
      "do_trans": 7855,
      "resultType": 7856,
      "sysrandom": 7857,
      "locals": 7858,
      "localhost": 7859,
      "connection_params": 7860,
      "add_move": 7861,
      "add_filters": 7862,
      "add_post_": 7863,
      "add_blocks": 7864,
      "funcname": 7865,
      "text_value": 7866,
      "text_pos": 7867,
      "writerow": 7868,
      "write_message": 7869,
      "DED_HOST": 7870,
      "DEBUS": 7871,
      "alist": 7872,
      "maxchildren": 7873,
      "maxspare": 7874,
      "place_": 7875,
      "to_delete": 7876,
      "is_not_": 7877,
      "is_ignored": 7878,
      "is_checked": 7879,
      "is_libr": 7880,
      "is_compressed": 7881,
      "is_serious": 7882,
      "FieldError": 7883,
      "Exit": 7884,
      "Expression": 7885,
      "Exponent": 7886,
      "defaultdict": 7887,
      "helptext": 7888,
      "backwar": 7889,
      "urllib_robotparser": 7890,
      "error_text": 7891,
      "BaseHandler": 7892,
      "Base36": 7893,
      "BasedCache": 7894,
      "INTERN": 7895,
      "INOTI": 7896,
      "sound": 7897,
      "soft": 7898,
      "())[": 7899,
      "())))": 7900,
      "Result": 7901,
      "Return": 7902,
      "curs": 7903,
      "index_output": 7904,
      "index_sql": 7905,
      "new_args": 7906,
      "new_date": 7907,
      "new_option": 7908,
      "new_result": 7909,
      "new_errors": 7910,
      "new_keys": 7911,
      "new_environ": 7912,
      "new_modules": 7913,
      "new_second_item": 7914,
      "posix": 7915,
      "pot_path": 7916,
      "transpose": 7917,
      "ValueNotFound": 7918,
      "safe_data": 7919,
      "acquire": 7920,
      "cache__": 7921,
      "cache_info": 7922,
      "startup": 7923,
      "MESS": 7924,
      "mix": 7925,
      "mixed": 7926,
      "migration_files": 7927,
      "open_": 7928,
      "ERATOR": 7929,
      "ERY_": 7930,
      "(?<!": 7931,
      "those": 7932,
      "([[": 7933,
      "([('": 7934,
      "dbm": 7935,
      "tablenames": 7936,
      "table_end": 7937,
      "unicode_value": 7938,
      "sizeof": 7939,
      "beef": 7940,
      "begin": 7941,
      "zyx": 7942,
      "header_names": 7943,
      "prefix_norm": 7944,
      "groupid": 7945,
      "manent": 7946,
      "render_options": 7947,
      "render_node": 7948,
      "ON_P": 7949,
      "number_": 7950,
      "number_value": 7951,
      "nt_re": 7952,
      "='{}": 7953,
      "use_func": 7954,
      "stream_class": 7955,
      "TemplateEncoding": 7956,
      "mypath": 7957,
      "myfunction": 7958,
      "minspare": 7959,
      "parse_name": 7960,
      "ARGU": 7961,
      "_strings": 7962,
      "id_attrs": 7963,
      "npgettext_lazy": 7964,
      "mailhost": 7965,
      "charrefs": 7966,
      ")]))": 7967,
      "FAILED": 7968,
      "STDOUT": 7969,
      "FileOperation": 7970,
      "FilePath": 7971,
      "FileBasedCache": 7972,
      "using_": 7973,
      "st_mode": 7974,
      "st_timestamp": 7975,
      "st_be_": 7976,
      "commands_only": 7977,
      "app_labels_only": 7978,
      "DjangoTranslation": 7979,
      "DjangoRuntimeWarning": 7980,
      "timezone_name": 7981,
      "NotUse": 7982,
      "Device": 7983,
      "Destination": 7984,
      "copyreg": 7985,
      "copystat": 7986,
      "newline": 7987,
      "newheader": 7988,
      "newheaders": 7989,
      "newretval": 7990,
      "httponly": 7991,
      "httpd_cls": 7992,
      "DictWrapper": 7993,
      "monkey": 7994,
      "zip_lon": 7995,
      "count2": 7996,
      "'\")": 7997,
      "'\",": 7998,
      "pkg_name": 7999,
      "REP": 8000,
      "REAS": 8001,
      "REFIX": 8002,
      "empty_file": 8003,
      "DEFAULT_MAX_NUM": 8004,
      "databases": 8005,
      "set_urlconf": 8006,
      "set_cookie": 8007,
      "set_many": 8008,
      "set_script_prefix": 8009,
      "html4": 8010,
      "TEC": 8011,
      "TEST": 8012,
      "TEST_": 8013,
      "_cache_files": 8014,
      "pop_context": 8015,
      "tupl": 8016,
      "denied": 8017,
      "max_decimal_places": 8018,
      "max_whole_digits": 8019,
      "LoD": 8020,
      "Load": 8021,
      "processing": 8022,
      "process_all": 8023,
      "default_value": 8024,
      "default_data": 8025,
      "default_settings": 8026,
      "default_attrs": 8027,
      "default_timeout": 8028,
      "Unrecognized": 8029,
      "properly": 8030,
      "callback_args": 8031,
      "callback_kwargs": 8032,
      "lowercase": 8033,
      "exec_": 8034,
      "makemigrations": 8035,
      "levelname": 8036,
      "update_watch": 8037,
      "month_field": 8038,
      "month_none_value": 8039,
      "_list_cache_files": 8040,
      "cleanup": 8041,
      "clean_data": 8042,
      "FILE": 8043,
      "ed_tokens": 8044,
      "dig1": 8045,
      "dig2": 8046,
      "content_disposition": 8047,
      "Separate": 8048,
      "resolve_context": 8049,
      "resolve_error_": 8050,
      "resolve_variable": 8051,
      "year_field": 8052,
      "year_none_value": 8053,
      "(?:\\\\.": 8054,
      "(?:\\.": 8055,
      "204": 8056,
      "2013": 8057,
      "20M10000": 8058,
      "CacheInfo": 8059,
      "CacheEntry": 8060,
      "my_function": 8061,
      "Keyboard": 8062,
      "'])['": 8063,
      "startDocument": 8064,
      "interpre": 8065,
      "wrapped": 8066,
      "queryresult": 8067,
      "Chunk": 8068,
      "Child": 8069,
      "input_attrs": 8070,
      "\"%%(%": 8071,
      "_format_value": 8072,
      "fff": 8073,
      "quote_": 8074,
      "regex_match": 8075,
      "_func_code": 8076,
      "_func_globals": 8077,
      "_func_defaults": 8078,
      "_func_closure": 8079,
      "inputs": 8080,
      "current_number": 8081,
      "1900": 8082,
      "1970": 8083,
      "AND": 8084,
      "parse_bits": 8085,
      "parse_http_date": 8086,
      "spam": 8087,
      "activeMigrationQuestioner": 8088,
      "_get_scheme": 8089,
      "_get_image_dimensions": 8090,
      "_get_timezone_name": 8091,
      "})\"": 8092,
      "})\"\"\".": 8093,
      "old_path": 8094,
      "old_timezone": 8095,
      "old_app_dir": 8096,
      "127": 8097,
      "ModelName": 8098,
      "validate_domain_part": 8099,
      "validate_ipv6_address": 8100,
      "valid_value": 8101,
      "valid_ident": 8102,
      "'\\\\\"'": 8103,
      "SafeString": 8104,
      "_modules": 8105,
      "users": 8106,
      "handle_label": 8107,
      "handle_raw_input": 8108,
      "handle_noargs": 8109,
      "_pair": 8110,
      "low_attr": 8111,
      "has_leading_dir": 8112,
      "has_bz2": 8113,
      "has_new_option": 8114,
      "('\\\\$": 8115,
      "('\\\\(": 8116,
      "('\\\\.": 8117,
      "('\\\\',": 8118,
      "('\\\\[(": 8119,
      "('\\\\.\\\\": 8120,
      "[^>": 8121,
      "[^\\": 8122,
      "[^'\\\\": 8123,
      "[^\"\\\\": 8124,
      "file_obj": 8125,
      "file_field_list": 8126,
      "find_element": 8127,
      "find_commands": 8128,
      "initial_extra": 8129,
      "HttpResponseBase": 8130,
      "HttpResponseServer": 8131,
      "HttpResponseForbidden": 8132,
      "HttpResponsePer": 8133,
      "HttpResponseGone": 8134,
      "RemovedInNext": 8135,
      "allow_migrate": 8136,
      "allow_multiple_": 8137,
      "allow_empty_file": 8138,
      "load_handler": 8139,
      "load_command_": 8140,
      "ccc": 8141,
      "ted_hmac": 8142,
      "CHO": 8143,
      "list_length": 8144,
      "PYTH": 8145,
      "urlconf_repr": 8146,
      "+)\\": 8147,
      "Structure": 8148,
      "_ALT": 8149,
      "for_gettext": 8150,
      "TextField": 8151,
      "URCE": 8152,
      "NODE": 8153,
      "NOPQRSTUVWXY": 8154,
      "TimeFormat": 8155,
      "were": 8156,
      "environment": 8157,
      "form_field": 8158,
      "form_line": 8159,
      "template_tuple": 8160,
      "system_id": 8161,
      "html_parser": 8162,
      "html_entities": 8163,
      "1000000": 8164,
      "ignore_": 8165,
      "ignore_fail": 8166,
      "repr_attr": 8167,
      "ROWSER": 8168,
      "USR": 8169,
      "]))]": 8170,
      "lookup_str": 8171,
      "lookup_view_": 8172,
      "suffixes": 8173,
      "logger_config": 8174,
      "server_port": 8175,
      "somekey": 8176,
      "somefile": 8177,
      "some_command": 8178,
      "FORWAR": 8179,
      "localize_input": 8180,
      "_dicts": 8181,
      "invalid_list": 8182,
      "invalid_image": 8183,
      "invalid_pk_value": 8184,
      "invalid_block_tag": 8185,
      "altzone": 8186,
      "merged_operations": 8187,
      "URLopener": 8188,
      "EmailField": 8189,
      "EmailValidator": 8190,
      "_create_cache": 8191,
      "clear_template": 8192,
      "author__": 8193,
      "errlog": 8194,
      "modified": 8195,
      "sql_file": 8196,
      "sql_all": 8197,
      "sql_delete": 8198,
      "smart_split": 8199,
      "smart_urlquote": 8200,
      "lst2": 8201,
      "ContextDict": 8202,
      "CONF": 8203,
      "overflow": 8204,
      "over_bytes": 8205,
      "check_programs": 8206,
      "directory_created": 8207,
      "ABLE": 8208,
      "ABBR": 8209,
      "AGE": 8210,
      "AGES": 8211,
      "AGERS": 8212,
      "DeclHandler": 8213,
      "SQL_FIEL": 8214,
      "SQL_COL": 8215,
      "SQL_TABLE": 8216,
      "remove_pot": 8217,
      "mime_encode": 8218,
      "]*:": 8219,
      "]*',": 8220,
      "]*)*": 8221,
      "yourdata": 8222,
      "your_string": 8223,
      "cookiedict": 8224,
      "cookie_date": 8225,
      "m2m_value": 8226,
      "S_DEPRECATED_LOCALES": 8227,
      "template_name_list": 8228,
      "SimpleUploadedFile": 8229,
      "InvalidPage": 8230,
      "end_tag": 8231,
      "end_text_pos": 8232,
      "cache_get": 8233,
      "cache_suffix": 8234,
      "method_decorator": 8235,
      "HTTP_X_": 8236,
      "schema": 8237,
      "ary_missing": 8238,
      "gestAuthHandler": 8239,
      "all_files": 8240,
      "create_var": 8241,
      "create_table": 8242,
      "create_nodelist": 8243,
      "create_variable": 8244,
      "MAIN": 8245,
      "stackoverflow": 8246,
      "RegexField": 8247,
      "KEY_P": 8248,
      "Book": 8249,
      "_urllib_request": 8250,
      "_urllib_error_": 8251,
      "_urllib_response_": 8252,
      "_urllib_parse_": 8253,
      "_urllib_robotparser": 8254,
      "assertRegex": 8255,
      "assertRaisesRegex": 8256,
      "')]\")": 8257,
      "META_override": 8258,
      "extension_map": 8259,
      "context_re": 8260,
      "context_data": 8261,
      "hashvalue": 8262,
      "make_middleware_": 8263,
      "LANG_INFO": 8264,
      "hexlify": 8265,
      "media_attrs": 8266,
      "split_url": 8267,
      "MIMEMessage": 8268,
      "Thu": 8269,
      "Thread": 8270,
      "_exit": 8271,
      "('/',": 8272,
      "save_instance": 8273,
      "save_new": 8274,
      "ADMIN": 8275,
      "MOV": 8276,
      "no_color": 8277,
      "_requests": 8278,
      "LoaderOrigin": 8279,
      "ipv4_un": 8280,
      "decimal_digits": 8281,
      "decimal_separ": 8282,
      "truncated_text": 8283,
      "USE_INOTI": 8284,
      "2002": 8285,
      "2005": 8286,
      "and_files": 8287,
      "('.')": 8288,
      "('.//": 8289,
      "post_data": 8290,
      "post_date": 8291,
      "post_parse_error": 8292,
      "post_and_files": 8293,
      "FIELD": 8294,
      "CheckCommand": 8295,
      "raw_unicode_escape": 8296,
      "302": 8297,
      "3434": 8298,
      "EXCL": 8299,
      "ILTIN_": 8300,
      "Problem": 8301,
      "installing": 8302,
      "inner_args": 8303,
      "inner_html": 8304,
      "inner_result": 8305,
      "inner_run": 8306,
      "constants": 8307,
      "db_datetime": 8308,
      "non_capt": 8309,
      "{},": 8310,
      "transaction_sql": 8311,
      "QUERY_": 8312,
      "'*',": 8313,
      "BUILTIN_": 8314,
      "compile_filter_error": 8315,
      "language_code_re": 8316,
      "MENT_SEPARATOR": 8317,
      ".*?%": 8318,
      ".*?)": 8319,
      "O_CRE": 8320,
      "O_WRON": 8321,
      "O_EXCL": 8322,
      "penalties": 8323,
      "migration_names": 8324,
      "stream_or_iterable": 8325,
      "grid": 8326,
      "('[\\": 8327,
      "total": 8328,
      "filepath_to_uri": 8329,
      "LazyStream": 8330,
      "included": 8331,
      "unquote_plus": 8332,
      "divmod": 8333,
      "next_space_": 8334,
      "LibraryValueNotFound": 8335,
      "build_instance": 8336,
      "BACKEN": 8337,
      "Here": 8338,
      "WSGIHandler": 8339,
      "bbb": 8340,
      "ddd": 8341,
      "iso_input": 8342,
      "importlib_find": 8343,
      "abcabcc": 8344,
      "view_type": 8345,
      "available_attrs": 8346,
      "dropwhile": 8347,
      "CookieError": 8348,
      "IfNode": 8349,
      "IfEqual": 8350,
      "needs": 8351,
      "sub_widgets": 8352,
      "sub_tried": 8353,
      "sub_ul_renderer": 8354,
      "templatetag_module": 8355,
      "bottom": 8356,
      "microseconds": 8357,
      "BadSerializer": 8358,
      "Feature": 8359,
      "Running": 8360,
      "b64_encode": 8361,
      "scroll": 8362,
      "scipy": 8363,
      "empty_form": 8364,
      "ArchiveException": 8365,
      "ArchiveFormat": 8366,
      "\",\"": 8367,
      "'&'": 8368,
      "TION_FIELD_NAME": 8369,
      "Translator": 8370,
      "prepare_js_": 8371,
      "delete_many": 8372,
      "first_item": 8373,
      "CACHE_MAX_": 8374,
      "'}'": 8375,
      "'}.": 8376,
      "'}}": 8377,
      "c_void_": 8378,
      "c_ulong": 8379,
      "simple_server": 8380,
      "wasn": 8381,
      "_close": 8382,
      "_close_files": 8383,
      "max_value_expr": 8384,
      "socketserver": 8385,
      "accept": 8386,
      "acceptable_end": 8387,
      "selected_html": 8388,
      "226": 8389,
      "22_date": 8390,
      "=(+": 8391,
      "_fields_": 8392,
      "_errorhandler": 8393,
      "_set_choices": 8394,
      "_set_regex": 8395,
      "_set_response_": 8396,
      "custom_sql": 8397,
      "dup2": 8398,
      "pk_is_not_": 8399,
      "small": 8400,
      "wait": 8401,
      "uploadhandler": 8402,
      "nodelist_true_output": 8403,
      "Charset": 8404,
      "ModelFormMetaclass": 8405,
      "_create_message": 8406,
      "_create_attachments": 8407,
      "_create_mime_": 8408,
      "contains_non": 8409,
      "]+)?": 8410,
      "fnmatch": 8411,
      "mkdtemp": 8412,
      "mapped_tokens": 8413,
      "magenta": 8414,
      "('^(.": 8415,
      "from_digits": 8416,
      "from_command_line": 8417,
      "urlquote_plus": 8418,
      "request_middleware": 8419,
      "num_bytes": 8420,
      "num_sent": 8421,
      "num_entries": 8422,
      "_post_clean": 8423,
      "templatetags_modules_candid": 8424,
      "truncate_text": 8425,
      "1_7": 8426,
      "ASSIGN": 8427,
      "NullBooleanField": 8428,
      "NullDevice": 8429,
      "PROCESS": 8430,
      "_by_prefix": 8431,
      "_is_expired": 8432,
      "not_installed_models": 8433,
      "day_field": 8434,
      "day_none_value": 8435,
      "read_f": 8436,
      "(?![": 8437,
      "(?!\\\\": 8438,
      "bytes_read": 8439,
      "BASE62": 8440,
      "NumberAware": 8441,
      "+\\\\)',": 8442,
      "2822_date": 8443,
      "pidfile": 8444,
      "inotify_": 8445,
      "item_attributes": 8446,
      "var_chars": 8447,
      "created_time": 8448,
      "whitelist": 8449,
      "color_settings": 8450,
      "CheckboxChoiceInput": 8451,
      "_current_app": 8452,
      "PATH_INFO": 8453,
      "ATION_MODUL": 8454,
      "DigestAuthHandler": 8455,
      "ImageField": 8456,
      "_encodes_correctly": 8457,
      "aaabcabcc": 8458,
      "bad_serializer": 8459,
      "non_atomic": 8460,
      "enter_command": 8461,
      "('-',": 8462,
      "('[^\\\\": 8463,
      "price": 8464,
      "private": 8465,
      "do_ifequal": 8466,
      "do_ntranslate": 8467,
      "widget_value": 8468,
      "cached_loaders": 8469,
      "MultipartForm": 8470,
      "plural_suffix": 8471,
      "plural_forms_re": 8472,
      "plural_form_line": 8473,
      "target_dir": 8474,
      "target_app_labels_only": 8475,
      "CONTENT": 8476,
      "SuspiciousFileOperation": 8477,
      "SuspiciousMultipartForm": 8478,
      "duplicates": 8479,
      "best_doublecolon_end": 8480,
      "(.|\\": 8481,
      "OPERATOR": 8482,
      "_varlist": 8483,
      "assigned": 8484,
      "large": 8485,
      "tmp_path": 8486,
      "rolled": 8487,
      "get_default_prefix": 8488,
      "link_path": 8489,
      "link_next": 8490,
      "link_prev": 8491,
      "symlink_path": 8492,
      "marker": 8493,
      "ENGINE": 8494,
      "ssed_time": 8495,
      "loaded_objects_in_fixture": 8496,
      "rfc2822_date": 8497,
      "DefaultStorage": 8498,
      "DJANGO_COL": 8499,
      "JSONSerializer": 8500,
      "0xFFFF": 8501,
      "BOOL": 8502,
      "_LazyDes": 8503,
      "biggest_": 8504,
      "u20ac": 8505,
      "u2022": 8506,
      "escaper": 8507,
      "escapes": 8508,
      "FilterExpression": 8509,
      "trans_bit": 8510,
      "accessor_name": 8511,
      "TestCase": 8512,
      "common_logger_config": 8513,
      "HttpResponseNotFound": 8514,
      "original_lookup": 8515,
      "convert_old_style_list": 8516,
      "convert_charrefs": 8517,
      "supported_code": 8518,
      "sub_match_dict": 8519,
      "missing_fields": 8520,
      "find_element_by_id": 8521,
      "_parse_date_fmt": 8522,
      "_load_post_and_files": 8523,
      "emit_pre_": 8524,
      "led_from_command_line": 8525,
      "bound_data": 8526,
      "DELETION_FIELD_NAME": 8527,
      "sorted_items": 8528,
      "checkbox_id": 8529,
      "compile_function_error": 8530,
      "strip_entities": 8531,
      "MemoryFileUploadHandler": 8532,
      "renamed_methods": 8533,
      "exit_command": 8534,
      "MONTHS_ALT": 8535,
      "CONTENT_LENGTH": 8536,
      "EMPTY_VALUES": 8537,
      "i18n_open": 8538,
      "i18n_close": 8539,
      "=',')": 8540,
      "DATE_FORMAT": 8541,
      "PPER_": 8542,
      "Soup": 8543,
      "_header_key": 8544,
      "_assertRegex": 8545,
      "_assertRaisesRegex": 8546,
      "_assertCountEqual": 8547,
      "_separated_": 8548,
      "etag_str": 8549,
      "must_be_": 8550,
      "represent_": 8551,
      "relational_field": 8552,
      "response_headers": 8553,
      "gen_filenames": 8554,
      "genfromtxt": 8555,
      "registered": 8556,
      "literal_match": 8557,
      "relativedelta": 8558,
      "source_error": 8559,
      "validate_ipv46_address": 8560,
      "logging_settings": 8561,
      "ADDRES": 8562,
      "configure_root": 8563,
      "configure_logger": 8564,
      "flatten_result": 8565,
      "candidate_pat": 8566,
      "guessed_path": 8567,
      "lexer_class": 8568,
      "COOKIES_override": 8569,
      "SMTPException": 8570,
      "events": 8571,
      "event_stream": 8572,
      "alters_data": 8573,
      "this_year": 8574,
      "this_value_expr": 8575,
      "underscores": 8576,
      "opt_label": 8577,
      "optimizer": 8578,
      "latest_post_date": 8579,
      "boolean_attrs": 8580,
      "Instal": 8581,
      "Interrup": 8582,
      "InteractiveMigrationQuestioner": 8583,
      "excluded_models": 8584,
      "Entity": 8585,
      "child_loggers": 8586,
      "KEY_LENGTH": 8587,
      "issubclass": 8588,
      "(\"//*[": 8589,
      "MONTHS_AP": 8590,
      "_validator_map": 8591,
      "_dimensions_cache": 8592,
      "_populated": 8593,
      "8859_1": 8594,
      "VersionWarning": 8595,
      "_BROWSER": 8596,
      "guid": 8597,
      "guid_attrs": 8598,
      "real_datetime": 8599,
      "filte": 8600,
      "ip_address_validator_map": 8601,
      "print_help": 8602,
      "write_migration_files": 8603,
      "verbose_name": 8604,
      "saved_instances": 8605,
      "list_of_dicts": 8606,
      "_createdir": 8607,
      "modified_time": 8608,
      "SubWidget": 8609,
      "urlsafe_b64decode": 8610,
      "Translations": 8611,
      "OptionParser": 8612,
      "RadioChoiceInput": 8613,
      "MAX_NUM_FORM_COUNT": 8614,
      "_generate_cache_header_key": 8615,
      "ALLOWED_": 8616,
      "MiddlewareNotUse": 8617,
      "FASTCGI_HEL": 8618,
      "WEEKDAYS": 8619,
      "June": 8620,
      "MANAGERS": 8621,
      "RssFeed": 8622,
      "_base_set": 8623,
      "_handler_class": 8624,
      "_meth_func": 8625,
      "_meth_self": 8626,
      "_js_escapes": 8627,
      "salted_hmac": 8628,
      "inspect": 8629,
      "inspection": 8630,
      "references_to_delete": 8631,
      "get_migration_by_prefix": 8632,
      "urlunquote_plus": 8633,
      "CommentWarning": 8634,
      "module_to_dict": 8635,
      "module_to_search": 8636,
      "(?=[^": 8637,
      "close_called": 8638,
      "sha1": 8639,
      "sha256": 8640,
      "DIRS": 8641,
      "sequence_sql": 8642,
      "synchronize": 8643,
      "synchronization": 8644,
      "both_after": 8645,
      "both_before": 8646,
      "construct_instance_exclude": 8647,
      "DisallowedRedirect": 8648,
      "DisallowedHo": 8649,
      "public_id": 8650,
      "possibility": 8651,
      "possibilities": 8652,
      "FILTER_SEPARATOR": 8653,
      "FILTER_ARGU": 8654,
      "logging_config_func": 8655,
      "MIN_NUM_FORM_COUNT": 8656,
      "rmtree_errorhandler": 8657,
[...]
