{
  "version": "1.0",
  "truncation": {
    "direction": "Right",
    "max_length": 70,
    "strategy": "LongestFirst",
    "stride": 0
  },
  "padding": {
    "strategy": {
      "Fixed": 70
    },
    "direction": "Right",
    "pad_to_multiple_of": null,
    "pad_id": 1,
    "pad_type_id": 0,
    "pad_token": "[PAD]"
  },
  "added_tokens": [
    {
      "id": 0,
      "content": "[UNK]",
      "single_word": false,
      "lstrip": false,
      "rstrip": false,
      "normalized": false,
      "special": true
    },
    {
      "id": 1,
      "content": "[BOS]",
      "single_word": false,
      "lstrip": false,
      "rstrip": false,
      "normalized": false,
      "special": true
    },
    {
      "id": 2,
      "content": "[EOS]",
      "single_word": false,
      "lstrip": false,
      "rstrip": false,
      "normalized": false,
      "special": true
    },
    {
      "id": 3,
      "content": "[PAD]",
      "single_word": false,
      "lstrip": false,
      "rstrip": false,
      "normalized": false,
      "special": true
    }
  ],
  "normalizer": null,
  "pre_tokenizer": {
    "type": "Whitespace"
  },
  "post_processor": null,
  "decoder": null,
  "model": {
    "type": "BPE",
    "dropout": null,
    "unk_token": "[UNK]",
    "continuing_subword_prefix": null,
    "end_of_word_suffix": null,
    "fuse_unk": false,
    "byte_fallback": false,
    "vocab": {
      "[UNK]": 0,
      "[BOS]": 1,
      "[EOS]": 2,
      "[PAD]": 3,
      "!": 4,
      "\"": 5,
      "#": 6,
      "$": 7,
      "%": 8,
      "&": 9,
      "'": 10,
      "(": 11,
      ")": 12,
      "*": 13,
      "+": 14,
      ",": 15,
      "-": 16,
      ".": 17,
      "/": 18,
      "0": 19,
      "1": 20,
      "2": 21,
      "3": 22,
      "4": 23,
      "5": 24,
      "6": 25,
      "7": 26,
      "8": 27,
      "9": 28,
      ":": 29,
      ";": 30,
      "<": 31,
      "=": 32,
      ">": 33,
      "?": 34,
      "@": 35,
      "A": 36,
      "B": 37,
      "C": 38,
      "D": 39,
      "E": 40,
      "F": 41,
      "G": 42,
      "H": 43,
      "I": 44,
      "J": 45,
      "K": 46,
      "L": 47,
      "M": 48,
      "N": 49,
      "O": 50,
      "P": 51,
      "Q": 52,
      "R": 53,
      "S": 54,
      "T": 55,
      "U": 56,
      "V": 57,
      "W": 58,
      "X": 59,
      "Y": 60,
      "Z": 61,
      "[": 62,
      "\\": 63,
      "]": 64,
      "^": 65,
      "_": 66,
      "`": 67,
      "a": 68,
      "b": 69,
      "c": 70,
      "d": 71,
      "e": 72,
      "f": 73,
      "g": 74,
      "h": 75,
      "i": 76,
      "j": 77,
      "k": 78,
      "l": 79,
      "m": 80,
      "n": 81,
      "o": 82,
      "p": 83,
      "q": 84,
      "r": 85,
      "s": 86,
      "t": 87,
      "u": 88,
      "v": 89,
      "w": 90,
      "x": 91,
      "y": 92,
      "z": 93,
      "{": 94,
      "|": 95,
      "}": 96,
      "~": 97,
      "а": 98,
      "в": 99,
      "д": 100,
      "з": 101,
      "и": 102,
      "р": 103,
      "т": 104,
      "‘": 105,
      "’": 106,
      "あ": 107,
      "th": 108,
      "in": 109,
      "me": 110,
      "the": 111,
      "an": 112,
      "st": 113,
      "on": 114,
      "se": 115,
      "re": 116,
      "te": 117,
      "ar": 118,
      "al": 119,
      "or": 120,
      "ti": 121,
      "nt": 122,
      "de": 123,
      "wi": 124,
      "le": 125,
      "ment": 126,
      "with": 127,
      "su": 128,
      "arg": 129,
      "tion": 130,
      "ing": 131,
      "tu": 132,
      "to": 133,
      "ument": 134,
      "argument": 135,
      "for": 136,
      "and": 137,
      "is": 138,
      "un": 139,
      "lf": 140,
      "ue": 141,
      "self": 142,
      "er": 143,
      "of": 144,
      "od": 145,
      "ction": 146,
      "lt": 147,
      "str": 148,
      "cal": 149,
      "as": 150,
      "if": 151,
      "ce": 152,
      "string": 153,
      "meth": 154,
      "method": 155,
      "val": 156,
      "at": 157,
      "call": 158,
      "sub": 159,
      "li": 160,
      "sult": 161,
      "result": 162,
      "fi": 163,
      "ro": 164,
      "sti": 165,
      "substi": 166,
      "substitu": 167,
      "substitute": 168,
      "mp": 169,
      "ame": 170,
      "value": 171,
      "def": 172,
      "ke": 173,
      "ge": 174,
      "di": 175,
      "con": 176,
      "ate": 177,
      "name": 178,
      "fun": 179,
      "arguments": 180,
      "ine": 181,
      "rn": 182,
      "tr": 183,
      "list": 184,
      "function": 185,
      "pa": 186,
      "cl": 187,
      "it": 188,
      "turn": 189,
      "return": 190,
      "rom": 191,
      "from": 192,
      "co": 193,
      "no": 194,
      "ex": 195,
      "ch": 196,
      "ass": 197,
      "set": 198,
      "ary": 199,
      "__": 200,
      "der": 201,
      "key": 202,
      "el": 203,
      "ver": 204,
      "define": 205,
      "class": 206,
      "diction": 207,
      "pe": 208,
      "dictionary": 209,
      "au": 210,
      "get": 211,
      "',": 212,
      "ct": 213,
      "lo": 214,
      "ta": 215,
      "one": 216,
      "ter": 217,
      "ort": 218,
      "ap": 219,
      "ve": 220,
      "not": 221,
      "ty": 222,
      "la": 223,
      "ase": 224,
      "lement": 225,
      "into": 226,
      "ror": 227,
      "element": 228,
      "d_": 229,
      "ption": 230,
      "imp": 231,
      "ut": 232,
      "si": 233,
      "None": 234,
      "import": 235,
      "ault": 236,
      "bo": 237,
      "xt": 238,
      "default": 239,
      "file": 240,
      "text": 241,
      "dat": 242,
      "ang": 243,
      "ur": 244,
      "ra": 245,
      "base": 246,
      "form": 247,
      "data": 248,
      "nd": 249,
      "mo": 250,
      "spa": 251,
      "lean": 252,
      "emp": 253,
      "ger": 254,
      "space": 255,
      "par": 256,
      "es": 257,
      "under": 258,
      "jang": 259,
      "jango": 260,
      "olean": 261,
      "eld": 262,
      "ad": 263,
      "ception": 264,
      "ri": 265,
      "boolean": 266,
      "inte": 267,
      "rror": 268,
      "args": 269,
      "integer": 270,
      "Error": 271,
      "by": 272,
      "true": 273,
      "res": 274,
      "inst": 275,
      "ob": 276,
      "ck": 277,
      "empty": 278,
      "obj": 279,
      "ne": 280,
      "age": 281,
      "exception": 282,
      "qu": 283,
      "instan": 284,
      "django": 285,
      "um": 286,
      "attr": 287,
      "id": 288,
      "app": 289,
      "instance": 290,
      "alse": 291,
      "ever": 292,
      "ect": 293,
      "conta": 294,
      "che": 295,
      "ht": 296,
      "every": 297,
      "path": 298,
      "time": 299,
      "do": 300,
      "ig": 301,
      "code": 302,
      "ca": 303,
      "en": 304,
      "ser": 305,
      "reate": 306,
      "ma": 307,
      "'.": 308,
      "ble": 309,
      "'%": 310,
      "cke": 311,
      "field": 312,
      "elements": 313,
      "appe": 314,
      "ple": 315,
      "odu": 316,
      "_name": 317,
      "odule": 318,
      "object": 319,
      "rep": 320,
      "bu": 321,
      "ls": 322,
      "ss": 323,
      "qual": 324,
      "ist": 325,
      "conver": 326,
      "equal": 327,
      "unpa": 328,
      "module": 329,
      "late": 330,
      "cked": 331,
      "use": 332,
      "tuple": 333,
      "append": 334,
      "he": 335,
      "ise": 336,
      "unpacked": 337,
      "ms": 338,
      "lace": 339,
      "Tr": 340,
      "ite": 341,
      "ive": 342,
      "put": 343,
      "raise": 344,
      "get_": 345,
      "ther": 346,
      "True": 347,
      "ac": 348,
      "date": 349,
      "mode": 350,
      "error": 351,
      "type": 352,
      "format": 353,
      "ul": 354,
      "mm": 355,
      "que": 356,
      "False": 357,
      "all": 358,
      "up": 359,
      "replace": 360,
      "out": 361,
      "kw": 362,
      "create": 363,
      "other": 364,
      "move": 365,
      "dec": 366,
      "ibu": 367,
      "ibute": 368,
      "fir": 369,
      "convert": 370,
      "op": 371,
      "len": 372,
      "derive": 373,
      "first": 374,
      "col": 375,
      "ght": 376,
      "pro": 377,
      "ting": 378,
      "ator": 379,
      "sion": 380,
      "try": 381,
      "char": 382,
      "contain": 383,
      "s_": 384,
      "led": 385,
      "us": 386,
      "cau": 387,
      "py": 388,
      "ol": 389,
      "new": 390,
      "mmand": 391,
      "url": 392,
      "fe": 393,
      "option": 394,
      "mess": 395,
      "message": 396,
      "cur": 397,
      "temp": 398,
      "num": 399,
      "caught": 400,
      "kwargs": 401,
      "context": 402,
      "ation": 403,
      "pre": 404,
      "values": 405,
      "andle": 406,
      "ren": 407,
      "attribute": 408,
      "app_": 409,
      "uti": 410,
      "called": 411,
      "Fi": 412,
      "inde": 413,
      "ated": 414,
      "ted": 415,
      "fig": 416,
      "iter": 417,
      "per": 418,
      "utils": 419,
      "exist": 420,
      "\",": 421,
      "ined": 422,
      "iz": 423,
      "init": 424,
      "wise": 425,
      "ip": 426,
      "po": 427,
      "six": 428,
      "template": 429,
      "are": 430,
      "dir": 431,
      "tag": 432,
      "fix": 433,
      "containing": 434,
      "index": 435,
      "ader": 436,
      "__init": 437,
      "__init__": 438,
      "handle": 439,
      "options": 440,
      "ber": 441,
      "vi": 442,
      "line": 443,
      "vel": 444,
      "gth": 445,
      "parser": 446,
      "able": 447,
      "tent": 448,
      "lab": 449,
      "otherwise": 450,
      "No": 451,
      "length": 452,
      "In": 453,
      "dict": 454,
      "setting": 455,
      "var": 456,
      "label": 457,
      "al_": 458,
      "il": 459,
      "contained": 460,
      "sa": 461,
      "content": 462,
      "config": 463,
      "mat": 464,
      "acter": 465,
      "character": 466,
      "equals": 467,
      "pec": 468,
      "Val": 469,
      "be": 470,
      "node": 471,
      "umn": 472,
      "column": 473,
      "fo": 474,
      "comp": 475,
      "ce_": 476,
      "number": 477,
      "rame": 478,
      "cache": 479,
      "false": 480,
      "ts": 481,
      "check": 482,
      "ken": 483,
      "its": 484,
      "Co": 485,
      "uni": 486,
      "has": 487,
      "settings": 488,
      "lter": 489,
      "to_": 490,
      "frame": 491,
      "ly": 492,
      "exists": 493,
      "end": 494,
      "model": 495,
      "pli": 496,
      "t_": 497,
      "wri": 498,
      "ini": 499,
      "than": 500,
      "sy": 501,
      "token": 502,
      "tes": 503,
      "add": 504,
      "rea": 505,
      "rent": 506,
      "filter": 507,
      "ed": 508,
      "attrs": 509,
      "decor": 510,
      "whe": 511,
      "conne": 512,
      "created": 513,
      "E_": 514,
      "fin": 515,
      "replaced": 516,
      "remove": 517,
      "initi": 518,
      "_type": 519,
      "hel": 520,
      "valid": 521,
      "ba": 522,
      "pon": 523,
      "ry": 524,
      "ho": 525,
      "where": 526,
      "thon": 527,
      "low": 528,
      "aliz": 529,
      "lib": 530,
      "func": 531,
      "df": 532,
      "decorator": 533,
      "force_": 534,
      "jo": 535,
      "quest": 536,
      "local": 537,
      "ning": 538,
      "connection": 539,
      "im": 540,
      "T_": 541,
      "match": 542,
      "respec": 543,
      "respecti": 544,
      "ces": 545,
      "eval": 546,
      "mig": 547,
      "is_": 548,
      "add_": 549,
      "ulti": 550,
      "ponse": 551,
      "ent": 552,
      "write": 553,
      "ml": 554,
      "secon": 555,
      "fields": 556,
      "DE": 557,
      "\".": 558,
      "cod": 559,
      "vely": 560,
      "Command": 561,
      "coding": 562,
      "ign": 563,
      "ctor": 564,
      "os": 565,
      "thing": 566,
      "spli": 567,
      "ration": 568,
      "da": 569,
      "second": 570,
      "00": 571,
      "ord": 572,
      "respectively": 573,
      "item": 574,
      "request": 575,
      "wid": 576,
      "encoding": 577,
      "tern": 578,
      "join": 579,
      "lang": 580,
      "ture": 581,
      "gex": 582,
      "AT": 583,
      "Ex": 584,
      "dataframe": 585,
      "Re": 586,
      "star": 587,
      "version": 588,
      "tra": 589,
      "max": 590,
      "Field": 591,
      "my": 592,
      "wh": 593,
      "nothing": 594,
      "evalu": 595,
      "table": 596,
      "output": 597,
      "handler": 598,
      "help": 599,
      "ray": 600,
      "error_": 601,
      "red": 602,
      "Con": 603,
      "int": 604,
      "python": 605,
      "'-": 606,
      "ile": 607,
      "msg": 608,
      "Base": 609,
      "oi": 610,
      "array": 611,
      "pat": 612,
      "ream": 613,
      "row": 614,
      "cape": 615,
      "lete": 616,
      "evaluate": 617,
      "fiel": 618,
      "field_": 619,
      "\\\\": 620,
      "so": 621,
      "gettext": 622,
      "items": 623,
      "safe": 624,
      "choi": 625,
      "using": 626,
      "unicode": 627,
      "_value": 628,
      "migration": 629,
      "ec": 630,
      "ans": 631,
      "arning": 632,
      "does": 633,
      "tp": 634,
      "dire": 635,
      "ME": 636,
      "OR": 637,
      "ok": 638,
      "Value": 639,
      "tw": 640,
      "keys": 641,
      "parse": 642,
      "word": 643,
      "ze": 644,
      "stream": 645,
      "strings": 646,
      "regex": 647,
      "command": 648,
      "bytes": 649,
      "app_config": 650,
      "read": 651,
      "split": 652,
      "cate": 653,
      "ea": 654,
      "exp": 655,
      "_string": 656,
      "greate": 657,
      "current": 658,
      "AL": 659,
      "core": 660,
      "response": 661,
      "errors": 662,
      "reg": 663,
      "greater": 664,
      "datetime": 665,
      "IN": 666,
      "seri": 667,
      "escape": 668,
      "new_": 669,
      "et": 670,
      "separ": 671,
      "loop": 672,
      "ctory": 673,
      "widget": 674,
      "each": 675,
      "sys": 676,
      "back": 677,
      "oc": 678,
      "ext": 679,
      "pattern": 680,
      "Temp": 681,
      "db": 682,
      "assign": 683,
      "ON": 684,
      "cre": 685,
      "clu": 686,
      "nodelist": 687,
      "filename": 688,
      "html": 689,
      "render": 690,
      "SE": 691,
      "files": 692,
      "k_": 693,
      "last": 694,
      "prefix": 695,
      "ner": 696,
      "size": 697,
      "para": 698,
      "exte": 699,
      "_list": 700,
      "uage": 701,
      "zy": 702,
      "delete": 703,
      "named": 704,
      "mail": 705,
      "language": 706,
      "iable": 707,
      "unt": 708,
      "und": 709,
      "use_": 710,
      "directory": 711,
      "bits": 712,
      "tive": 713,
      "initial": 714,
      "input": 715,
      "conf": 716,
      "man": 717,
      "force_text": 718,
      "serializ": 719,
      "header": 720,
      "ange": 721,
      "UL": 722,
      "meta": 723,
      "log": 724,
      "sort": 725,
      "Node": 726,
      "Django": 727,
      "Template": 728,
      "zone": 729,
      "trans": 730,
      "10": 731,
      "TE": 732,
      "ject": 733,
      "count": 734,
      "lock": 735,
      "resol": 736,
      "De": 737,
      "info": 738,
      "sto": 739,
      "exec": 740,
      "messages": 741,
      "compile": 742,
      "_re": 743,
      "id_": 744,
      "ValueError": 745,
      "raw": 746,
      "Imp": 747,
      "cation": 748,
      "find": 749,
      "AR": 750,
      "ies": 751,
      "mb": 752,
      "mar": 753,
      "(?": 754,
      "extra": 755,
      "min": 756,
      "pr": 757,
      "sty": 758,
      "evaluates": 759,
      "multi": 760,
      "sc": 761,
      "clude": 762,
      "FA": 763,
      "atu": 764,
      "that": 765,
      "copy": 766,
      "'--": 767,
      "ict": 768,
      "lists": 769,
      "models": 770,
      "style": 771,
      "den": 772,
      "File": 773,
      "two": 774,
      "params": 775,
      "_key": 776,
      "sq": 777,
      "ir": 778,
      "this": 779,
      "men": 780,
      "database": 781,
      "timezone": 782,
      "occur": 783,
      "_path": 784,
      "load": 785,
      "lazy": 786,
      "characters": 787,
      "_dir": 788,
      "gro": 789,
      "clo": 790,
      "app_label": 791,
      "Not": 792,
      "mon": 793,
      "wr": 794,
      "pand": 795,
      "pen": 796,
      "loader": 797,
      "doesnt": 798,
      "separated": 799,
      "als": 800,
      "sql": 801,
      "pl": 802,
      "main": 803,
      "decim": 804,
      "locale": 805,
      "pandas": 806,
      "ute": 807,
      "ST": 808,
      "_data": 809,
      "DEFA": 810,
      "DEFAUL": 811,
      "fa": 812,
      "incre": 813,
      "order": 814,
      "cess": 815,
      "ity": 816,
      "DEFAULT_": 817,
      "Dict": 818,
      "ax": 819,
      "case": 820,
      "ous": 821,
      "variable": 822,
      "regist": 823,
      "ha": 824,
      "pk": 825,
      "scri": 826,
      "ype": 827,
      "sig": 828,
      "make": 829,
      "converted": 830,
      "apps": 831,
      "Lo": 832,
      "RE": 833,
      "http": 834,
      "proper": 835,
      "ab": 836,
      "re_": 837,
      "verse": 838,
      "_cache": 839,
      "_meta": 840,
      "renamed": 841,
      "occurren": 842,
      "group": 843,
      "sor": 844,
      "only": 845,
      "orm": 846,
      "ded": 847,
      "qui": 848,
      "Un": 849,
      "_module": 850,
      "ie": 851,
      "sum": 852,
      "com": 853,
      "day": 854,
      "choices": 855,
      "register": 856,
      "]`": 857,
      "ationError": 858,
      "state": 859,
      "dig": 860,
      "max_": 861,
      "Multi": 862,
      "dle": 863,
      "ware": 864,
      "liter": 865,
      "Input": 866,
      "close": 867,
      "`[": 868,
      "mu": 869,
      "lation": 870,
      "property": 871,
      "_lazy": 872,
      "clean": 873,
      "sing": 874,
      "iddle": 875,
      "tuples": 876,
      "Exception": 877,
      "CO": 878,
      "ime": 879,
      "st_": 880,
      "ries": 881,
      "ump": 882,
      "exclude": 883,
      "encode": 884,
      "TI": 885,
      "Type": 886,
      "ear": 887,
      "ot": 888,
      "run": 889,
      "entry": 890,
      "start": 891,
      "white": 892,
      "unicode_": 893,
      "stdo": 894,
      "requi": 895,
      "callback": 896,
      "lamb": 897,
      "entries": 898,
      "stdout": 899,
      "lambda": 900,
      "Mo": 901,
      "change": 902,
      "loa": 903,
      "increment": 904,
      "ER": 905,
      "Get": 906,
      "pt": 907,
      "warning": 908,
      "verbo": 909,
      "add_argument": 910,
      "error_messages": 911,
      "middle": 912,
      "fixture": 913,
      "contents": 914,
      "spaces": 915,
      "resolve": 916,
      "month": 917,
      "()": 918,
      "Par": 919,
      "ew": 920,
      "ed_": 921,
      "sity": 922,
      "reverse": 923,
      "default_": 924,
      "query": 925,
      "ic": 926,
      "ick": 927,
      "results": 928,
      "view": 929,
      "Valid": 930,
      "serializer": 931,
      "':": 932,
      "pp": 933,
      "chun": 934,
      "process": 935,
      "verbosity": 936,
      "ValidationError": 937,
      "%(": 938,
      "Element": 939,
      "gener": 940,
      "__name": 941,
      "CommandError": 942,
      "LO": 943,
      "Warning": 944,
      "ses": 945,
      "level": 946,
      "block": 947,
      "year": 948,
      "ate_": 949,
      "forms": 950,
      "previ": 951,
      "sign": 952,
      ".\",": 953,
      "EN": 954,
      "_format": 955,
      "cle": 956,
      "em": 957,
      "inter": 958,
      "lim": 959,
      "formated": 960,
      "newline": 961,
      "previous": 962,
      "IA": 963,
      "Sy": 964,
      "tz": 965,
      "timeout": 966,
      "lower": 967,
      "kip": 968,
      "open": 969,
      "rel": 970,
      "ress": 971,
      "tags": 972,
      "__name__": 973,
      "_check": 974,
      "integers": 975,
      "urllib": 976,
      "print": 977,
      "Ca": 978,
      "TA": 979,
      "fu": 980,
      "allow": 981,
      "lect": 982,
      "update": 983,
      "current_": 984,
      "Cache": 985,
      "can": 986,
      "flo": 987,
      "resulting": 988,
      "parent": 989,
      "manage": 990,
      "FI": 991,
      "_func": 992,
      "skip": 993,
      "Remove": 994,
      "mented": 995,
      "'<": 996,
      "En": 997,
      "Ke": 998,
      "_text": 999,
      "js": 1000,
      "sour": 1001,
      "20": 1002,
      "Res": 1003,
      "_dict": 1004,
      "ull": 1005,
      "Conver": 1006,
      "words": 1007,
      "decimal": 1008,
      ".'.": 1009,
      "_code": 1010,
      "_info": 1011,
      "fl": 1012,
      "cls": 1013,
      "now": 1014,
      "save": 1015,
      "Key": 1016,
      "del": 1017,
      "idden": 1018,
      "translation": 1019,
      "future": 1020,
      "root": 1021,
      "clas": 1022,
      "__future": 1023,
      "quo": 1024,
      "opts": 1025,
      "atur": 1026,
      "__future__": 1027,
      "MI": 1028,
      "_str": 1029,
      "_class": 1030,
      "cs": 1031,
      "natur": 1032,
      "ntax": 1033,
      "script": 1034,
      "warnings": 1035,
      "classes": 1036,
      "_context": 1037,
      "idat": 1038,
      "ll": 1039,
      "text_type": 1040,
      "(?:": 1041,
      "digits": 1042,
      "literals": 1043,
      "AN": 1044,
      "_html": 1045,
      "afe": 1046,
      "user": 1047,
      "mer": 1048,
      "management": 1049,
      "idator": 1050,
      "'\\": 1051,
      "At": 1052,
      "_iter": 1053,
      "without": 1054,
      "cook": 1055,
      "ression": 1056,
      "active": 1057,
      "ular": 1058,
      "iteration": 1059,
      "perform": 1060,
      "migrations": 1061,
      "\"%": 1062,
      "12": 1063,
      "19": 1064,
      "ron": 1065,
      "sm": 1066,
      "tribute": 1067,
      "oper": 1068,
      "handle_": 1069,
      "unique": 1070,
      "parse_": 1071,
      "have": 1072,
      "unicode_literals": 1073,
      "middleware": 1074,
      "Syntax": 1075,
      "sta": 1076,
      "sent": 1077,
      "domain": 1078,
      "old_": 1079,
      "initial_": 1080,
      "extend": 1081,
      "must": 1082,
      "Attribute": 1083,
      "SyntaxError": 1084,
      ".'": 1085,
      "UT": 1086,
      "fset": 1087,
      "we": 1088,
      "ters": 1089,
      "utf": 1090,
      "part": 1091,
      "umpy": 1092,
      "_get_": 1093,
      "_to_": 1094,
      "action": 1095,
      "dis": 1096,
      "ield": 1097,
      "yield": 1098,
      "for_": 1099,
      "valid_": 1100,
      "auto": 1101,
      "TemplateSyntaxError": 1102,
      "lowercase": 1103,
      "source": 1104,
      "ES": 1105,
      "over": 1106,
      "ink": 1107,
      "on_": 1108,
      "test": 1109,
      "cursor": 1110,
      "ipv": 1111,
      "gettext_lazy": 1112,
      "okup": 1113,
      "TypeError": 1114,
      "Safe": 1115,
      "dIn": 1116,
      "orig": 1117,
      "decode": 1118,
      "lot": 1119,
      "mark_": 1120,
      "Model": 1121,
      "Parser": 1122,
      "64": 1123,
      "Date": 1124,
      "hex": 1125,
      "ou": 1126,
      "any": 1127,
      "dest": 1128,
      "columns": 1129,
      "has_": 1130,
      "ING": 1131,
      "chunk": 1132,
      "float": 1133,
      "Time": 1134,
      "bin": 1135,
      "email": 1136,
      "fol": 1137,
      "next": 1138,
      "numpy": 1139,
      "ted_": 1140,
      "subject": 1141,
      "empty_": 1142,
      "expression": 1143,
      "store": 1144,
      "plur": 1145,
      "Dat": 1146,
      "plot": 1147,
      "exceptions": 1148,
      "template_": 1149,
      "LOC": 1150,
      "RemovedIn": 1151,
      "Data": 1152,
      "ff": 1153,
      "tem": 1154,
      "strip": 1155,
      "vide": 1156,
      "handlers": 1157,
      ".\".": 1158,
      "D_": 1159,
      "les": 1160,
      "ize": 1161,
      "rows": 1162,
      "PY": 1163,
      "gin": 1164,
      "ing_": 1165,
      "trun": 1166,
      "ckend": 1167,
      "required": 1168,
      "clear": 1169,
      "RemovedInDjango": 1170,
      "'/": 1171,
      "bit": 1172,
      "cu": 1173,
      "ep": 1174,
      "our": 1175,
      "rand": 1176,
      "alle": 1177,
      "stru": 1178,
      "nding": 1179,
      "parts": 1180,
      "color": 1181,
      "urlconf": 1182,
      "occurrence": 1183,
      "load_": 1184,
      "Response": 1185,
      "CH": 1186,
      "List": 1187,
      "gi": 1188,
      "om": 1189,
      "pri": 1190,
      "exc": 1191,
      "quen": 1192,
      "connections": 1193,
      "natural_": 1194,
      "mark_safe": 1195,
      "-%": 1196,
      "Form": 1197,
      "Ht": 1198,
      "LE": 1199,
      "_AL": 1200,
      "ative": 1201,
      "dt": 1202,
      "bound": 1203,
      "objects": 1204,
      "host": 1205,
      "queryset": 1206,
      "quote": 1207,
      "lesser": 1208,
      "Http": 1209,
      "_f": 1210,
      "offset": 1211,
      "based": 1212,
      "moves": 1213,
      "posi": 1214,
      "viron": 1215,
      "is_safe": 1216,
      "choice": 1217,
      "_count": 1218,
      "cc": 1219,
      "sen": 1220,
      "asc": 1221,
      "auth": 1222,
      "environ": 1223,
      "charset": 1224,
      "field_name": 1225,
      "caten": 1226,
      "statement": 1227,
      "HT": 1228,
      "OK": 1229,
      "Text": 1230,
      "UN": 1231,
      "_po": 1232,
      "mod": 1233,
      "depre": 1234,
      "namespace": 1235,
      "from_": 1236,
      "iterable": 1237,
      "IAS": 1238,
      "position": 1239,
      "'\\\\": 1240,
      ".\"": 1241,
      "Str": 1242,
      "UR": 1243,
      "rary": 1244,
      "war": 1245,
      "arch": 1246,
      "pair": 1247,
      "comm": 1248,
      "ortError": 1249,
      "modules": 1250,
      "contains": 1251,
      "serializers": 1252,
      "smalle": 1253,
      "tem__": 1254,
      "random": 1255,
      "Do": 1256,
      "Se": 1257,
      "ffix": 1258,
      "link": 1259,
      "place": 1260,
      "resent": 1261,
      "suffix": 1262,
      "dia": 1263,
      "concaten": 1264,
      "app_name": 1265,
      "address": 1266,
      "nodelist_": 1267,
      "headers": 1268,
      "logger": 1269,
      "truncate": 1270,
      "'\"": 1271,
      "Che": 1272,
      "supp": 1273,
      "list_": 1274,
      "set_": 1275,
      "file_": 1276,
      "neg": 1277,
      "create_": 1278,
      "content_type": 1279,
      "to_python": 1280,
      "ImportError": 1281,
      "sql_": 1282,
      "origin": 1283,
      "Check": 1284,
      "Cho": 1285,
      "IO": 1286,
      "Py": 1287,
      "Ser": 1288,
      "ice": 1289,
      "lass": 1290,
      "aries": 1291,
      "class__": 1292,
      "lob": 1293,
      "lookup": 1294,
      "both": 1295,
      "defaulting": 1296,
      "sert": 1297,
      "project": 1298,
      "ends": 1299,
      "ATE_": 1300,
      "while": 1301,
      "BaseCommand": 1302,
      "exten": 1303,
      "19Warning": 1304,
      "AttributeError": 1305,
      "autoescape": 1306,
      "plural": 1307,
      "RemovedInDjango19Warning": 1308,
      "Choice": 1309,
      ":%": 1310,
      "FOR": 1311,
      "LE_": 1312,
      "Qu": 1313,
      "RO": 1314,
      "St": 1315,
      "US": 1316,
      "brea": 1317,
      "een": 1318,
      "ii": 1319,
      "sol": 1320,
      "take": 1321,
      "repr": 1322,
      "dirs": 1323,
      "betw": 1324,
      "force_str": 1325,
      "multiple": 1326,
      "ascii": 1327,
      "break": 1328,
      "between": 1329,
      "Handle": 1330,
      "txt": 1331,
      "zer": 1332,
      "thir": 1333,
      "invalid": 1334,
      "page": 1335,
      "returns": 1336,
      "__class__": 1337,
      "imple": 1338,
      "apper": 1339,
      "addQu": 1340,
      "ickElement": 1341,
      "Handler": 1342,
      "addQuickElement": 1343,
      "_fields": 1344,
      "glob": 1345,
      "ied": 1346,
      "port": 1347,
      "same": 1348,
      "ub": 1349,
      "ution": 1350,
      "igno": 1351,
      "represent": 1352,
      "validate_": 1353,
      "migr": 1354,
      "help_text": 1355,
      "expi": 1356,
      "logg": 1357,
      "occurrences": 1358,
      "comment": 1359,
      "json": 1360,
      "KeyError": 1361,
      "merge": 1362,
      "follow": 1363,
      "HttpResponse": 1364,
      "Does": 1365,
      "third": 1366,
      "('": 1367,
      "NO": 1368,
      "Up": 1369,
      "_c": 1370,
      "_wr": 1371,
      "non": 1372,
      "xy": 1373,
      "invalid_": 1374,
      "dictionaries": 1375,
      "auto_": 1376,
      "defaults": 1377,
      "file_name": 1378,
      "cache_": 1379,
      "Exist": 1380,
      "starts": 1381,
      "execute": 1382,
      "NotExist": 1383,
      "fail": 1384,
      "absol": 1385,
      "DoesNotExist": 1386,
      "absolute": 1387,
      "norm": 1388,
      "pla": 1389,
      "smar": 1390,
      "tle": 1391,
      "targ": 1392,
      "ug": 1393,
      "thread": 1394,
      "titem__": 1395,
      "title": 1396,
      "top": 1397,
      "validator": 1398,
      "dow": 1399,
      "server": 1400,
      "seconds": 1401,
      "_dirs": 1402,
      "ANG": 1403,
      "author": 1404,
      "Python": 1405,
      "(%": 1406,
      "//": 1407,
      "CON": 1408,
      "Email": 1409,
      "_errors": 1410,
      "av": 1411,
      "xml": 1412,
      "statu": 1413,
      "sequen": 1414,
      "delt": 1415,
      "lemented": 1416,
      "as_": 1417,
      "chil": 1418,
      "appen": 1419,
      "uld": 1420,
      "sions": 1421,
      "pos": 1422,
      "_types": 1423,
      "Implemented": 1424,
      "extract": 1425,
      "NotImplemented": 1426,
      "whitespaces": 1427,
      "limit": 1428,
      "LOCK": 1429,
      "smaller": 1430,
      "smart_": 1431,
      "delta": 1432,
      "NotImplementedError": 1433,
      ".%": 1434,
      "11": 1435,
      "DB": 1436,
      "ET": 1437,
      "Me": 1438,
      "The": 1439,
      "`,": 1440,
      "mt": 1441,
      "mis": 1442,
      "cending": 1443,
      "feren": 1444,
      "Context": 1445,
      "widgets": 1446,
      "urllib_": 1447,
      "String": 1448,
      "URL": 1449,
      "warn": 1450,
      "FORM": 1451,
      "appended": 1452,
      "),": 1453,
      "By": 1454,
      "MP": 1455,
      "m2": 1456,
      "stem": 1457,
      "div": 1458,
      "addr": 1459,
      "cleaned_": 1460,
      "singular": 1461,
      "tzinfo": 1462,
      "Convert": 1463,
      ")'": 1464,
      "Name": 1465,
      "dup": 1466,
      "gs": 1467,
      "ich": 1468,
      "spec": 1469,
      "zip": 1470,
      "select": 1471,
      "lent": 1472,
      "atta": 1473,
      "location": 1474,
      "silent": 1475,
      "attributes": 1476,
      "filters": 1477,
      "which": 1478,
      "resolver": 1479,
      "DEFAULT_DB": 1480,
      "can_": 1481,
      "_ALIAS": 1482,
      "DEFAULT_DB_ALIAS": 1483,
      "AG": 1484,
      "DI": 1485,
      "G_": 1486,
      "Or": 1487,
      "Var": 1488,
      "_move": 1489,
      "sho": 1490,
      "vate": 1491,
      "sep": 1492,
      "dition": 1493,
      "box": 1494,
      "byte": 1495,
      "prog": 1496,
      "indexes": 1497,
      "Config": 1498,
      "some": 1499,
      "SET": 1500,
      "execution": 1501,
      "csv": 1502,
      "m2m": 1503,
      "attach": 1504,
      "']`": 1505,
      "://": 1506,
      "QL": 1507,
      "_args": 1508,
      "_message": 1509,
      "_filter": 1510,
      "fp": 1511,
      "range": 1512,
      "dered": 1513,
      "sure": 1514,
      "'.'": 1515,
      "template_name": 1516,
      "fore": 1517,
      "add_arguments": 1518,
      "store_": 1519,
      "binary": 1520,
      "zero": 1521,
      "cleaned_data": 1522,
      "Module": 1523,
      "SQL": 1524,
      "TH": 1525,
      "TP": 1526,
      "_files": 1527,
      "fk": 1528,
      "ib": 1529,
      "pub": 1530,
      "isi": 1531,
      "tran": 1532,
      "ary_": 1533,
      "foo": 1534,
      "find_": 1535,
      "MEN": 1536,
      "cookie": 1537,
      "DateTime": 1538,
      "ffer": 1539,
      "logging": 1540,
      "play": 1541,
      "dupli": 1542,
      "IP": 1543,
      "Mig": 1544,
      "S_": 1545,
      "ati": 1546,
      "pick": 1547,
      "sal": 1548,
      "ured": 1549,
      "ww": 1550,
      "ref": 1551,
      "utor": 1552,
      "appli": 1553,
      "get_language": 1554,
      "acti": 1555,
      "ip_str": 1556,
      "Invalid": 1557,
      "numbers": 1558,
      "validate": 1559,
      "width": 1560,
      "Uni": 1561,
      "`['": 1562,
      "interactive": 1563,
      "_checks": 1564,
      "flat": 1565,
      "concatenate": 1566,
      "following": 1567,
      "validators": 1568,
      "Migration": 1569,
      "For": 1570,
      "ML": 1571,
      "ROR": 1572,
      "[^": 1573,
      "af": 1574,
      "gr": 1575,
      "lst": 1576,
      "l10": 1577,
      "sche": 1578,
      "your": 1579,
      "ard": 1580,
      "orted": 1581,
      "let": 1582,
      "ating": 1583,
      "constru": 1584,
      "apped": 1585,
      "bug": 1586,
      "buffer": 1587,
      "dicts": 1588,
      "force_bytes": 1589,
      "Regex": 1590,
      "table_name": 1591,
      "use_l10": 1592,
      "ERROR": 1593,
      "FIE": 1594,
      "ChoiceField": 1595,
      "representation": 1596,
      "child": 1597,
      "100": 1598,
      "MA": 1599,
      "Set": 1600,
      "cord": 1601,
      "mic": 1602,
      "pass": 1603,
      "mem": 1604,
      "delim": 1605,
      "decre": 1606,
      "ush": 1607,
      "check_": 1608,
      "final_": 1609,
      "alize": 1610,
      "split_": 1611,
      "app_configs": 1612,
      "stamp": 1613,
      "ipv6": 1614,
      "boundary": 1615,
      "use_l10n": 1616,
      "04": 1617,
      "App": 1618,
      "Iter": 1619,
      "KE": 1620,
      "Simple": 1621,
      "TY": 1622,
      "dd": 1623,
      "ek": 1624,
      "hidden": 1625,
      "mime": 1626,
      "})": 1627,
      "memo": 1628,
      "stder": 1629,
      "str__": 1630,
      "dimen": 1631,
      "condition": 1632,
      "__str__": 1633,
      "provide": 1634,
      "feed": 1635,
      "plit": 1636,
      "system": 1637,
      "statements": 1638,
      "Select": 1639,
      "LOCK_": 1640,
      "Variable": 1641,
      "stderr": 1642,
      "--": 1643,
      ">'": 1644,
      "AB": 1645,
      "Create": 1646,
      "Wid": 1647,
      "]*": 1648,
      "_tag": 1649,
      "ager": 1650,
      "rc": 1651,
      "sh": 1652,
      "ind": 1653,
      "ints": 1654,
      "too": 1655,
      "string_types": 1656,
      "no_": 1657,
      "__repr": 1658,
      "compati": 1659,
      "hash": 1660,
      "lang_code": 1661,
      "tract": 1662,
      "META": 1663,
      "make_": 1664,
      "TAG_": 1665,
      "display": 1666,
      "PY3": 1667,
      "places": 1668,
      "Bytes": 1669,
      "duplicate": 1670,
      "Unicode": 1671,
      "scheme": 1672,
      "__repr__": 1673,
      ".',": 1674,
      "CA": 1675,
      "GI": 1676,
      "HE": 1677,
      "LANG": 1678,
      "RA": 1679,
      "To": 1680,
      "_prefix": 1681,
      "ding": 1682,
      "sli": 1683,
      "uble": 1684,
      "ws": 1685,
      "who": 1686,
      "media": 1687,
      "callable": 1688,
      "mple": 1689,
      "more": 1690,
      "instanti": 1691,
      "double": 1692,
      "format_html": 1693,
      "all_": 1694,
      "template_dirs": 1695,
      "dirname": 1696,
      "lines": 1697,
      "labels": 1698,
      "backend": 1699,
      "MultiValue": 1700,
      "Seri": 1701,
      "auto_id": 1702,
      "specif": 1703,
      "after": 1704,
      "KEY": 1705,
      "</": 1706,
      ">',": 1707,
      "_function": 1708,
      "_instance": 1709,
      "_model": 1710,
      "_CO": 1711,
      "cated": 1712,
      "dst": 1713,
      "ead": 1714,
      "pop": 1715,
      "wor": 1716,
      "stat": 1717,
      "ree": 1718,
      "tif": 1719,
      "dere": 1720,
      "roper": 1721,
      "uri": 1722,
      "instead": 1723,
      "cache_key": 1724,
      "lyConfig": 1725,
      "hour": 1726,
      "ATE": 1727,
      "Def": 1728,
      "Improper": 1729,
      "extra_": 1730,
      "decimal_": 1731,
      "changed": 1732,
      "reversed": 1733,
      "generator": 1734,
      "cookies": 1735,
      "USE_": 1736,
      "smart_text": 1737,
      "Widget": 1738,
      "Serializ": 1739,
      "lyConfigured": 1740,
      "ImproperlyConfigured": 1741,
      "+)": 1742,
      "Ch": 1743,
      "La": 1744,
      "SI": 1745,
      "Th": 1746,
      "TOK": 1747,
      "_view": 1748,
      "stan": 1749,
      "lea": 1750,
      "lef": 1751,
      "trim": 1752,
      "utc": 1753,
      "'%(": 1754,
      "types": 1755,
      "s_to_": 1756,
      "begin": 1757,
      "found": 1758,
      "ATOR": 1759,
      "use_natural_": 1760,
      "manager": 1761,
      "make_key": 1762,
      "Loader": 1763,
      "Multiple": 1764,
      "prim": 1765,
      "deprecation": 1766,
      "pairs": 1767,
      "salt": 1768,
      "wsgi": 1769,
      "'^": 1770,
      "UAG": 1771,
      "_file": 1772,
      "_length": 1773,
      "_token": 1774,
      "_command": 1775,
      "_silent": 1776,
      "hexte": 1777,
      "klass": 1778,
      "ply": 1779,
      "rf": 1780,
      "shel": 1781,
      "tt": 1782,
      "ugettext": 1783,
      "deep": 1784,
      "att": 1785,
      "pack": 1786,
      "ext_": 1787,
      "vars": 1788,
      "writer": 1789,
      "library": 1790,
      "error_class": 1791,
      "executor": 1792,
      "single": 1793,
      "newlines": 1794,
      "MIME": 1795,
      "ipv4": 1796,
      "expires": 1797,
      "application": 1798,
      "LANGUAG": 1799,
      "Serializer": 1800,
      "TOKEN": 1801,
      "_silently": 1802,
      ")`": 1803,
      "2_": 1804,
      ">\\": 1805,
      "Bo": 1806,
      "MO": 1807,
      "OUT": 1808,
      "Que": 1809,
      "_match": 1810,
      "_address": 1811,
      "ai": 1812,
      "know": 1813,
      "ong": 1814,
      "search": 1815,
      "argv": 1816,
      "stringfilter": 1817,
      "subclasses": 1818,
      "round": 1819,
      "__ge": 1820,
      "__iter": 1821,
      "side": 1822,
      "base64": 1823,
      "times": 1824,
      "proxy": 1825,
      "pot": 1826,
      "configu": 1827,
      "initializ": 1828,
      "imal": 1829,
      "msgs": 1830,
      "patterns": 1831,
      "multiply": 1832,
      "whitespace": 1833,
      "generate": 1834,
      "save_": 1835,
      "HTTP": 1836,
      "migrate": 1837,
      "instantiate": 1838,
      "deepcopy": 1839,
      "__iter__": 1840,
      "'(": 1841,
      "..": 1842,
      "99": 1843,
      "Ar": 1844,
      "Dec": 1845,
      "OS": 1846,
      "_de": 1847,
      "_url": 1848,
      "none": 1849,
      "ory": 1850,
      "will": 1851,
      "ask": 1852,
      "value_": 1853,
      "ches": 1854,
      "import_module": 1855,
      "right": 1856,
      "doc": 1857,
      "'.',": 1858,
      "used": 1859,
      "ally": 1860,
      "num_": 1861,
      "saction": 1862,
      "matri": 1863,
      "start_": 1864,
      "python_": 1865,
      "MEOUT": 1866,
      "commands": 1867,
      "new_method": 1868,
      "TIMEOUT": 1869,
      "current_timezone": 1870,
      "Enter": 1871,
      "Converting": 1872,
      "exc_info": 1873,
      "commit": 1874,
      "fail_silently": 1875,
      "attachment": 1876,
      "transaction": 1877,
      "password": 1878,
      "slice": 1879,
      "MultiValueDict": 1880,
      "\"'": 1881,
      "34": 1882,
      "='": 1883,
      "Split": 1884,
      "fla": 1885,
      "you": 1886,
      "inner": 1887,
      "sele": 1888,
      "ten": 1889,
      "lease": 1890,
      "andard": 1891,
      "subtract": 1892,
      "exit": 1893,
      "lable": 1894,
      "enti": 1895,
      "iteritems": 1896,
      "image": 1897,
      "request_": 1898,
      "regular": 1899,
      "db_": 1900,
      "stom": 1901,
      "app_labels": 1902,
      "sorted": 1903,
      "threading": 1904,
      "CONTE": 1905,
      "store_true": 1906,
      "FIEL": 1907,
      "tools": 1908,
      "package": 1909,
      ".\\": 1910,
      "2d": 1911,
      "60": 1912,
      "AD": 1913,
      "Ba": 1914,
      "EX": 1915,
      "You": 1916,
      "_id": 1917,
      "_callback": 1918,
      "_suffix": 1919,
      "but": 1920,
      "cor": 1921,
      "cap": 1922,
      "ds": 1923,
      "full": 1924,
      "iden": 1925,
      "spe": 1926,
      "squ": 1927,
      "uter": 1928,
      "insert": 1929,
      "them": 1930,
      "another": 1931,
      "sted": 1932,
      "ret": 1933,
      "errn": 1934,
      "gest": 1935,
      "constan": 1936,
      "comb": 1937,
      "keyword": 1938,
      "getter": 1939,
      "apping": 1940,
      "indent": 1941,
      "point": 1942,
      "Validator": 1943,
      "checks": 1944,
      "stream_": 1945,
      "escaped": 1946,
      "compile_filter": 1947,
      "Move": 1948,
      "allow_lazy": 1949,
      "stack": 1950,
      "week": 1951,
      "natural_key": 1952,
      "divisi": 1953,
      "pickle": 1954,
      "activate": 1955,
      "compatible": 1956,
      "beginning": 1957,
      "ailable": 1958,
      "known": 1959,
      "Decimal": 1960,
      "matrix": 1961,
      "selec": 1962,
      "Backend": 1963,
      "errno": 1964,
      "'*": 1965,
      ")\",": 1966,
      "01": 1967,
      "18": 1968,
      "CT": 1969,
      "Hidden": 1970,
      "Lib": 1971,
      "PAT": 1972,
      "VAR": 1973,
      "VER": 1974,
      "_val": 1975,
      "_line": 1976,
      "ag": 1977,
      "bar": 1978,
      "bod": 1979,
      "est": 1980,
      "map": 1981,
      "ph": 1982,
      "wer": 1983,
      "include": 1984,
      "issu": 1985,
      "ash": 1986,
      "divide": 1987,
      "__all": 1988,
      "ess": 1989,
      "apply": 1990,
      "timestamp": 1991,
      "caches": 1992,
      "unpack": 1993,
      "colon_": 1994,
      "dirpath": 1995,
      "localize": 1996,
      "matches": 1997,
      "ON_": 1998,
      "language_code": 1999,
      "TEMP": 2000,
      "DEFAULT_TIMEOUT": 2001,
      "requires": 2002,
      "resolved_": 2003,
      "operation": 2004,
      "custom": 2005,
      "extensions": 2006,
      "_wrapped": 2007,
      "targe": 2008,
      "progra": 2009,
      "MENT_": 2010,
      "derer": 2011,
      "Default": 2012,
      "left": 2013,
      "__getitem__": 2014,
      "body": 2015,
      "__all__": 2016,
      "\"\"": 2017,
      "AME": 2018,
      "FF": 2019,
      "IL": 2020,
      "Mess": 2021,
      "NAME": 2022,
      "QU": 2023,
      "_encoding": 2024,
      "cy": 2025,
      "give": 2026,
      "io": 2027,
      "pt_": 2028,
      "ru": 2029,
      "ving": 2030,
      "rest": 2031,
      "record": 2032,
      "altern": 2033,
      "tup": 2034,
      "names": 2035,
      "clos": 2036,
      "d_attributes": 2037,
      "import_string": 2038,
      "file_path": 2039,
      "form_count": 2040,
      "parame": 2041,
      "end_": 2042,
      "module_": 2043,
      "new_name": 2044,
      "joined": 2045,
      "starting": 2046,
      "migration_name": 2047,
      "separator": 2048,
      "STAR": 2049,
      "unicode_compatible": 2050,
      "loaded": 2051,
      "chunk_": 2052,
      "process_": 2053,
      "_formats": 2054,
      "HTML": 2055,
      "negative": 2056,
      "down": 2057,
      "available": 2058,
      "sequence": 2059,
      "final_attrs": 2060,
      "whose": 2061,
      "shell": 2062,
      "2_unicode_compatible": 2063,
      "Query": 2064,
      "python_2_unicode_compatible": 2065,
      "flags": 2066,
      "identi": 2067,
      "stream_or": 2068,
      "Message": 2069,
      "given": 2070,
      "13": 2071,
      "16": 2072,
      "BU": 2073,
      "PAR": 2074,
      "Sort": 2075,
      "Use": 2076,
      "_options": 2077,
      "_trans": 2078,
      "_part": 2079,
      "bi": 2080,
      "iri": 2081,
      "ium": 2082,
      "ns": 2083,
      "next_": 2084,
      "umer": 2085,
      "remain": 2086,
      "des": 2087,
      "tot": 2088,
      "ascending": 2089,
      "notes": 2090,
      "aph": 2091,
      "filepath": 2092,
      "dot": 2093,
      "enumer": 2094,
      "buil": 2095,
      "lenium": 2096,
      "message_context": 2097,
      "Request": 2098,
      "field_value": 2099,
      "choice_": 2100,
      "comma": 2101,
      "digit": 2102,
      "literal": 2103,
      "':',": 2104,
      "FILE_": 2105,
      "empty_values": 2106,
      "plotlib": 2107,
      "FormSet": 2108,
      "supported": 2109,
      "Upload": 2110,
      "status": 2111,
      "graph": 2112,
      "CACH": 2113,
      "Lazy": 2114,
      "Moved": 2115,
      "START": 2116,
      "'\",": 2117,
      "=\"": 2118,
      "AS": 2119,
      "Add": 2120,
      "PE": 2121,
      "Pro": 2122,
      "TO": 2123,
      "_B": 2124,
      "_num": 2125,
      "_headers": 2126,
      "_proxy": 2127,
      "ample": 2128,
      "pk_": 2129,
      "qs": 2130,
      "scape": 2131,
      "src": 2132,
      "win": 2133,
      "til": 2134,
      "tim": 2135,
      "descri": 2136,
      "less": 2137,
      "until": 2138,
      "stry": 2139,
      "digest": 2140,
      "assoc": 2141,
      "','": 2142,
      "term": 2143,
      "filed": 2144,
      "codeError": 2145,
      "existing": 2146,
      "pointer": 2147,
      "complete": 2148,
      "filenames": 2149,
      "SEPAR": 2150,
      "param": 2151,
      "TER": 2152,
      "produ": 2153,
      "encoded": 2154,
      "signals": 2155,
      "allow_": 2156,
      "operator": 2157,
      "PY2": 2158,
      "deprecated": 2159,
      "lookup_view": 2160,
      "FORMAT": 2161,
      "delimiter": 2162,
      "dimension": 2163,
      "initialization": 2164,
      "Library": 2165,
      "TEMPL": 2166,
      "QueryDict": 2167,
      "enumerated": 2168,
      "associ": 2169,
      "SEPARATOR": 2170,
      "'&": 2171,
      "24": 2172,
      "Escape": 2173,
      "Find": 2174,
      "My": 2175,
      "RI": 2176,
      "Sign": 2177,
      "SGI": 2178,
      "WSGI": 2179,
      "_field": 2180,
      "_date": 2181,
      "_from_": 2182,
      "cat": 2183,
      "fname": 2184,
      "hi": 2185,
      "na": 2186,
      "send": 2187,
      "ali": 2188,
      "leg": 2189,
      "tok": 2190,
      "subcommand": 2191,
      "router": 2192,
      "ight": 2193,
      "cket": 2194,
      "get_format": 2195,
      "points": 2196,
      "four": 2197,
      "creation": 2198,
      "wrapper": 2199,
      "CODE": 2200,
      "MIG": 2201,
      "_to_uri": 2202,
      "SafeData": 2203,
      "'/'": 2204,
      "_post_": 2205,
      "global": 2206,
      "normalize": 2207,
      "author_": 2208,
      "mission": 2209,
      "ference": 2210,
      "ferences": 2211,
      "children": 2212,
      "decrement": 2213,
      "doublecolon_": 2214,
      "LANGUAGE_": 2215,
      "OSError": 2216,
      "division": 2217,
      "stream_or_string": 2218,
      "associated": 2219,
      "']": 2220,
      "/%": 2221,
      "Hel": 2222,
      "Mem": 2223,
      "Oper": 2224,
      "PU": 2225,
      "Run": 2226,
      "_to": 2227,
      "_six": 2228,
      "br": 2229,
      "cand": 2230,
      "ix": 2231,
      "mit": 2232,
      "pgettext_lazy": 2233,
      "med": 2234,
      "ties": 2235,
      "lead": 2236,
      "ands": 2237,
      "unc": 2238,
      "ify": 2239,
      "ates": 2240,
      "__new": 2241,
      "cts": 2242,
      "loc": 2243,
      "sid": 2244,
      "importlib": 2245,
      "need": 2246,
      "nested": 2247,
      "cast": 2248,
      "upload_": 2249,
      "opt": 2250,
      "chars": 2251,
      "usage": 2252,
      "templatetag": 2253,
      "matplotlib": 2254,
      "compare": 2255,
      "ending": 2256,
      "filter_": 2257,
      "locales": 2258,
      "localiz": 2259,
      "DEBU": 2260,
      "mylist": 2261,
      "BaseCache": 2262,
      "field_type": 2263,
      "categ": 2264,
      "Tempor": 2265,
      "many": 2266,
      "TemplateDoesNotExist": 2267,
      "Debug": 2268,
      "prin": 2269,
      "wrap": 2270,
      "fixture_name": 2271,
      "END": 2272,
      "overri": 2273,
      "culate": 2274,
      "archive": 2275,
      "EmailBackend": 2276,
      "Order": 2277,
      "_moves_": 2278,
      "Module_six": 2279,
      "letters": 2280,
      "micro": 2281,
      "BytesIO": 2282,
      "chunk_size": 2283,
      "build_": 2284,
      "description": 2285,
      "TEMPLATE_": 2286,
      "alias": 2287,
      "candid": 2288,
      "Module_six_moves_": 2289,
      "\"<": 2290,
      "\"'%": 2291,
      "25": 2292,
      "200": 2293,
      "30": 2294,
      "36": 2295,
      "Class": 2296,
      "Fo": 2297,
      "Gen": 2298,
      "He": 2299,
      "If": 2300,
      "JS": 2301,
      "ME_": 2302,
      "O_": 2303,
      "Ob": 2304,
      "OST": 2305,
      "Pr": 2306,
      "Please": 2307,
      "Rever": 2308,
      "RATE_": 2309,
      "Stop": 2310,
      "WAR": 2311,
      "_form": 2312,
      "_regex": 2313,
      "_tags": 2314,
      "`(": 2315,
      "cgi": 2316,
      "lru": 2317,
      "wa": 2318,
      "was": 2319,
      "thro": 2320,
      "setitem__": 2321,
      "reraise": 2322,
      "ors": 2323,
      "orage": 2324,
      "dete": 2325,
      "decl": 2326,
      "calculate": 2327,
      "ceback": 2328,
      "rospe": 2329,
      "coun": 2330,
      "__dict": 2331,
      "__setitem__": 2332,
      "tab": 2333,
      "bot": 2334,
      "urls": 2335,
      "lated": 2336,
      "formats": 2337,
      "alling": 2338,
      "s_code": 2339,
      "s_context": 2340,
      "Inte": 2341,
      "Inde": 2342,
      "content_length": 2343,
      "before": 2344,
      "Cook": 2345,
      "tokens": 2346,
      "localtime": 2347,
      "ATI": 2348,
      "traceback": 2349,
      "my_": 2350,
      "expr": 2351,
      "INPU": 2352,
      "loaders": 2353,
      "variables": 2354,
      "signal": 2355,
      "current_app": 2356,
      "UTF": 2357,
      "template_source": 2358,
      "CHAR": 2359,
      "takes_context": 2360,
      "NOT": 2361,
      "target": 2362,
      "ugh": 2363,
      "status_code": 2364,
      "Meta": 2365,
      "missing": 2366,
      "show": 2367,
      "split_contents": 2368,
      "Token": 2369,
      "HiddenInput": 2370,
      "program": 2371,
      "descending": 2372,
      "MIGRATE_": 2373,
      "DEBUG": 2374,
      "lru_cache": 2375,
      "through": 2376,
      "declare": 2377,
      "__dict__": 2378,
      "Cookie": 2379,
      "INPUT_": 2380,
      ")',": 2381,
      ".*": 2382,
      "PAL": 2383,
      "PRE": 2384,
      "Ra": 2385,
      "Ren": 2386,
      "_node": 2387,
      "_output": 2388,
      "_safe": 2389,
      "_input": 2390,
      "_system": 2391,
      "bb": 2392,
      "cti": 2393,
      "dri": 2394,
      "dump": 2395,
      "fd": 2396,
      "ftime": 2397,
      "nu": 2398,
      "pgettext": 2399,
      "sl": 2400,
      "ugettext_lazy": 2401,
      "{'": 2402,
      "sed": 2403,
      "rece": 2404,
      "test_": 2405,
      "descript": 2406,
      "within": 2407,
      "tures": 2408,
      "iso": 2409,
      "strftime": 2410,
      "assert": 2411,
      "__get": 2412,
      "ped": 2413,
      "object_name": 2414,
      "buf": 2415,
      "upload": 2416,
      "old": 2417,
      "iterator": 2418,
      "post": 2419,
      "post_": 2420,
      "sysid": 2421,
      "my_list": 2422,
      "introspe": 2423,
      "'-'": 2424,
      "direct": 2425,
      "series": 2426,
      "input_type": 2427,
      "serialize": 2428,
      "plan": 2429,
      "locale_path": 2430,
      "incremented": 2431,
      "axis": 2432,
      "Lock": 2433,
      "REQU": 2434,
      "max_length": 2435,
      "mutable": 2436,
      "blocks": 2437,
      "IAB": 2438,
      "flush": 2439,
      "floating": 2440,
      "_fmt": 2441,
      "ignore": 2442,
      "ETTE": 2443,
      "Ordered": 2444,
      "_moved_attributes": 2445,
      "foreign": 2446,
      "pubid": 2447,
      "ary_keys": 2448,
      "www": 2449,
      "construct": 2450,
      "member": 2451,
      "check_for_": 2452,
      "primary_keys": 2453,
      "FIELD_": 2454,
      "weekday": 2455,
      "operations": 2456,
      "iri_to_uri": 2457,
      "total_": 2458,
      "__new__": 2459,
      "upload_handlers": 2460,
      "Module_six_moves_urllib_": 2461,
      "Gener": 2462,
      "JSON": 2463,
      "Object": 2464,
      "Reverse": 2465,
      "Index": 2466,
      "PALETTE": 2467,
      "descriptor": 2468,
      "\"/": 2469,
      "';": 2470,
      "AP": 2471,
      "Bad": 2472,
      "BLOCK_": 2473,
      "ID": 2474,
      "MON": 2475,
      "X_": 2476,
      "['": 2477,
      "_label": 2478,
      "_number": 2479,
      "_FORM": 2480,
      "aware": 2481,
      "b64": 2482,
      "dif": 2483,
      "emon": 2484,
      "go": 2485,
      "md": 2486,
      "mapping": 2487,
      "ps": 2488,
      "then": 2489,
      "or_": 2490,
      "tize": 2491,
      "ded_": 2492,
      "asvar": 2493,
      "atch": 2494,
      "subtype": 2495,
      "subprocess": 2496,
      "fier": 2497,
      "example": 2498,
      "__deepcopy": 2499,
      "tation": 2500,
      "obta": 2501,
      "Trans": 2502,
      "acce": 2503,
      "formatting": 2504,
      "upper": 2505,
      "ops": 2506,
      "s_only": 2507,
      "olver": 2508,
      "prepa": 2509,
      "Filter": 2510,
      "label_suffix": 2511,
      "finally": 2512,
      "daemon": 2513,
      "error_dict": 2514,
      "socket": 2515,
      "new_class": 2516,
      "pattern_iter": 2517,
      "cluding": 2518,
      "confli": 2519,
      "rawdata": 2520,
      "factory": 2521,
      "default_error_messages": 2522,
      "processors": 2523,
      "Resolver": 2524,
      "operands": 2525,
      "has_changed": 2526,
      "extension": 2527,
      "Uploaded": 2528,
      "invalid_choice": 2529,
      "AppCommand": 2530,
      "TAG_START": 2531,
      "This": 2532,
      "least": 2533,
      "hextets": 2534,
      "constant_": 2535,
      "selected_": 2536,
      "VARIAB": 2537,
      "requires_system": 2538,
      "CACHE_": 2539,
      "Integer": 2540,
      "CHARSET": 2541,
      "OrderedDict": 2542,
      "MONTH": 2543,
      "__deepcopy__": 2544,
      "UploadedFile": 2545,
      "VARIABLE_": 2546,
      "requires_system_checks": 2547,
      "02d": 2548,
      "33": 2549,
      "NU": 2550,
      "WOR": 2551,
      "_method": 2552,
      "_models": 2553,
      "_middleware": 2554,
      "_serializers": 2555,
      "cr": 2556,
      "fra": 2557,
      "nargs": 2558,
      "oup": 2559,
      "pha": 2560,
      "ant": 2561,
      "setup": 2562,
      "selenium": 2563,
      "alpha": 2564,
      "ungettext_lazy": 2565,
      "of_": 2566,
      "chive": 2567,
      "setdefault": 2568,
      "key_prefix": 2569,
      "keyOrder": 2570,
      "_names": 2571,
      "permission": 2572,
      "compress": 2573,
      "syn": 2574,
      "DER": 2575,
      "0000": 2576,
      "ternal": 2577,
      "max_value": 2578,
      "arrays": 2579,
      "serialization": 2580,
      "models_module": 2581,
      "closure": 2582,
      "Local": 2583,
      "Unable": 2584,
      "max_age": 2585,
      "runner": 2586,
      "csrf": 2587,
      "username": 2588,
      "chunks": 2589,
      "bitwise": 2590,
      "Server": 2591,
      "_wrapper": 2592,
      "limit_value": 2593,
      "Media": 2594,
      "conditional_": 2595,
      "hashlib": 2596,
      "decimal_places": 2597,
      "wsgi_": 2598,
      "Boolean": 2599,
      "Archive": 2600,
      "new_method_proxy": 2601,
      "issues": 2602,
      "dimensional": 2603,
      "Operation": 2604,
      "categor": 2605,
      "Header": 2606,
      "introspection": 2607,
      "IndexError": 2608,
      "''": 2609,
      ")?": 2610,
      "56": 2611,
      "Al": 2612,
      "CE": 2613,
      "Lex": 2614,
      "MMENT_": 2615,
      "Num": 2616,
      "PRO": 2617,
      "Tel": 2618,
      "UP": 2619,
      "]+": 2620,
      "_kwargs": 2621,
      "_stream": 2622,
      "_extra": 2623,
      "_active": 2624,
      "ath": 2625,
      "ain": 2626,
      "ature": 2627,
      "adecimal": 2628,
      "bf": 2629,
      "big": 2630,
      "css": 2631,
      "eve": 2632,
      "fmt": 2633,
      "ilt": 2634,
      "pie": 2635,
      "tch": 2636,
      "standard": 2637,
      "relation": 2638,
      "lection": 2639,
      "substring": 2640,
      "romise": 2641,
      "d_fields": 2642,
      "d_apps": 2643,
      "base_": 2644,
      "timedelta": 2645,
      "built": 2646,
      "ited": 2647,
      "upto": 2648,
      "collection": 2649,
      "context_": 2650,
      "app_or_": 2651,
      "template_string": 2652,
      "Nomin": 2653,
      "to_unicode": 2654,
      "imum": 2655,
      "maximum": 2656,
      "tables": 2657,
      "error_list": 2658,
      "field_notes": 2659,
      "soup": 2660,
      "separate": 2661,
      "render_context": 2662,
      "SER": 2663,
      "SES": 2664,
      "DecodeError": 2665,
      "loading": 2666,
      "Lookup": 2667,
      "abc": 2668,
      "max_num": 2669,
      "max_digits": 2670,
      "TIME_": 2671,
      "changes": 2672,
      "generated": 2673,
      "natural": 2674,
      "initial_form_count": 2675,
      "ModelForm": 2676,
      "hexadecimal": 2677,
      "folder": 2678,
      "LOCAL": 2679,
      "sender": 2680,
      "UNT": 2681,
      "nodelist_true": 2682,
      "nodelist_false": 2683,
      "support": 2684,
      "content_type_extra": 2685,
      "validate_key": 2686,
      "Format": 2687,
      "UnicodeDecodeError": 2688,
      "tify": 2689,
      "ttl": 2690,
      "configure_": 2691,
      "stacklevel": 2692,
      "Defaults": 2693,
      "alternative": 2694,
      "LANGUAGE_CODE": 2695,
      "Hello": 2696,
      "Temporary": 2697,
      "override": 2698,
      "declared_fields": 2699,
      "conflicts": 2700,
      "IntegerField": 2701,
      "categories": 2702,
      "Lexer": 2703,
      "Tells": 2704,
      "app_or_project": 2705,
      "Nominates": 2706,
      "LookupError": 2707,
      "\"\\\\": 2708,
      "%%": 2709,
      "'(?": 2710,
      ").": 2711,
      "/'": 2712,
      "15": 2713,
      "40": 2714,
      "404": 2715,
      "ASE": 2716,
      "CRE": 2717,
      "Fe": 2718,
      "FRO": 2719,
      "IG": 2720,
      "PH": 2721,
      "User": 2722,
      "Z0": 2723,
      "_attr": 2724,
      "_attrs": 2725,
      "_IN": 2726,
      "_default_": 2727,
      "_choice": 2728,
      "ato": 2729,
      "bidden": 2730,
      "c_": 2731,
      "hs": 2732,
      "ious": 2733,
      "long": 2734,
      "non_": 2735,
      "rhs": 2736,
      "}`": 2737,
      "three": 2738,
      "inf": 2739,
      "mean": 2740,
      "sting": 2741,
      "rev": 2742,
      "orted_": 2743,
      "debug": 2744,
      "lex": 2745,
      "sur": 2746,
      "toge": 2747,
      "call__": 2748,
      "tried": 2749,
      "could": 2750,
      "__call__": 2751,
      "autif": 2752,
      "d_function": 2753,
      "bool": 2754,
      "bases": 2755,
      "django_": 2756,
      "instances": 2757,
      "path_info": 2758,
      "may": 2759,
      "object_list": 2760,
      "get_app_configs": 2761,
      "cause": 2762,
      "urlquote": 2763,
      "feed_": 2764,
      "itertools": 2765,
      "dict_": 2766,
      "pected": 2767,
      "Could": 2768,
      "token_type": 2769,
      "Content": 2770,
      "patch": 2771,
      "field_params": 2772,
      "parsed": 2773,
      "use_tz": 2774,
      "Deserializ": 2775,
      "Deserializer": 2776,
      "mark": 2777,
      "ordering": 2778,
      "TION": 2779,
      "startElement": 2780,
      "ull_f": 2781,
      "ING_": 2782,
      "empty_label": 2783,
      "Database": 2784,
      "'\\\\'": 2785,
      "Stream": 2786,
      "Storage": 2787,
      "ignore_": 2788,
      "StringIO": 2789,
      "Forbidden": 2790,
      "letter": 2791,
      "ERRORS": 2792,
      "TYPE": 2793,
      "mimetype": 2794,
      "work": 2795,
      "Char": 2796,
      "none_value": 2797,
      "ON_FIELD_": 2798,
      "closing": 2799,
      "TERN": 2800,
      "FORMATS": 2801,
      "needs_": 2802,
      "templatetags_": 2803,
      "microsecond": 2804,
      "wait": 2805,
      "INPUT_FORMATS": 2806,
      "builtin": 2807,
      "FROM": 2808,
      "_default_manager": 2809,
      "together": 2810,
      "autiful": 2811,
      "$'": 2812,
      "([": 2813,
      "28": 2814,
      "50": 2815,
      "=%": 2816,
      "Au": 2817,
      "DLE": 2818,
      "DATE": 2819,
      "EMA": 2820,
      "FO": 2821,
      "Null": 2822,
      "Promise": 2823,
      "Tag": 2824,
      "WE": 2825,
      "XT_": 2826,
      "],": 2827,
      "_is": 2828,
      "_template": 2829,
      "_is_": 2830,
      "_response": 2831,
      "_urllib_": 2832,
      "_enti": 2833,
      "_archive": 2834,
      "bl": 2835,
      "cli": 2836,
      "cted": 2837,
      "cies": 2838,
      "dn": 2839,
      "href": 2840,
      "ja": 2841,
      "larg": 2842,
      "og": 2843,
      "ost": 2844,
      "pi": 2845,
      "pic": 2846,
      "push": 2847,
      "their": 2848,
      "rename": 2849,
      "ungettext": 2850,
      "lity": 2851,
      "robot": 2852,
      "functional": 2853,
      "function_name": 2854,
      "returned": 2855,
      "from_data": 2856,
      "expected": 2857,
      "setlist": 2858,
      "setter": 2859,
      "pending": 2860,
      "getvalue": 2861,
      "not_": 2862,
      "d_models": 2863,
      "formfield_": 2864,
      "respon": 2865,
      "empty_value": 2866,
      "ned": 2867,
      "enter": 2868,
      "mac": 2869,
      "hed": 2870,
      "kwds": 2871,
      "renderer": 2872,
      "app_list": 2873,
      "taglib": 2874,
      "vided": 2875,
      "lineno": 2876,
      "endElement": 2877,
      "model_list": 2878,
      "writers": 2879,
      "removed": 2880,
      "home": 2881,
      "df2": 2882,
      "matching": 2883,
      "Exec": 2884,
      "trail": 2885,
      "maxsize": 2886,
      "safestring": 2887,
      "IN_": 2888,
      "nodelists": 2889,
      "_references": 2890,
      "id_for_": 2891,
      "minute": 2892,
      "plus": 2893,
      "https": 2894,
      "grouping": 2895,
      "Unknown": 2896,
      "max_width": 2897,
      "ed_fields": 2898,
      "':'": 2899,
      "tzname": 2900,
      "cannot": 2901,
      "Ensure": 2902,
      "web": 2903,
      "ginator": 2904,
      "struc": 2905,
      "urlconf_name": 2906,
      "private": 2907,
      "_post": 2908,
      "loggers": 2909,
      "pages": 2910,
      "comment_": 2911,
      "absolute_": 2912,
      "author_name": 2913,
      "bytes_": 2914,
      "table_names": 2915,
      "decremented": 2916,
      "no_style": 2917,
      "TAG_END": 2918,
      "specific": 2919,
      "_COUNT": 2920,
      "TOKEN_": 2921,
      "potfile": 2922,
      "HTTP_": 2923,
      "value_from_data": 2924,
      "CONTEN": 2925,
      "window": 2926,
      "leading": 2927,
      "localized_fields": 2928,
      "driver": 2929,
      "_FORM_COUNT": 2930,
      "WORD": 2931,
      "conditional_escape": 2932,
      "EMAIL": 2933,
      "robotparser": 2934,
      "pending_references": 2935,
      "formfield_callback": 2936,
      "id_for_label": 2937,
      "value_from_datadict": 2938,
      "(\\": 2939,
      ")*": 2940,
      ")|": 2941,
      "1_": 2942,
      "32": 2943,
      "80": 2944,
      "89": 2945,
      "Can": 2946,
      "Mix": 2947,
      "Match": 2948,
      "Ori": 2949,
      "SL": 2950,
      "VAL": 2951,
      "_default": 2952,
      "_error_": 2953,
      "_keys": 2954,
      "_lock": 2955,
      "_change": 2956,
      "_ipv4": 2957,
      "_supported": 2958,
      "`\\": 2959,
      "`{'": 2960,
      "dum": 2961,
      "elt": 2962,
      "gue": 2963,
      "hint": 2964,
      "ical": 2965,
      "istry": 2966,
      "mbo": 2967,
      "ow": 2968,
      "otify": 2969,
      "pformat": 2970,
      "tmp": 2971,
      "tParser": 2972,
      "zA": 2973,
      "indi": 2974,
      "including": 2975,
      "inotify": 2976,
      "meri": 2977,
      "once": 2978,
      "reign": 2979,
      "deactivate": 2980,
      "err": 2981,
      "erce": 2982,
      "cent": 2983,
      "roup": 2984,
      "roll": 2985,
      "coerce": 2986,
      "exce": 2987,
      "extr": 2988,
      "sets": 2989,
      "termin": 2990,
      "lain": 2991,
      "import_": 2992,
      "urator": 2993,
      "basename": 2994,
      "basedir": 2995,
      "moving": 2996,
      "intern": 2997,
      "converter": 2998,
      "access": 2999,
      "format_string": 3000,
      "s_to": 3001,
      "power": 3002,
      "complain": 3003,
      "cached": 3004,
      "cached_": 3005,
      "filter_func": 3006,
      "connector": 3007,
      "is_aware": 3008,
      "output_": 3009,
      "doesn": 3010,
      "registry": 3011,
      "loopvars": 3012,
      "delete_": 3013,
      "extra_context": 3014,
      "min_num": 3015,
      "dencies": 3016,
      "occurred": 3017,
      "pendencies": 3018,
      "plat": 3019,
      "fast": 3020,
      "_cached_": 3021,
      "MultiPar": 3022,
      "running": 3023,
      "emit": 3024,
      "_iteritems": 3025,
      "123": 3026,
      "parse_until": 3027,
      "old_method": 3028,
      "initial_value": 3029,
      "color_": 3030,
      "Checkbox": 3031,
      "takes": 3032,
      "help_texts": 3033,
      "auto_created": 3034,
      "cache_timeout": 3035,
      "sequences": 3036,
      "possi": 3037,
      "limit_choice": 3038,
      "SimpleCookie": 3039,
      "backends": 3040,
      "specified": 3041,
      "leave": 3042,
      "MultipleChoiceField": 3043,
      "configure": 3044,
      "CONTEXT_": 3045,
      "correspon": 3046,
      "PATH": 3047,
      "parameter": 3048,
      "module_loading": 3049,
      "download": 3050,
      "next_token": 3051,
      "remaining": 3052,
      "product": 3053,
      "fourth": 3054,
      "author_email": 3055,
      "Foreign": 3056,
      "NUM": 3057,
      "csrf_token": 3058,
      "collections": 3059,
      "Origin": 3060,
      "MultiPartParser": 3061,
      "limit_choices_to": 3062,
      "corresponding": 3063,
      "ForeignKey": 3064,
      "')": 3065,
      "'{": 3066,
      "'='": 3067,
      "14": 3068,
      "Be": 3069,
      "BASE": 3070,
      "DJ": 3071,
      "Dis": 3072,
      "DUL": 3073,
      "Ma": 3074,
      "NON_FIELD_": 3075,
      "Sus": 3076,
      "Soup": 3077,
      "_set": 3078,
      "_len": 3079,
      "_parser": 3080,
      "_initial": 3081,
      "_log": 3082,
      "_sql": 3083,
      "_set_": 3084,
      "_create_": 3085,
      "_page": 3086,
      "_setup": 3087,
      "bp": 3088,
      "fn": 3089,
      "hmac": 3090,
      "nd_": 3091,
      "ngettext": 3092,
      "simple": 3093,
      "tb": 3094,
      "ust": 3095,
      "yes": 3096,
      "throw": 3097,
      "inside": 3098,
      "sed_": 3099,
      "seen": 3100,
      "requen": 3101,
      "alled": 3102,
      "deps": 3103,
      "argparse": 3104,
      "and_": 3105,
      "unescape": 3106,
      "unquote": 3107,
      "strings_only": 3108,
      "rol": 3109,
      "roo": 3110,
      "namespaces": 3111,
      "trie": 3112,
      "else": 3113,
      "sive": 3114,
      "spath": 3115,
      "net": 3116,
      "do_": 3117,
      "ckend_": 3118,
      "used_": 3119,
      "acted": 3120,
      "mming": 3121,
      "outfile": 3122,
      "proto": 3123,
      "provided": 3124,
      "s_re": 3125,
      "fetch": 3126,
      "tempfile": 3127,
      "fixtures": 3128,
      "var_": 3129,
      "varargs": 3130,
      "varkw": 3131,
      "been": 3132,
      "best_": 3133,
      "filter_name": 3134,
      "whether": 3135,
      "backend_": 3136,
      "respective": 3137,
      "is_bound": 3138,
      "add_prefix": 3139,
      "ctories": 3140,
      "000": 3141,
      "item_": 3142,
      "widget_": 3143,
      "myList": 3144,
      "evaluated": 3145,
      "directories": 3146,
      "ALIAS": 3147,
      "NodeList": 3148,
      "FileUpload": 3149,
      "writ": 3150,
      "Log": 3151,
      "abb": 3152,
      "abspath": 3153,
      "groups": 3154,
      "days": 3155,
      "parent_model": 3156,
      "translations": 3157,
      "1234": 3158,
      "weight": 3159,
      "plural_": 3160,
      "colors": 3161,
      "_ALPH": 3162,
      "environment": 3163,
      "IOError": 3164,
      "should": 3165,
      "store_false": 3166,
      "MENT": 3167,
      "dimensions": 3168,
      "VariableDoesNotExist": 3169,
      "ABET": 3170,
      "trimmed": 3171,
      "primary": 3172,
      "hextet": 3173,
      "attname": 3174,
      "MODUL": 3175,
      "num_pages": 3176,
      "_callback_str": 3177,
      "retval": 3178,
      "targets": 3179,
      "target_": 3180,
      "MovedAttribute": 3181,
      "Address": 3182,
      "pk_field": 3183,
      "mitted": 3184,
      "counter": 3185,
      "locale_paths": 3186,
      "obtain": 3187,
      "prepare": 3188,
      "frag": 3189,
      "alphabe": 3190,
      "Number": 3191,
      "atomic": 3192,
      "CharField": 3193,
      "templatetags_modules": 3194,
      "builtins": 3195,
      "_isdst": 3196,
      "blan": 3197,
      "picious": 3198,
      "Mixin": 3199,
      "indices": 3200,
      "internal_": 3201,
      "fastcgi": 3202,
      "Beautiful": 3203,
      "NON_FIELD_ERRORS": 3204,
      "Suspicious": 3205,
      "best_doublecolon_": 3206,
      "FileUploadHandler": 3207,
      "_ALPHABET": 3208,
      "\"#": 3209,
      "\"^": 3210,
      "$',": 3211,
      "'[": 3212,
      ")-": 3213,
      "22": 3214,
      "@'": 3215,
      "ADER": 3216,
      "EMP": 3217,
      "Frame": 3218,
      "Man": 3219,
      "OFF": 3220,
      "Post": 3221,
      "Sorted": 3222,
      "TR": 3223,
      "XT": 3224,
      "\\.": 3225,
      "]{": 3226,
      "]|": 3227,
      "_no": 3228,
      "_time": 3229,
      "_error": 3230,
      "_decor": 3231,
      "_join": 3232,
      "_widget": 3233,
      "_size": 3234,
      "_delete": 3235,
      "_glob": 3236,
      "`.": 3237,
      "aa": 3238,
      "bra": 3239,
      "bcc": 3240,
      "cmp": 3241,
      "dk": 3242,
      "itize": 3243,
      "ld": 3244,
      "lat": 3245,
      "mw": 3246,
      "n_": 3247,
      "ns_": 3248,
      "san": 3249,
      "ton": 3250,
      "trol": 3251,
      "vary_": 3252,
      "}\"": 3253,
      "}'": 3254,
      "in_": 3255,
      "ination": 3256,
      "int_": 3257,
      "they": 3258,
      "std": 3259,
      "reset": 3260,
      "remin": 3261,
      "arr": 3262,
      "deconstru": 3263,
      "strict": 3264,
      "call_command": 3265,
      "defini": 3266,
      "keep": 3267,
      "ater": 3268,
      "ated_function": 3269,
      "paginator": 3270,
      "coder": 3271,
      "notation": 3272,
      "chain": 3273,
      "__doc": 3274,
      "class_name": 3275,
      "d_data": 3276,
      "site": 3277,
      "paths": 3278,
      "raised": 3279,
      "get_default_": 3280,
      "get_current_timezone": 3281,
      "accord": 3282,
      "formatter": 3283,
      "formatted": 3284,
      "kwarg": 3285,
      "s_mode": 3286,
      "templa": 3287,
      "rendered": 3288,
      "because": 3289,
      "checkbox": 3290,
      "has_key": 3291,
      "syml": 3292,
      "token_string": 3293,
      "read_": 3294,
      "validation": 3295,
      "bad_": 3296,
      "batim": 3297,
      "add_option": 3298,
      "myfile": 3299,
      "\\\\.": 3300,
      "readable": 3301,
      "Delete": 3302,
      "multipart": 3303,
      "copyright": 3304,
      "STR": 3305,
      "Multipart": 3306,
      "closed": 3307,
      "loaded_": 3308,
      "months": 3309,
      "_checkbox": 3310,
      "flup": 3311,
      "quotes": 3312,
      "unique_check": 3313,
      "middleware_method": 3314,
      "domain_part": 3315,
      "SafeMIME": 3316,
      "email_": 3317,
      "clear_checkbox": 3318,
      "send_": 3319,
      "TextInput": 3320,
      "modif": 3321,
      "Standard": 3322,
      "find_template": 3323,
      "DateTimeWidget": 3324,
      "IPv": 3325,
      "pickled": 3326,
      "activ": 3327,
      "grater": 3328,
      "MAX_": 3329,
      "display_name": 3330,
      "HEAD": 3331,
      "stats": 3332,
      "use_natural_foreign": 3333,
      "rfc": 3334,
      "save_m2m": 3335,
      "_deleg": 3336,
      "button": 3337,
      "combine": 3338,
      "PATTERN": 3339,
      "unpack_ipv4": 3340,
      "cycle": 3341,
      "parameters": 3342,
      "HTMLParser": 3343,
      "naive": 3344,
      "detector": 3345,
      "ATION": 3346,
      ".*?": 3347,
      "Renderer": 3348,
      "ctible": 3349,
      "dumps": 3350,
      "slug": 3351,
      "Generator": 3352,
      "permissions_mode": 3353,
      "BooleanField": 3354,
      "567": 3355,
      "Feed": 3356,
      "DeserializationError": 3357,
      "ignore_patterns": 3358,
      "Auto": 3359,
      "largest": 3360,
      "CONTENT_": 3361,
      "meric": 3362,
      "rollback": 3363,
      "except": 3364,
      "DJANG": 3365,
      "requency": 3366,
      "netloc": 3367,
      "abbrev": 3368,
      "BeautifulSoup": 3369,
      "SortedDict": 3370,
      "_noop": 3371,
      "_decorated_function": 3372,
      "sanitize": 3373,
      "reminder": 3374,
      "deconstructible": 3375,
      "definition": 3376,
      "__doc__": 3377,
      "according": 3378,
      "StandardError": 3379,
      "use_natural_foreign_keys": 3380,
      "_delegate_": 3381,
      "\"\\": 3382,
      "((?:": 3383,
      ">%": 3384,
      ">'.": 3385,
      ">\",": 3386,
      "BO": 3387,
      "CI": 3388,
      "Calling": 3389,
      "DIA": 3390,
      "DDLE": 3391,
      "HOST": 3392,
      "IS": 3393,
      "Le": 3394,
      "Mer": 3395,
      "OP": 3396,
      "Page": 3397,
      "Ta": 3398,
      "Wri": 3399,
      "WHE": 3400,
      "Y_": 3401,
      "_en": 3402,
      "_convert": 3403,
      "_add_": 3404,
      "_pattern": 3405,
      "_params": 3406,
      "_pk": 3407,
      "_cookies": 3408,
      "_Lazy": 3409,
      "aml": 3410,
      "eq": 3411,
      "flow": 3412,
      "git": 3413,
      "hau": 3414,
      "iver": 3415,
      "sp": 3416,
      "score": 3417,
      "tree": 3418,
      "ycle": 3419,
      "yaml": 3420,
      "}</": 3421,
      "ince": 3422,
      "medi": 3423,
      "there": 3424,
      "sec": 3425,
      "reas": 3426,
      "red_": 3427,
      "reset_": 3428,
      "related": 3429,
      "removing": 3430,
      "org": 3431,
      "deli": 3432,
      "asser": 3433,
      "val1": 3434,
      "val2": 3435,
      "vale": 3436,
      "sub_match": 3437,
      "lix": 3438,
      "stion": 3439,
      "list1": 3440,
      "__bool": 3441,
      "vert": 3442,
      "d_forms": 3443,
      "sites": 3444,
      "urlen": 3445,
      "base_fields": 3446,
      "ress_": 3447,
      "resour": 3448,
      "installed": 3449,
      "obj_pk": 3450,
      "umask": 3451,
      "idx": 3452,
      "everything": 3453,
      "time_format": 3454,
      "enclosure": 3455,
      "appear": 3456,
      "allback": 3457,
      "dec_part": 3458,
      "pyinotify": 3459,
      "new_value": 3460,
      "option_value": 3461,
      "tempdir": 3462,
      "present": 3463,
      "app_dir": 3464,
      "util": 3465,
      "template_dir": 3466,
      "aders": 3467,
      "Inline": 3468,
      "settings_": 3469,
      "endless": 3470,
      "df1": 3471,
      "Redirect": 3472,
      "version_info": 3473,
      "my_string": 3474,
      "when": 3475,
      "tablename": 3476,
      "'-',": 3477,
      "oid_": 3478,
      "answer": 3479,
      "MEDIA": 3480,
      "new_path": 3481,
      "_readers": 3482,
      "min_value": 3483,
      "multipli": 3484,
      "DEFAULT_CHARSET": 3485,
      "script_": 3486,
      "http_cookies": 3487,
      "COL": 3488,
      "COMMENT_": 3489,
      "run_": 3490,
      "starttag": 3491,
      "Parse": 3492,
      "view_name": 3493,
      "generic": 3494,
      "ENG": 3495,
      "updated": 3496,
      "MIDDLE": 3497,
      "(?:[": 3498,
      "_itervalues": 3499,
      "_iterkeys": 3500,
      "handle_app_config": 3501,
      "initial_data": 3502,
      "disable": 3503,
      "dispatch": 3504,
      "SafeText": 3505,
      "has_header": 3506,
      "DataFrame": 3507,
      "exc_type": 3508,
      "from_email": 3509,
      "common_": 3510,
      "nodelist_empty": 3511,
      "'\"'": 3512,
      "supported_": 3513,
      "negated": 3514,
      "original_": 3515,
      "breaks": 3516,
      "can_delete": 3517,
      "cookie_": 3518,
      "get_language_": 3519,
      "flatatt": 3520,
      "flatten": 3521,
      "RegexURL": 3522,
      "Iterator": 3523,
      "TY_": 3524,
      "KEY_": 3525,
      "popu": 3526,
      "utcoffset": 3527,
      "use_natural_primary_keys": 3528,
      "MODI": 3529,
      "migrated_apps": 3530,
      "9999": 3531,
      "attachments": 3532,
      "_lineno": 3533,
      "identifier": 3534,
      "bility": 3535,
      "WSGIServer": 3536,
      "printable": 3537,
      "wraps": 3538,
      "WARE_": 3539,
      "receive": 3540,
      "test_runner": 3541,
      "uppercase": 3542,
      "MONTHS": 3543,
      "LOCALE_": 3544,
      "inflix": 3545,
      "django_template_source": 3546,
      "ull_frequency": 3547,
      "EMAIL_": 3548,
      "gues": 3549,
      "output_transaction": 3550,
      "platform": 3551,
      "protocol": 3552,
      "prepare_value": 3553,
      "blank": 3554,
      "dklen": 3555,
      "mw_instance": 3556,
      "56789": 3557,
      "Level": 3558,
      "WHERE": 3559,
      "__bool__": 3560,
      "urlencode": 3561,
      "MIDDLEWARE_": 3562,
      "\"',": 3563,
      "\"'\"": 3564,
      "'#": 3565,
      "'+": 3566,
      "'|": 3567,
      "'@'": 3568,
      "-\\": 3569,
      "17": 3570,
      "3d": 3571,
      "59": 3572,
      ":\\\\": 3573,
      ">{": 3574,
      "AY": 3575,
      "CE_": 3576,
      "CES": 3577,
      "CGI": 3578,
      "DWORD": 3579,
      "EST": 3580,
      "Group": 3581,
      "I18": 3582,
      "KD": 3583,
      "Many": 3584,
      "Option": 3585,
      "Tu": 3586,
      "Wr": 3587,
      "ZE": 3588,
      "\\]": 3589,
      "_object": 3590,
      "_version": 3591,
      "_current": 3592,
      "_clean": 3593,
      "_run": 3594,
      "_load_": 3595,
      "_natural_key": 3596,
      "_has_changed": 3597,
      "_asser": 3598,
      "ay": 3599,
      "bash": 3600,
      "cnt": 3601,
      "cip": 3602,
      "cmd": 3603,
      "don": 3604,
      "hen": 3605,
      "ient": 3606,
      "i18": 3607,
      "jan": 3608,
      "jav": 3609,
      "lator": 3610,
      "mk": 3611,
      "mage": 3612,
      "punc": 3613,
      "qdn": 3614,
      "u00": 3615,
      "utable": 3616,
      "u20": 3617,
      "xc": 3618,
      "x00": 3619,
      "ink_": 3620,
      "inverse": 3621,
      "stu": 3622,
      "step": 3623,
      "reload": 3624,
      "reloader": 3625,
      "recip": 3626,
      "orter": 3627,
      "tical": 3628,
      "de_": 3629,
      "super": 3630,
      "tuation": 3631,
      "today": 3632,
      "off": 3633,
      "ods": 3634,
      "calend": 3635,
      "sublist": 3636,
      "rop": 3637,
      "substituted": 3638,
      "dio": 3639,
      "functions": 3640,
      "external": 3641,
      "cho": 3642,
      "__module": 3643,
      "verbatim": 3644,
      "tarea": 3645,
      "d_method": 3646,
      "sitive": 3647,
      "boun": 3648,
      "filelist": 3649,
      "fileno": 3650,
      "text_list": 3651,
      "formfield": 3652,
      "formset_": 3653,
      "form_errors": 3654,
      "escap": 3655,
      "by_natural_key": 3656,
      "obj_dict": 3657,
      "attrvalue": 3658,
      "attr__": 3659,
      "time_str": 3660,
      "lated_": 3661,
      "appendlist": 3662,
      "get_connection": 3663,
      "get_text_list": 3664,
      "get_by_natural_key": 3665,
      "dates": 3666,
      "s_nodelists": 3667,
      "ollow": 3668,
      "url_fields": 3669,
      "permitted": 3670,
      "existing_": 3671,
      "var_name": 3672,
      "configurator": 3673,
      "column_name": 3674,
      "endblock": 3675,
      "t_mutable": 3676,
      "symbo": 3677,
      "functools": 3678,
      "DELE": 3679,
      "BaseLoader": 3680,
      "BaseEmailBackend": 3681,
      "field_node": 3682,
      "readline": 3683,
      "_string_": 3684,
      "k_file": 3685,
      "last_": 3686,
      "use_ipv6": 3687,
      "input_formats": 3688,
      "metavar": 3689,
      "TemplateLibrary": 3690,
      "TEXT": 3691,
      "compile_func": 3692,
      "compile_function": 3693,
      "FileEx": 3694,
      "FileInput": 3695,
      "locale_dir": 3696,
      "factor": 3697,
      "DEFAULT_CACHE_": 3698,
      "pk_value": 3699,
      "incremental": 3700,
      "allowed": 3701,
      "parent_name": 3702,
      "parent_instance": 3703,
      "'</": 3704,
      "20Warning": 3705,
      "_html_parser": 3706,
      "handle_m2m": 3707,
      "initial_forms": 3708,
      "disposition": 3709,
      "for_model": 3710,
      "RemovedInDjango20Warning": 3711,
      "urlconf_module": 3712,
      "sensitive": 3713,
      "OKI": 3714,
      "nodelist_loop": 3715,
      "truncate_len": 3716,
      "'\"',": 3717,
      "ignored": 3718,
      "xyz": 3719,
      "servers": 3720,
      "m2m_data": 3721,
      "publi": 3722,
      "FIED": 3723,
      "ipv6_address": 3724,
      "Iteration": 3725,
      "conditions_nodelists": 3726,
      "schemes": 3727,
      "work_file": 3728,
      "extra_params": 3729,
      "extra_classes": 3730,
      "use_natural_keys": 3731,
      "ConvertingDict": 3732,
      "db_table": 3733,
      "'*'": 3734,
      "resolved_args": 3735,
      "records": 3736,
      "LazyObject": 3737,
      "Memory": 3738,
      "filter_expression": 3739,
      "build_attrs": 3740,
      "candidate": 3741,
      "Print": 3742,
      "StopIteration": 3743,
      "show_": 3744,
      "MIGRATE_HEAD": 3745,
      "REQUEST": 3746,
      "check_for_language": 3747,
      "accept_": 3748,
      "event": 3749,
      "_entities": 3750,
      "extras": 3751,
      "cached_property": 3752,
      "MultiPartParserError": 3753,
      "trieve": 3754,
      "widget_attrs": 3755,
      "EMPTY_": 3756,
      "OFFSET": 3757,
      "stdin": 3758,
      "Tags": 3759,
      "MEDIA_": 3760,
      "RegexURLResolver": 3761,
      "MODIFIED": 3762,
      "guessed_": 3763,
      "I18N": 3764,
      "Tuple": 3765,
      "Wrapper": 3766,
      "_assert_mutable": 3767,
      "punctuation": 3768,
      "recipient": 3769,
      "calendar": 3770,
      "__module__": 3771,
      "formset_factory": 3772,
      "DEFAULT_CACHE_ALIAS": 3773,
      "MIGRATE_HEADING": 3774,
      "')`": 3775,
      "'}`": 3776,
      ",%": 3777,
      "400": 3778,
      "=',": 3779,
      "><": 3780,
      ">|": 3781,
      "AC": 3782,
      "Cre": 3783,
      "Cycle": 3784,
      "Dump": 3785,
      "DATE_": 3786,
      "Equal": 3787,
      "F_IN": 3788,
      "GET": 3789,
      "Image": 3790,
      "L10": 3791,
      "Na": 3792,
      "Non": 3793,
      "Of": 3794,
      "PP": 3795,
      "Per": 3796,
      "Path": 3797,
      "SING": 3798,
      "Sub": 3799,
      "TAL": 3800,
      "XML": 3801,
      "_un": 3802,
      "_dec": 3803,
      "_lib": 3804,
      "_item": 3805,
      "_request": 3806,
      "_header": 3807,
      "_charset": 3808,
      "_indexes": 3809,
      "_caches": 3810,
      "_assert": 3811,
      "_upload_handlers": 3812,
      "_none_value": 3813,
      "_plus": 3814,
      "_translations": 3815,
      "_read_": 3816,
      "`/": 3817,
      "bc": 3818,
      "cdata": 3819,
      "d1": 3820,
      "etag": 3821,
      "fg": 3822,
      "fer": 3823,
      "gate": 3824,
      "iled": 3825,
      "just": 3826,
      "mal": 3827,
      "ng": 3828,
      "nan": 3829,
      "nor": 3830,
      "nof": 3831,
      "plt": 3832,
      "pid": 3833,
      "ptime": 3834,
      "pdf": 3835,
      "p_pattern": 3836,
      "png": 3837,
      "rb": 3838,
      "sha": 3839,
      "visi": 3840,
      "xa": 3841,
      "xgettext": 3842,
      "zed": 3843,
      "in_tag": 3844,
      "insensitive": 3845,
      "ance": 3846,
      "rect": 3847,
      "rela": 3848,
      "rehen": 3849,
      "alog": 3850,
      "decompress": 3851,
      "with_": 3852,
      "tions": 3853,
      "tom": 3854,
      "strptime": 3855,
      "ced": 3856,
      "string_": 3857,
      "cally": 3858,
      "sub_": 3859,
      "subtr": 3860,
      "submodule": 3861,
      "lient": 3862,
      "lize": 3863,
      "resultclasses": 3864,
      "substitutions": 3865,
      "mpt": 3866,
      "defg": 3867,
      "consi": 3868,
      "paren": 3869,
      "come": 3870,
      "exclu": 3871,
      "__len": 3872,
      "__copy": 3873,
      "__contains": 3874,
      "__cast": 3875,
      "__eq": 3876,
      "__dispatch": 3877,
      "pect": 3878,
      "getlist": 3879,
      "ctype": 3880,
      "lots": 3881,
      "onent": 3882,
      "utdown": 3883,
      "urlize": 3884,
      "basedirs": 3885,
      "base_url": 3886,
      "part_": 3887,
      "checked": 3888,
      "enclosing": 3889,
      "ser_fmt": 3890,
      "'.\",": 3891,
      "ble_": 3892,
      "apped_": 3893,
      "ssl": 3894,
      "get_template": 3895,
      "get_backend_": 3896,
      "replaces": 3897,
      "other_dict": 3898,
      "converting": 3899,
      "first_token": 3900,
      "col_name": 3901,
      "prote": 3902,
      "prompt": 3903,
      "pytz": 3904,
      "url_": 3905,
      "pre_": 3906,
      "iterate": 3907,
      "ized": 3908,
      "tag_": 3909,
      "lengths": 3910,
      "var1": 3911,
      "var2": 3912,
      "sample": 3913,
      "nodes": 3914,
      "comprehen": 3915,
      "Count": 3916,
      "to_locale": 3917,
      "endtag": 3918,
      "model_": 3919,
      "hello": 3920,
      "is_valid": 3921,
      "dataframes": 3922,
      "mystring": 3923,
      "pythonrc": 3924,
      "gettext_noop": 3925,
      "streaming_": 3926,
      "datetime_safe": 3927,
      "html_class": 3928,
      "html_message": 3929,
      "render_value": 3930,
      "SELE": 3931,
      "use_grouping": 3932,
      "directory_": 3933,
      "headerlist": 3934,
      "TemplateResponse": 3935,
      "locks": 3936,
      "raw_": 3937,
      "raw_data": 3938,
      "ARK": 3939,
      "locale_": 3940,
      "localedir": 3941,
      "fake": 3942,
      "having": 3943,
      "pks": 3944,
      "re_info": 3945,
      "state__": 3946,
      "max_entries": 3947,
      "COD": 3948,
      "COOKI": 3949,
      "Typed": 3950,
      "fixture_file": 3951,
      "block_tag": 3952,
      "_format_string": 3953,
      "'<%": 3954,
      "Encoder": 3955,
      "source_": 3956,
      "unique_id": 3957,
      "parse_header": 3958,
      "has_submodule": 3959,
      "floats": 3960,
      "load_template_source": 3961,
      "prior": 3962,
      "senten": 3963,
      "UNI": 3964,
      "commas": 3965,
      "smallest": 3966,
      "list_of_": 3967,
      "lookups": 3968,
      "ChoiceInput": 3969,
      "zeros": 3970,
      "validate_unique": 3971,
      "validate_ipv4": 3972,
      "expire_info": 3973,
      "logging_": 3974,
      "comment_lineno": 3975,
      "_cat": 3976,
      "cache_choices": 3977,
      "top_dir": 3978,
      "locations": 3979,
      "bytes_to_": 3980,
      "prog_name": 3981,
      "DateTimeField": 3982,
      "S_I": 3983,
      "InvalidTemplateLibrary": 3984,
      "memory": 3985,
      "SelectMultiple": 3986,
      "]*?": 3987,
      "shutdown": 3988,
      "whole": 3989,
      "all_issues": 3990,
      "USE_T": 3991,
      "USE_L10": 3992,
      "Change": 3993,
      "SIZE": 3994,
      "TOKEN_B": 3995,
      "_dependencies": 3996,
      "ConvertingList": 3997,
      "ConvertingTuple": 3998,
      "request_middleware": 3999,
      "FIELD": 4000,
      "ADD": 4001,
      "correct": 4002,
      "full_path": 4003,
      "square": 4004,
      "squash": 4005,
      "combination": 4006,
      "phone": 4007,
      "issue": 4008,
      "module_has_submodule": 4009,
      "separators": 4010,
      "choice_value": 4011,
      "=\"{": 4012,
      "termine": 4013,
      "allow_empty_": 4014,
      "EscapeData": 4015,
      "Signature": 4016,
      "normalize_": 4017,
      "author_link": 4018,
      "Memcached": 4019,
      "candidate_": 4020,
      "numeric": 4021,
      "receiver": 4022,
      "check_for_migrations": 4023,
      "total_form_count": 4024,
      "';',": 4025,
      "difference": 4026,
      "daemonize": 4027,
      "sync": 4028,
      "piece": 4029,
      "context_extras": 4030,
      "abcdefg": 4031,
      "CREATE": 4032,
      "IGN": 4033,
      "lexer": 4034,
      "surround": 4035,
      "needs_autoescape": 4036,
      "delete_first_token": 4037,
      "old_method_name": 4038,
      "color_style": 4039,
      "root_": 4040,
      "123456789": 4041,
      "fragment": 4042,
      "get_default_timezone": 4043,
      "symlink": 4044,
      "loaded_object": 4045,
      "DJANGO_": 4046,
      "Merge": 4047,
      "medium": 4048,
      "stioner": 4049,
      "multiplication": 4050,
      "CycleNode": 4051,
      "Dumper": 4052,
      "NaN": 4053,
      "nofollow": 4054,
      "relative": 4055,
      "subtracted": 4056,
      "parenthe": 4057,
      "__len__": 4058,
      "__copy__": 4059,
      "__contains__": 4060,
      "__eq__": 4061,
      "get_backend_timeout": 4062,
      "comprehension": 4063,
      "streaming_content": 4064,
      "html_class_attr": 4065,
      "SELECT": 4066,
      "comment_lineno_cache": 4067,
      "bytes_to_text": 4068,
      "USE_L10N": 4069,
      "TOKEN_BLOCK": 4070,
      "MemcachedCache": 4071,
      "#-": 4072,
      "'!": 4073,
      "'()": 4074,
      "31": 4075,
      "300": 4076,
      "42": 4077,
      ";',": 4078,
      ">%(": 4079,
      "?\\": 4080,
      "Block": 4081,
      "BRA": 4082,
      "CL": 4083,
      "C_": 4084,
      "ECA": 4085,
      "IST": 4086,
      "IPython": 4087,
      "IF_IN": 4088,
      "LENG": 4089,
      "NING": 4090,
      "Over": 4091,
      "POST": 4092,
      "SU": 4093,
      "SSL": 4094,
      "Tri": 4095,
      "Test": 4096,
      "TRI": 4097,
      "Zip": 4098,
      "ZER": 4099,
      "][": 4100,
      "_1": 4101,
      "_for": 4102,
      "_var": 4103,
      "_decorator": 4104,
      "_table": 4105,
      "_resolve": 4106,
      "_PALETTE": 4107,
      "_subtype": 4108,
      "_auto_created": 4109,
      "_popu": 4110,
      "_expire_info": 4111,
      "`%": 4112,
      "``": 4113,
      "aver": 4114,
      "car": 4115,
      "cing": 4116,
      "cri": 4117,
      "cwords": 4118,
      "dry": 4119,
      "drop": 4120,
      "ei": 4121,
      "ele": 4122,
      "echo": 4123,
      "fh": 4124,
      "got": 4125,
      "ios": 4126,
      "jp": 4127,
      "kind": 4128,
      "mtime": 4129,
      "mini": 4130,
      "np": 4131,
      "null": 4132,
      "npgettext": 4133,
      "ored": 4134,
      "slots": 4135,
      "tar": 4136,
      "tty": 4137,
      "tpli": 4138,
      "utes": 4139,
      "yload": 4140,
      "zlib": 4141,
      "{}": 4142,
      "},": 4143,
      "incr": 4144,
      "thefile": 4145,
      "secre": 4146,
      "recur": 4147,
      "reader": 4148,
      "tend": 4149,
      "ard_": 4150,
      "alone": 4151,
      "alter": 4152,
      "along": 4153,
      "tio": 4154,
      "tifier": 4155,
      "determine": 4156,
      "wiht": 4157,
      "lear": 4158,
      "suc": 4159,
      "unget": 4160,
      "ofile": 4161,
      "mething": 4162,
      "subset": 4163,
      "like": 4164,
      "fist": 4165,
      "fill": 4166,
      "mpath": 4167,
      "dicti": 4168,
      "payload": 4169,
      "chron": 4170,
      "__file": 4171,
      "__next": 4172,
      "__exit": 4173,
      "__enter": 4174,
      "__deli": 4175,
      "classmethod": 4176,
      "getLog": 4177,
      "',',": 4178,
      "d_item": 4179,
      "ratio": 4180,
      "base_path": 4181,
      "base36": 4182,
      "most": 4183,
      "admin": 4184,
      "ressed": 4185,
      "quit": 4186,
      "chemy": 4187,
      "igu": 4188,
      "ckets": 4189,
      "latest_": 4190,
      "get_template_": 4191,
      "get_queryset": 4192,
      "date_format": 4193,
      "format_module": 4194,
      "created_models": 4195,
      "firm": 4196,
      "opt_": 4197,
      "optim": 4198,
      "usable": 4199,
      "urlparse": 4200,
      "featu": 4201,
      "utive": 4202,
      "per_page": 4203,
      "popen": 4204,
      "NoReverse": 4205,
      "Inst": 4206,
      "compressed": 4207,
      "union": 4208,
      "to_path": 4209,
      "to_field": 4210,
      "endpos": 4211,
      "model_class": 4212,
      "how": 4213,
      "is_hidden": 4214,
      "is_reversed": 4215,
      "is_usable": 4216,
      "second_item": 4217,
      "splitext": 4218,
      "ATUS": 4219,
      "Replace": 4220,
      "started": 4221,
      "myString": 4222,
      "ORECA": 4223,
      "splitting": 4224,
      "ALLO": 4225,
      "new_file": 4226,
      "backgro": 4227,
      "translate": 4228,
      "transfer": 4229,
      "Decl": 4230,
      "exec_info": 4231,
      "compiled_": 4232,
      "_reset": 4233,
      "mbigu": 4234,
      "(?!": 4235,
      "min_length": 4236,
      "minutes": 4237,
      "style_list": 4238,
      "style_func": 4239,
      "FileField": 4240,
      "wrapping": 4241,
      "main_func": 4242,
      "STATUS": 4243,
      "ityError": 4244,
      "registe": 4245,
      "signing": 4246,
      "_cache_key": 4247,
      "Unreadable": 4248,
      "TIC": 4249,
      "whitelist": 4250,
      "fixture_dir": 4251,
      "(),": 4252,
      "()`": 4253,
      "default_kwargs": 4254,
      "query_string": 4255,
      "'::": 4256,
      "block_context": 4257,
      "years": 4258,
      "ate_signal": 4259,
      "System": 4260,
      "rel_model": 4261,
      "current_token": 4262,
      "floored": 4263,
      "FIL": 4264,
      "Enti": 4265,
      "script_name": 4266,
      "(?:\\": 4267,
      "management_form": 4268,
      "old_style_list": 4269,
      "UTC": 4270,
      "utf8": 4271,
      "SafeBytes": 4272,
      "SafeDumper": 4273,
      "bind": 4274,
      "email_message": 4275,
      "empty_permitted": 4276,
      "template_response": 4277,
      "ing_bits": 4278,
      "ing_writers": 4279,
      "exc_value": 4280,
      "UNK": 4281,
      "concatenating": 4282,
      "negate": 4283,
      "CheckMessage": 4284,
      "LE_BRA": 4285,
      "migrate_signal": 4286,
      "followed": 4287,
      "HttpResponseNot": 4288,
      "_cull_frequency": 4289,
      "nonzero": 4290,
      "cache_clear": 4291,
      "cache_model_class": 4292,
      "failu": 4293,
      "avoid_": 4294,
      "child_": 4295,
      "speci": 4296,
      "can_order": 4297,
      "fk_name": 4298,
      "fks_to_": 4299,
      "pubdate": 4300,
      "IPAddress": 4301,
      "refto": 4302,
      "MigrationExec": 4303,
      "[^\"": 4304,
      "delimited": 4305,
      "hidden_widget": 4306,
      "compatibility": 4307,
      "duplicates": 4308,
      "decimal_pos": 4309,
      "Last": 4310,
      "SIG": 4311,
      "SION": 4312,
      "potfiles": 4313,
      "new_method_name": 4314,
      "constant": 4315,
      "included": 4316,
      "include_auto_created": 4317,
      "resolved_kwargs": 4318,
      "\"\"\"": 4319,
      "process_response": 4320,
      "identity": 4321,
      "remaining_bits": 4322,
      "ASCI": 4323,
      "Proxy": 4324,
      "termios": 4325,
      "Signer": 4326,
      "bring": 4327,
      "print_": 4328,
      "TEMPLATE_STR": 4329,
      "Prints": 4330,
      "tabs": 4331,
      "urlsplit": 4332,
      "Metaclass": 4333,
      "Raise": 4334,
      "plan_node": 4335,
      "PALETTES": 4336,
      "';'": 4337,
      "md5": 4338,
      "selected_fields": 4339,
      "selected_choices": 4340,
      "MONTHS_": 4341,
      "Locale": 4342,
      "wsgi_opts": 4343,
      "wsgi_application": 4344,
      "pieces": 4345,
      "TIME_INPUT_FORMATS": 4346,
      "alternatives": 4347,
      "TemporaryFile": 4348,
      "non_form_errors": 4349,
      "ING_IF_IN": 4350,
      "working": 4351,
      "waiting_writers": 4352,
      "_is_rendered": 4353,
      "click": 4354,
      "setlistdefault": 4355,
      "taglib_module": 4356,
      "webdriver": 4357,
      "VALID": 4358,
      "_changeset": 4359,
      "dummy": 4360,
      "Make": 4361,
      "NumberInput": 4362,
      "Manage": 4363,
      "PostError": 4364,
      "cmp_fmt": 4365,
      "latin": 4366,
      "email_messages": 4367,
      "send_messages": 4368,
      "find_template_cache": 4369,
      "IPv6": 4370,
      "_LazyModule": 4371,
      "git_changeset": 4372,
      "span": 4373,
      "inverse_match": 4374,
      "Creating": 4375,
      "SINGLE_BRA": 4376,
      "XMLGenerator": 4377,
      "normpath": 4378,
      "COOKIES": 4379,
      "priority": 4380,
      "sentence": 4381,
      "_catalog": 4382,
      "memoryview": 4383,
      "IGNORECA": 4384,
      "LENGTH": 4385,
      "jpg": 4386,
      "tplib": 4387,
      "__file__": 4388,
      "__next__": 4389,
      "__exit__": 4390,
      "__enter__": 4391,
      "__delitem__": 4392,
      "getLogger": 4393,
      "format_module_path": 4394,
      "features": 4395,
      "popen_wrapper": 4396,
      "NoReverseMatch": 4397,
      "ALLOWE": 4398,
      "background": 4399,
      "UnreadablePostError": 4400,
      "avoid_wrapping": 4401,
      "fks_to_parent": 4402,
      "IPAddressField": 4403,
      "MigrationExecutor": 4404,
      "ASCII": 4405,
      "TEMPLATE_STRING_IF_IN": 4406,
      "SINGLE_BRACE_": 4407,
      "IGNORECASE": 4408,
      "TEMPLATE_STRING_IF_INVALID": 4409,
      "\"%(": 4410,
      "'?": 4411,
      "'(?:": 4412,
      "'[^": 4413,
      "):": 4414,
      ")]`": 4415,
      ").\".": 4416,
      ",\\": 4417,
      "/>',": 4418,
      "05": 4419,
      "07": 4420,
      "0123456789": 4421,
      "2numeric": 4422,
      "37": 4423,
      "500": 4424,
      "62": 4425,
      "859": 4426,
      ":\\": 4427,
      "?)": 4428,
      "AD_": 4429,
      "CTION": 4430,
      "Clear": 4431,
      "DN": 4432,
      "DO": 4433,
      "Doc": 4434,
      "Day": 4435,
      "Emp": 4436,
      "Eve": 4437,
      "EKD": 4438,
      "FC": 4439,
      "Fl": 4440,
      "IT": 4441,
      "Jan": 4442,
      "LAP": 4443,
      "Middle": 4444,
      "MTP": 4445,
      "MMENT": 4446,
      "Out": 4447,
      "One": 4448,
      "Open": 4449,
      "OVER": 4450,
      "PES": 4451,
      "Rel": 4452,
      "Spa": 4453,
      "SMTP": 4454,
      "Tok": 4455,
      "TING": 4456,
      "TRA": 4457,
      "Ver": 4458,
      "Vary": 4459,
      "Vie": 4460,
      "XY": 4461,
      "\\/": 4462,
      "_result": 4463,
      "_exception": 4464,
      "_values": 4465,
      "_frame": 4466,
      "_end": 4467,
      "_os": 4468,
      "_handler": 4469,
      "_msg": 4470,
      "_encode": 4471,
      "_cls": 4472,
      "_classes": 4473,
      "_migrations": 4474,
      "_chunk": 4475,
      "_OK": 4476,
      "_boundary": 4477,
      "_changed": 4478,
      "_generate": 4479,
      "_body": 4480,
      "_loc": 4481,
      "_expr": 4482,
      "_of_": 4483,
      "_override": 4484,
      "_ordering": 4485,
      "_writers": 4486,
      "_cookie_": 4487,
      "_locale_": 4488,
      "bz": 4489,
      "bpython": 4490,
      "cer": 4491,
      "d0": 4492,
      "ef": 4493,
      "edi": 4494,
      "ek_": 4495,
      "fs_": 4496,
      "fcnt": 4497,
      "gt": 4498,
      "gu": 4499,
      "gz": 4500,
      "hist": 4501,
      "ide": 4502,
      "ipython": 4503,
      "js_": 4504,
      "l1": 4505,
      "link_": 4506,
      "mi": 4507,
      "mil": 4508,
      "nig": 4509,
      "ope": 4510,
      "ound": 4511,
      "rase": 4512,
      "tls": 4513,
      "upath": 4514,
      "uped": 4515,
      "vot": 4516,
      "wal": 4517,
      "xx": 4518,
      "zfile": 4519,
      "|\\": 4520,
      "this_": 4521,
      "thous": 4522,
      "inplural": 4523,
      "met": 4524,
      "anize": 4525,
      "stand": 4526,
      "seek": 4527,
      "real": 4528,
      "repe": 4529,
      "real_": 4530,
      "release": 4531,
      "reference": 4532,
      "tell": 4533,
      "arug": 4534,
      "alt": 4535,
      "tic": 4536,
      "desc": 4537,
      "lege": 4538,
      "fork": 4539,
      "isat": 4540,
      "ished": 4541,
      "unsplit": 4542,
      "unded": 4543,
      "strnig": 4544,
      "ashed": 4545,
      "ified": 4546,
      "atable": 4547,
      "calling": 4548,
      "subs": 4549,
      "subclass": 4550,
      "submit": 4551,
      "resultclass": 4552,
      "role": 4553,
      "rounded": 4554,
      "cont": 4555,
      "consec": 4556,
      "confirm": 4557,
      "pagate": 4558,
      "from_string": 4559,
      "covert": 4560,
      "noinput": 4561,
      "expect": 4562,
      "chr": 4563,
      "__ne": 4564,
      "__offset": 4565,
      "__nonzero": 4566,
      "key_func": 4567,
      "getIn": 4568,
      "lay": 4569,
      "d_value": 4570,
      "default_list": 4571,
      "filesize": 4572,
      "formset": 4573,
      "data_value": 4574,
      "datastruc": 4575,
      "integer_types": 4576,
      "ErrorList": 4577,
      "by_type": 4578,
      "obso": 4579,
      "djangojs": 4580,
      "attrib": 4581,
      "attrgetter": 4582,
      "ched": 4583,
      "timetuple": 4584,
      "codecs": 4585,
      "conversion": 4586,
      "Trunc": 4587,
      "get_node": 4588,
      "get_version": 4589,
      "get_app_config": 4590,
      "get_migr": 4591,
      "get_bytes_": 4592,
      "get_hist": 4593,
      "format_type": 4594,
      "formatters": 4595,
      "uld_": 4596,
      "convert_": 4597,
      "propagate": 4598,
      "container": 4599,
      "s_cache": 4600,
      "s_opt": 4601,
      "s_in_": 4602,
      "s_by_type": 4603,
      "pyplot": 4604,
      "url_name": 4605,
      "url_info": 4606,
      "urlresolver": 4607,
      "urlunsplit": 4608,
      "ferent": 4609,
      "tempor": 4610,
      "prec": 4611,
      "predi": 4612,
      "app_dict": 4613,
      "app_template_dirs": 4614,
      "Fix": 4615,
      "itervalues": 4616,
      "ip_": 4617,
      "tagname": 4618,
      "linebreaks": 4619,
      "Info": 4620,
      "compar": 4621,
      "Com": 4622,
      "uniq": 4623,
      "unix": 4624,
      "to_field_name": 4625,
      "model_dependencies": 4626,
      "address_": 4627,
      "E_ERROR": 4628,
      "finder": 4629,
      "is_dst": 4630,
      "is_localiz": 4631,
      "add_fields": 4632,
      "write_": 4633,
      "CommandParser": 4634,
      "ternative": 4635,
      "joining": 4636,
      "join_token": 4637,
      "ATTRI": 4638,
      "Expat": 4639,
      "Regi": 4640,
      "mydict": 4641,
      "my_dict": 4642,
      "error_msg": 4643,
      "redu": 4644,
      "Control": 4645,
      "msgmerge": 4646,
      "msgattrib": 4647,
      "msguniq": 4648,
      "BaseConver": 4649,
      "BaseModel": 4650,
      "BaseContext": 4651,
      "BaseInline": 4652,
      "BaseMemcachedCache": 4653,
      "row_data": 4654,
      "row_en": 4655,
      "field_desc": 4656,
      "safe_join": 4657,
      "unicodedata": 4658,
      "migration_": 4659,
      "ready": 4660,
      "escapejs": 4661,
      "new_file_name": 4662,
      "loop_dict": 4663,
      "html_name": 4664,
      "render_callback": 4665,
      "nerText": 4666,
      "use_ssl": 4667,
      "input_class": 4668,
      "input_val": 4669,
      "logical": 4670,
      "sorting": 4671,
      "TED": 4672,
      "_reverse": 4673,
      "FAST": 4674,
      "loads": 4675,
      "grouped": 4676,
      "decimals": 4677,
      "signe": 4678,
      "RES": 4679,
      "http_date": 4680,
      "properly": 4681,
      "groupby": 4682,
      "sorted_": 4683,
      "only_": 4684,
      "ied_": 4685,
      "MultiAl": 4686,
      "TICE": 4687,
      "Getting": 4688,
      "fixture_dirs": 4689,
      "default_args": 4690,
      "default_validators": 4691,
      "default_locale_path": 4692,
      "view_func": 4693,
      "block_name": 4694,
      "_format_cache": 4695,
      "EncodeError": 4696,
      "flask": 4697,
      "saved_": 4698,
      "MIS": 4699,
      "active_writers": 4700,
      "smtplib": 4701,
      "unique_checks": 4702,
      "parse_error": 4703,
      "domain_": 4704,
      "old_field_name": 4705,
      "week_": 4706,
      "autodetector": 4707,
      "testlist": 4708,
      "Timezone": 4709,
      "ted_path": 4710,
      "D_HOST": 4711,
      "cure": 4712,
      "load_initial_data": 4713,
      "quote_name": 4714,
      "_pot": 4715,
      "from_wsgi": 4716,
      "Selenium": 4717,
      "file_ext": 4718,
      "file_complete": 4719,
      "create_token": 4720,
      "project_name": 4721,
      "validate_max": 4722,
      "validate_min": 4723,
      "expired": 4724,
      "comments": 4725,
      "merge_migrations": 4726,
      "NOTICE": 4727,
      "_css": 4728,
      "_cull": 4729,
      "normal": 4730,
      "plain": 4731,
      "EmailMultiAl": 4732,
      "Meth": 4733,
      "addrport": 4734,
      "Named": 4735,
      "DICT": 4736,
      "should_": 4737,
      "SETTING": 4738,
      "_args_message": 4739,
      "S_NAME": 4740,
      "S_MODUL": 4741,
      "refs": 4742,
      "applied": 4743,
      "buffer_": 4744,
      "RegexValidator": 4745,
      "1000": 4746,
      "final_output": 4747,
      "Iterating": 4748,
      "SimpleTemplateResponse": 4749,
      "TYPES": 4750,
      "mime_type": 4751,
      "LOCK_EX": 4752,
      "VariableNode": 4753,
      "ABC": 4754,
      "shutil": 4755,
      "display_num": 4756,
      "UnicodeEncodeError": 4757,
      "_COMMENT": 4758,
      "That": 4759,
      "s_to_delete": 4760,
      "MultipleHiddenInput": 4761,
      "'^\\": 4762,
      "LANGUAGES": 4763,
      "TOKEN_COMMENT": 4764,
      "timesince": 4765,
      "initialized": 4766,
      "SplitDateTimeWidget": 4767,
      "exit_code": 4768,
      "entity": 4769,
      "request_repr": 4770,
      "EXIST": 4771,
      "known_models": 4772,
      "selected": 4773,
      "phrase": 4774,
      "closable": 4775,
      "dotted_path": 4776,
      "RequestContext": 4777,
      "choice_input_class": 4778,
      "FILE_CHARSET": 4779,
      "PED": 4780,
      "WSGIRequest": 4781,
      "_post_migrate": 4782,
      "filter_expr": 4783,
      "\"<%": 4784,
      "Found": 4785,
      "IfParser": 4786,
      "WARNING": 4787,
      "_regex_dict": 4788,
      "counters": 4789,
      "urlsafe": 4790,
      "missing_args_message": 4791,
      "PREV": 4792,
      "Radio": 4793,
      "slash": 4794,
      "__getstate__": 4795,
      "members": 4796,
      "JSONEncoder": 4797,
      "BadHeader": 4798,
      "BLOCK_TAG_START": 4799,
      "BLOCK_CONTEXT_": 4800,
      "different": 4801,
      "Translation": 4802,
      "LocalTimezone": 4803,
      "css_class": 4804,
      "relations": 4805,
      "SERVER": 4806,
      "IGH": 4807,
      "_INFO": 4808,
      "feed_url": 4809,
      "feed_copyright": 4810,
      "TIONS": 4811,
      "DatabaseCache": 4812,
      "WEEKD": 4813,
      "pivot": 4814,
      "renamed_method": 4815,
      "structure": 4816,
      "TOKEN_VAR": 4817,
      "leading_dir": 4818,
      "1_weekday": 4819,
      "CheckboxInput": 4820,
      "leave_locale_": 4821,
      "writing": 4822,
      "SuspiciousOperation": 4823,
      "brackets": 4824,
      "ns_pattern": 4825,
      "vary_headers": 4826,
      "notation_name": 4827,
      "modified_": 4828,
      "MAX_NUM": 4829,
      "slugify": 4830,
      "_delegate_bytes": 4831,
      "flowError": 4832,
      "reset_sequences": 4833,
      "blankout": 4834,
      "CESS": 4835,
      "CGI_": 4836,
      "_load_serializers": 4837,
      "jan1_weekday": 4838,
      "xc3": 4839,
      "escaping": 4840,
      "DELETE": 4841,
      "EMPTY_DICT": 4842,
      "guessed_filename": 4843,
      "_unget_hist": 4844,
      "visible_": 4845,
      "USE_TZ": 4846,
      "phone2numeric": 4847,
      "issue_count": 4848,
      "normalize_newlines": 4849,
      "syncdb": 4850,
      "surrounding": 4851,
      "'()'": 4852,
      "OverflowError": 4853,
      "Trimming": 4854,
      "average": 4855,
      "dry_run": 4856,
      "either": 4857,
      "Management": 4858,
      "DNS_NAME": 4859,
      "Event": 4860,
      "LAPPED": 4861,
      "Middleware": 4862,
      "Output": 4863,
      "OVERLAPPED": 4864,
      "View": 4865,
      "_locs_": 4866,
      "bz2": 4867,
      "editable": 4868,
      "fs_encoding": 4869,
      "fcntl": 4870,
      "standard_": 4871,
      "legend": 4872,
      "isatty": 4873,
      "atable_models": 4874,
      "consecutive": 4875,
      "__ne__": 4876,
      "__nonzero__": 4877,
      "getInnerText": 4878,
      "datastructures": 4879,
      "obsolete": 4880,
      "Truncator": 4881,
      "get_nodes_by_type": 4882,
      "get_migratable_models": 4883,
      "get_bytes_from_wsgi": 4884,
      "s_in_fixture": 4885,
      "urlresolvers": 4886,
      "is_localized": 4887,
      "ternatives": 4888,
      "join_tokens": 4889,
      "ATTRIB": 4890,
      "ExpatParser": 4891,
      "BaseConverter": 4892,
      "BaseModelFormSet": 4893,
      "BaseInlineFormSet": 4894,
      "row_ender": 4895,
      "FASTCGI_": 4896,
      "week_number": 4897,
      "EmailMultiAlternatives": 4898,
      "SETTINGS_MODUL": 4899,
      "display_num_errors": 4900,
      "BadHeaderError": 4901,
      "BLOCK_CONTEXT_KEY": 4902,
      "WEEKDAY": 4903,
      "leave_locale_alone": 4904,
      "_unget_history": 4905,
      "visible_issue_count": 4906,
      "SETTINGS_MODULE": 4907,
      "'\".": 4908,
      "(.": 4909,
      ").'.": 4910,
      "*)": 4911,
      "**": 4912,
      "*',": 4913,
      "1c": 4914,
      "29": 4915,
      "2D": 4916,
      "304": 4917,
      "8859": 4918,
      "98": 4919,
      ":(?": 4920,
      ";'": 4921,
      "Ambigu": 4922,
      "Col": 4923,
      "CATE": 4924,
      "CRI": 4925,
      "Don": 4926,
      "DST": 4927,
      "EL": 4928,
      "Ent": 4929,
      "Ite": 4930,
      "IRE": 4931,
      "Jo": 4932,
      "Js": 4933,
      "LP": 4934,
      "L_": 4935,
      "Liter": 4936,
      "LAB": 4937,
      "M_": 4938,
      "Mod": 4939,
      "MIN_": 4940,
      "MARK": 4941,
      "NEX": 4942,
      "OL": 4943,
      "POR": 4944,
      "Rss": 4945,
      "RUN": 4946,
      "Sum": 4947,
      "Sear": 4948,
      "UES": 4949,
      "YY": 4950,
      "Your": 4951,
      "[%": 4952,
      "]'": 4953,
      "])": 4954,
      "]\\": 4955,
      "_a": 4956,
      "_m": 4957,
      "_in": 4958,
      "_meth": 4959,
      "_create": 4960,
      "_new_": 4961,
      "_find": 4962,
      "_choices": 4963,
      "_warning": 4964,
      "_serializer": 4965,
      "_delim": 4966,
      "_lang_code": 4967,
      "_labels": 4968,
      "_lef": 4969,
      "_vars": 4970,
      "_map": 4971,
      "_Moved": 4972,
      "_localtime": 4973,
      "_construct": 4974,
      "_coerce": 4975,
      "_pk_field": 4976,
      "_counter": 4977,
      "_validation": 4978,
      "_max_entries": 4979,
      "_request_middleware": 4980,
      "_container": 4981,
      "bmatch": 4982,
      "brow": 4983,
      "bid_": 4984,
      "d2": 4985,
      "done": 4986,
      "dCycleNode": 4987,
      "epo": 4988,
      "etags": 4989,
      "fget": 4990,
      "fk_": 4991,
      "fdel": 4992,
      "fron": 4993,
      "gd": 4994,
      "gn": 4995,
      "gre": 4996,
      "happe": 4997,
      "hlen": 4998,
      "hol": 4999,
      "ith": 5000,
      "iant": 5001,
      "jk": 5002,
      "king": 5003,
      "kinter": 5004,
      "l2": 5005,
      "mro": 5006,
      "mts": 5007,
      "mcs": 5008,
      "mix": 5009,
      "nm": 5010,
      "nel": 5011,
      "oy": 5012,
      "oan": 5013,
      "ose": 5014,
      "pal": 5015,
      "plist": 5016,
      "pofile": 5017,
      "qn": 5018,
      "qr": 5019,
      "ring": 5020,
      "rtu": 5021,
      "rXMLGenerator": 5022,
      "scal": 5023,
      "sError": 5024,
      "sBy": 5025,
      "sRegex": 5026,
      "td": 5027,
      "u04": 5028,
      "vw": 5029,
      "wan": 5030,
      "xe": 5031,
      "xd0": 5032,
      "|[": 5033,
      "}{": 5034,
      "thand_": 5035,
      "inspe": 5036,
      "inja": 5037,
      "thext": 5038,
      "the_path": 5039,
      "anded_": 5040,
      "seper": 5041,
      "secure": 5042,
      "references": 5043,
      "retrieve": 5044,
      "tex": 5045,
      "around": 5046,
      "already": 5047,
      "orthand_": 5048,
      "tized": 5049,
      "dev": 5050,
      "destr": 5051,
      "deactiv": 5052,
      "delay": 5053,
      "wit": 5054,
      "argu": 5055,
      "ingClass": 5056,
      "tover": 5057,
      "formed": 5058,
      "forbid_": 5059,
      "unhandle": 5060,
      "unlock": 5061,
      "unlink": 5062,
      "unzip": 5063,
      "lt__": 5064,
      "str_number": 5065,
      "asca": 5066,
      "as_string": 5067,
      "subdir": 5068,
      "substrings": 5069,
      "subtitle": 5070,
      "live": 5071,
      "five": 5072,
      "mp3": 5073,
      "concre": 5074,
      "concat": 5075,
      "namelist": 5076,
      "list2": 5077,
      "pathext": 5078,
      "fromtimestamp": 5079,
      "exe": 5080,
      "exhau": 5081,
      "ch2": 5082,
      "ch_": 5083,
      "__set": 5084,
      "__args": 5085,
      "__kw": 5086,
      "__language": 5087,
      "__starttag": 5088,
      "__lt__": 5089,
      "key1": 5090,
      "pend": 5091,
      "getattr": 5092,
      "getElement": 5093,
      "ven": 5094,
      "lacing": 5095,
      "d_text": 5096,
      "d_nodelist": 5097,
      "d_params": 5098,
      "silen": 5099,
      "filemsg": 5100,
      "form_class": 5101,
      "data_list": 5102,
      "paras": 5103,
      "added": 5104,
      "addition": 5105,
      "adja": 5106,
      "installe": 5107,
      "idstring": 5108,
      "time_": 5109,
      "maj": 5110,
      "_namedCycleNode": 5111,
      "replacing": 5112,
      "module_name": 5113,
      "module_to_": 5114,
      "here": 5115,
      "get_method": 5116,
      "get_exception": 5117,
      "get_field": 5118,
      "get_model": 5119,
      "get_commands": 5120,
      "get_internal_": 5121,
      "get_supported_": 5122,
      "date_check": 5123,
      "date_checks": 5124,
      "typed": 5125,
      "mmutable": 5126,
      "out_log": 5127,
      "moved_attributes": 5128,
      "move_safe": 5129,
      "usr": 5130,
      "urlunquote": 5131,
      "fed": 5132,
      "option_label": 5133,
      "preform": 5134,
      "pretty": 5135,
      "app_path": 5136,
      "app_models": 5137,
      "iterkeys": 5138,
      "iterlists": 5139,
      "permu": 5140,
      "percent": 5141,
      "fixed_": 5142,
      "virtu": 5143,
      "ableFileInput": 5144,
      "Inter": 5145,
      "InMemory": 5146,
      "al_row": 5147,
      "illeg": 5148,
      "configured": 5149,
      "being": 5150,
      "become": 5151,
      "column_names": 5152,
      "number_format": 5153,
      "to_language": 5154,
      "t_unicode": 5155,
      "adding": 5156,
      "add__": 5157,
      "E_SEPARATOR": 5158,
      "final": 5159,
      "finished": 5160,
      "finingClass": 5161,
      "local_": 5162,
      "T_PATTERN": 5163,
      "is_relation": 5164,
      "is_templa": 5165,
      "is_naive": 5166,
      "add_item_": 5167,
      "DEPRE": 5168,
      "Extract": 5169,
      "Extend": 5170,
      "Rename": 5171,
      "Return": 5172,
      "Reference": 5173,
      "error_row": 5174,
      "pythonpath": 5175,
      "msgid": 5176,
      "field_list": 5177,
      "field_output": 5178,
      "field_stream": 5179,
      "sole": 5180,
      "something": 5181,
      "gettext_module": 5182,
      "tpl": 5183,
      "expanded_": 5184,
      "currently": 5185,
      "ALI": 5186,
      "INDE": 5187,
      "escape_html": 5188,
      "new_list": 5189,
      "new_context": 5190,
      "new_ip": 5191,
      "backout": 5192,
      "SERI": 5193,
      "language_var": 5194,
      "use_only": 5195,
      "use_tls": 5196,
      "1010": 5197,
      "1024": 5198,
      "DefiningClass": 5199,
      "_reloader": 5200,
      "multi_line": 5201,
      "styles": 5202,
      "DEFAULT_LOCALE_": 5203,
      "axes": 5204,
      "variable_name": 5205,
      "groupdict": 5206,
      "Unsupported": 5207,
      "_modules": 5208,
      "register_to": 5209,
      "`[('": 5210,
      "TIAL": 5211,
      "fixture_label": 5212,
      "fixture_labels": 5213,
      "viewname": 5214,
      "LOADER": 5215,
      "LOAD_": 5216,
      "ate_all": 5217,
      "ENT": 5218,
      "ENCOD": 5219,
      "Syn": 5220,
      "allow_c": 5221,
      "update_wrapper": 5222,
      "current_len": 5223,
      "CacheBackend": 5224,
      "_func_": 5225,
      "2011": 5226,
      "translation_function": 5227,
      "(?:\\\\": 5228,
      "ANSL": 5229,
      "user_": 5230,
      "user_function": 5231,
      "_iterlists": 5232,
      "active_readers": 5233,
      "handle_fk_": 5234,
      "parse_args": 5235,
      "middleware_class": 5236,
      "static": 5237,
      "old_list": 5238,
      "old_attr": 5239,
      "old_file_name": 5240,
      "initial_prefix": 5241,
      "UTE_SEPARATOR": 5242,
      "_get_pk_": 5243,
      "_to_file": 5244,
      "EST_": 5245,
      "on_phrase": 5246,
      "orig_file": 5247,
      "orig_vars": 5248,
      "ModelMultipleChoiceField": 5249,
      "outer": 5250,
      "binascii": 5251,
      "template_localtime": 5252,
      "D_LOCAL": 5253,
      "truncation": 5254,
      "'/',": 5255,
      "_fmts": 5256,
      "ascri": 5257,
      "auth_": 5258,
      "TextNode": 5259,
      "mod_name": 5260,
      "modify": 5261,
      "file_size": 5262,
      "file_permissions_mode": 5263,
      "file_move_safe": 5264,
      "create_models": 5265,
      "sql_indexes": 5266,
      "sql_flush": 5267,
      "sql_destr": 5268,
      "original": 5269,
      "both_": 5270,
      "extend_nodelist": 5271,
      "multiple_": 5272,
      "HttpResponseRedirect": 5273,
      "_client": 5274,
      "absolute_path": 5275,
      "normcase": 5276,
      "normal_row": 5277,
      "server_": 5278,
      "PythonSerializer": 5279,
      "EmailMessage": 5280,
      "sequence_": 5281,
      "as_tuple": 5282,
      "as_ul": 5283,
      "as_widget": 5284,
      "`,`": 5285,
      "divid": 5286,
      "NameError": 5287,
      "zipfile": 5288,
      "can_import_": 5289,
      "DIR": 5290,
      "m2m_convert": 5291,
      "THO": 5292,
      "trans_": 5293,
      "InvalidCacheBackend": 5294,
      "MigrationLoader": 5295,
      "constructor": 5296,
      "check_test": 5297,
      "SimplerXMLGenerator": 5298,
      "----": 5299,
      "Creates": 5300,
      "shorthand_": 5301,
      "HEADER": 5302,
      "all_locales": 5303,
      "dirnames": 5304,
      "_COMMENT_": 5305,
      "Defused": 5306,
      "extra_attrs": 5307,
      "extra_headers": 5308,
      "USE_I18N": 5309,
      "ATOR_COMMENT_": 5310,
      "deprecation_warning": 5311,
      "'^[": 5312,
      "shells": 5313,
      "SerializerDoesNotExist": 5314,
      "Bound": 5315,
      "base64d": 5316,
      "_decl": 5317,
      "start_serialization": 5318,
      "image_": 5319,
      "request_finished": 5320,
      "db_for_": 5321,
      "capfirst": 5322,
      "full_clean": 5323,
      "DecimalField": 5324,
      "VERSION": 5325,
      "programs": 5326,
      "end_index": 5327,
      "end_serialization": 5328,
      "bidi": 5329,
      "FILE_UP": 5330,
      "CACHES": 5331,
      "MovedModule": 5332,
      "TOCOL": 5333,
      "TOTAL": 5334,
      "src_data": 5335,
      "TER_": 5336,
      "MyModel": 5337,
      "hijk": 5338,
      "creation_counter": 5339,
      "Runtime": 5340,
      "StopUpload": 5341,
      "detected": 5342,
      "show_value": 5343,
      "MIGRATE_LAB": 5344,
      "isolated_": 5345,
      "__getattr__": 5346,
      "LockFileEx": 5347,
      "REQUIRE": 5348,
      "construct_instance": 5349,
      "Module_six_moves_urllib_request": 5350,
      "APP": 5351,
      "_number_format": 5352,
      "tations": 5353,
      "obtained": 5354,
      "prepare_": 5355,
      "constant_arg": 5356,
      "CACHE_MIDDLEWARE_": 5357,
      "VARIABLE_TAG_START": 5358,
      "VARIABLE_ATTRIB": 5359,
      "synchron": 5360,
      "MediaDefiningClass": 5361,
      "BooleanSelect": 5362,
      "Alchemy": 5363,
      "PROTOCOL": 5364,
      "context_processors": 5365,
      "folders": 5366,
      "DatabaseError": 5367,
      "waiting": 5368,
      "NullBooleanSelect": 5369,
      "TagName": 5370,
      "client": 5371,
      "ogle": 5372,
      "trailing": 5373,
      "comment_notes": 5374,
      "TOKEN_TEXT": 5375,
      "windows": 5376,
      "VALUES": 5377,
      "_error_message": 5378,
      "_changed_data": 5379,
      "terminal": 5380,
      "_cached_filenames": 5381,
      "CONTEXT_SEPARATOR": 5382,
      "Disallowed": 5383,
      "seen_data": 5384,
      "unescape_string_": 5385,
      "used_column_names": 5386,
      "var_obj": 5387,
      "plural_form": 5388,
      "primary_key": 5389,
      "_callback_strs": 5390,
      "target_var": 5391,
      "internal_use_only": 5392,
      "TRANSL": 5393,
      "_globals": 5394,
      "templatize": 5395,
      "CONTENT_TYPE": 5396,
      "OPTIONS": 5397,
      "Write": 5398,
      "reason_phrase": 5399,
      "script_prefix": 5400,
      "COMMENT_TAG_START": 5401,
      "generic_lang_code": 5402,
      "get_language_bidi": 5403,
      "received": 5404,
      "ManyTo": 5405,
      "i18n_": 5406,
      "javascri": 5407,
      "stuvw": 5408,
      "symbol": 5409,
      "public": 5410,
      "accept_lang": 5411,
      "recipients": 5412,
      ">|<": 5413,
      "DATE_INPUT_FORMATS": 5414,
      "Offset": 5415,
      "cdata_tag": 5416,
      "tag_exists": 5417,
      "model_identifier": 5418,
      "directory_permissions_mode": 5419,
      "validate_ipv4_address": 5420,
      "logging_config": 5421,
      "shutdown_message": 5422,
      "whole_": 5423,
      "FIELDS": 5424,
      "ADDR": 5425,
      "candidate_subs": 5426,
      "abcdefghijk": 5427,
      "symlinks": 5428,
      "loaded_object_count": 5429,
      "MergeDict": 5430,
      "#-#-": 5431,
      "secret": 5432,
      "dictioan": 5433,
      "transfer_encoding": 5434,
      "TICAL": 5435,
      "FILTER_": 5436,
      "failures": 5437,
      "special": 5438,
      "RaisesRegex": 5439,
      "ClearableFileInput": 5440,
      "Document": 5441,
      "Flask": 5442,
      "arugment": 5443,
      "filesize_number_format": 5444,
      "predicate": 5445,
      "Comment": 5446,
      "unixfrom": 5447,
      "Registry": 5448,
      "Methods": 5449,
      "NamedTemporaryFile": 5450,
      "urlsafe_": 5451,
      "SERVER_": 5452,
      "AmbiguityError": 5453,
      "CATED_LOCAL": 5454,
      "CRITICAL": 5455,
      "Entry": 5456,
      "Items": 5457,
      "Literal": 5458,
      "Modified": 5459,
      "MIN_NUM": 5460,
      "NEXT": 5461,
      "Search": 5462,
      "_mtimes": 5463,
      "_delim_re": 5464,
      "_leftover": 5465,
      "_construct_form": 5466,
      "happened": 5467,
      "qrstuvw": 5468,
      "sByTagName": 5469,
      "want_unicode": 5470,
      "deactivate_all": 5471,
      "forbid_multi_line": 5472,
      "unhandled_params": 5473,
      "ascade": 5474,
      "concrete": 5475,
      "exhaust": 5476,
      "__starttag_text": 5477,
      "getElementsByTagName": 5478,
      "adjacent": 5479,
      "_namedCycleNodes": 5480,
      "get_supported_language_var": 5481,
      "permutations": 5482,
      "InMemoryUploadedFile": 5483,
      "is_templatized": 5484,
      "add_item_elements": 5485,
      "DEPRECATED_LOCAL": 5486,
      "expanded_template": 5487,
      "SERIALI": 5488,
      "DEFAULT_LOCALE_ENCOD": 5489,
      "allow_cascade": 5490,
      "_get_pk_val": 5491,
      "sql_destroy": 5492,
      "can_import_settings": 5493,
      "InvalidCacheBackendError": 5494,
      "shorthand_ip": 5495,
      "ATOR_COMMENT_MARK": 5496,
      "FILE_UPLOAD_": 5497,
      "MIGRATE_LABEL": 5498,
      "isolated_context": 5499,
      "REQUIRED": 5500,
      "VARIABLE_ATTRIBUTE_SEPARATOR": 5501,
      "unescape_string_literal": 5502,
      "TRANSLATOR_COMMENT_MARK": 5503,
      "dictioanry": 5504,
      "qrstuvwxyz": 5505,
      "forbid_multi_line_headers": 5506,
      "get_supported_language_variant": 5507,
      "DEPRECATED_LOCALES": 5508,
      "DEFAULT_LOCALE_ENCODING": 5509,
      "\")|": 5510,
      "\"[^\"": 5511,
      "#$": 5512,
      "#\\": 5513,
      "$\",": 5514,
      "'`": 5515,
      "'',": 5516,
      "')',": 5517,
      "'=',": 5518,
      ")(": 5519,
      ")\\\\": 5520,
      "*?": 5521,
      "+|": 5522,
      "+)'": 5523,
      "-`": 5524,
      "27": 5525,
      "2nd": 5526,
      "39": 5527,
      "45": 5528,
      ":\"": 5529,
      ":/": 5530,
      "<!": 5531,
      "={": 5532,
      ">\"": 5533,
      ">[": 5534,
      ">\".": 5535,
      "Ac": 5536,
      "AT_": 5537,
      "AUT": 5538,
      "BLE": 5539,
      "CR": 5540,
      "CS": 5541,
      "Cap": 5542,
      "CCESS": 5543,
      "End": 5544,
      "EEXIST": 5545,
      "Fu": 5546,
      "Flo": 5547,
      "GE": 5548,
      "GM": 5549,
      "HAN": 5550,
      "HIGH": 5551,
      "It": 5552,
      "ITIAL": 5553,
      "Jun": 5554,
      "Len": 5555,
      "MB": 5556,
      "Mar": 5557,
      "MAN": 5558,
      "NB": 5559,
      "N_": 5560,
      "Numpy": 5561,
      "On": 5562,
      "Pop": 5563,
      "PIP": 5564,
      "RLock": 5565,
      "RFC": 5566,
      "SH": 5567,
      "Spec": 5568,
      "SCR": 5569,
      "Tex": 5570,
      "VE": 5571,
      "We": 5572,
      "Win": 5573,
      "WRA": 5574,
      "]+)": 5575,
      "_8": 5576,
      "_self": 5577,
      "_get": 5578,
      "_space": 5579,
      "_content": 5580,
      "_config": 5581,
      "_help": 5582,
      "_exp": 5583,
      "_variable": 5584,
      "_update": 5585,
      "_js": 5586,
      "_urlconf": 5587,
      "_objects": 5588,
      "_queryset": 5589,
      "_thread": 5590,
      "_validator": 5591,
      "_whitespace": 5592,
      "_cast": 5593,
      "_home": 5594,
      "_num_pages": 5595,
      "_servers": 5596,
      "_non_form_errors": 5597,
      "_should_": 5598,
      "_closable": 5599,
      "_standard_": 5600,
      "_done": 5601,
      "`#": 5602,
      "`('": 5603,
      "ast": 5604,
      "act": 5605,
      "cut": 5606,
      "cted_": 5607,
      "dy": 5608,
      "dden": 5609,
      "ee": 5610,
      "fon": 5611,
      "fqdn": 5612,
      "gzip": 5613,
      "hy": 5614,
      "hum": 5615,
      "iti": 5616,
      "imatch": 5617,
      "lm": 5618,
      "lbp": 5619,
      "mum": 5620,
      "modu": 5621,
      "mute": 5622,
      "mapped": 5623,
      "npath": 5624,
      "ngettext_lazy": 5625,
      "null_f": 5626,
      "oke": 5627,
      "oct": 5628,
      "p1": 5629,
      "pprint": 5630,
      "pqrstuvwxyz": 5631,
      "rss": 5632,
      "scre": 5633,
      "sNode": 5634,
      "sMetaclass": 5635,
      "ure": 5636,
      "voke": 5637,
      "xor": 5638,
      "xls": 5639,
      "x80": 5640,
      "z0": 5641,
      "|%": 5642,
      "|%(": 5643,
      "ining": 5644,
      "inline": 5645,
      "in_dir": 5646,
      "incomplete": 5647,
      "inhi": 5648,
      "anch": 5649,
      "stor": 5650,
      "storage": 5651,
      "sel": 5652,
      "seq": 5653,
      "section": 5654,
      "reco": 5655,
      "resen": 5656,
      "redirect": 5657,
      "arative": 5658,
      "arbi": 5659,
      "alen": 5660,
      "alField": 5661,
      "oring": 5662,
      "orph": 5663,
      "tial": 5664,
      "tifu": 5665,
      "deconstruct": 5666,
      "dependencies": 5667,
      "degre": 5668,
      "sume": 5669,
      "arg_val": 5670,
      "forloop": 5671,
      "isn": 5672,
      "ison": 5673,
      "unif": 5674,
      "unsign": 5675,
      "unbound": 5676,
      "calle": 5677,
      "as_text": 5678,
      "ift": 5679,
      "ifest": 5680,
      "string1": 5681,
      "vals": 5682,
      "subtra": 5683,
      "sublist_": 5684,
      "result_args": 5685,
      "value_to_": 5686,
      "dic": 5687,
      "didn": 5688,
      "control": 5689,
      "tri": 5690,
      "trary": 5691,
      "listdir": 5692,
      "pad": 5693,
      "returning": 5694,
      "from_path": 5695,
      "notifier": 5696,
      "nopqrstuvwxyz": 5697,
      "exts": 5698,
      "excluding": 5699,
      "assig": 5700,
      "__D": 5701,
      "__Y": 5702,
      "__text": 5703,
      "__path": 5704,
      "__unicode": 5705,
      "__add__": 5706,
      "key_": 5707,
      "defined": 5708,
      "autifu": 5709,
      "getargs": 5710,
      "getAttribute": 5711,
      "look": 5712,
      "bom": 5713,
      "interest": 5714,
      "nesting": 5715,
      "attr_list": 5716,
      "idna": 5717,
      "paths_to_": 5718,
      "timeuntil": 5719,
      "code_list": 5720,
      "blem": 5721,
      "represen": 5722,
      "lsoup": 5723,
      "head": 5724,
      "height": 5725,
      "get_models": 5726,
      "get_valid_": 5727,
      "get_callable": 5728,
      "get_library": 5729,
      "get_git_changeset": 5730,
      "get_fixed_": 5731,
      "acy": 5732,
      "acces": 5733,
      "errors_": 5734,
      "format_": 5735,
      "formatdate": 5736,
      "all_fields": 5737,
      "replacement": 5738,
      "decr": 5739,
      "opname": 5740,
      "len_values": 5741,
      "first_page": 5742,
      "collect": 5743,
      "s_list": 5744,
      "s_dict": 5745,
      "s_between": 5746,
      "s_in_dir": 5747,
      "pyc": 5748,
      "urljoin": 5749,
      "curr": 5750,
      "temp_lib": 5751,
      "num_args": 5752,
      "context_instance": 5753,
      "prev": 5754,
      "prece": 5755,
      "prepend": 5756,
      "app_dirs": 5757,
      "peri": 5758,
      "performed": 5759,
      "existent": 5760,
      "izer": 5761,
      "ization": 5762,
      "templates": 5763,
      "tag_re": 5764,
      "vice": 5765,
      "vider": 5766,
      "lineno_": 5767,
      "Insert": 5768,
      "Initi": 5769,
      "var_format_string": 5770,
      "al_fields": 5771,
      "al_formatting": 5772,
      "matched": 5773,
      "beautifu": 5774,
      "nodetype": 5775,
      "compression": 5776,
      "computer": 5777,
      "ce_string": 5778,
      "check_path": 5779,
      "Comp": 5780,
      "unichr": 5781,
      "to_current_timezone": 5782,
      "to_builtins": 5783,
      "endif": 5784,
      "token_kwargs": 5785,
      "decorated": 5786,
      "remove_tags": 5787,
      "initialize": 5788,
      "connection_reset": 5789,
      "img": 5790,
      "T_KEY": 5791,
      "T_override": 5792,
      "is_valid_": 5793,
      "is_required": 5794,
      "is_overri": 5795,
      "is_prote": 5796,
      "is_silen": 5797,
      "add_root_": 5798,
      "add_truncation": 5799,
      "add_to_builtins": 5800,
      "\".\"": 5801,
      "001": 5802,
      "005": 5803,
      "tureHandler": 5804,
      "External": 5805,
      "Exhau": 5806,
      "FieldsMetaclass": 5807,
      "error_message": 5808,
      "msg_count": 5809,
      "BaseInput": 5810,
      "BaseForm": 5811,
      "BaseValidator": 5812,
      "BaseFormSet": 5813,
      "BaseTempor": 5814,
      "BaseArchive": 5815,
      "BaseModelForm": 5816,
      "BaseDatabaseCache": 5817,
      "ORDER": 5818,
      "OR_PALETTE": 5819,
      "streaming": 5820,
      "regexes": 5821,
      "reading": 5822,
      "readlines": 5823,
      "exponent": 5824,
      "ALLE": 5825,
      "ALL_": 5826,
      "response_": 5827,
      "INE": 5828,
      "INST": 5829,
      "INFO": 5830,
      "INITIAL": 5831,
      "new_obj": 5832,
      "new_attr": 5833,
      "new_datetime": 5834,
      "new_objects": 5835,
      "new_filenames": 5836,
      "ette": 5837,
      "separate_": 5838,
      "backslash": 5839,
      "occu": 5840,
      "SECRE": 5841,
      "delete_form": 5842,
      "deleted_forms": 5843,
      "mail_": 5844,
      "use_argparse": 5845,
      "use_null_f": 5846,
      "input_iter": 5847,
      "manifest": 5848,
      "metaclass": 5849,
      "meta_data": 5850,
      "DjangoJSONEncoder": 5851,
      "TemplateCommand": 5852,
      "translator": 5853,
      "multidimensional": 5854,
      "multipart_": 5855,
      "sci": 5856,
      "FileException": 5857,
      "FileProxy": 5858,
      "loaddata": 5859,
      "main_": 5860,
      "locale_dirs": 5861,
      "_data_chunk": 5862,
      "face": 5863,
      "failed": 5864,
      "signer": 5865,
      "RESET": 5866,
      "re_all_fields": 5867,
      "quire": 5868,
      "day_val": 5869,
      "state_frame": 5870,
      "MultiWidget": 5871,
      "literal_": 5872,
      "InputStream": 5873,
      "close_": 5874,
      "clean_": 5875,
      "excluded_apps": 5876,
      "run_checks": 5877,
      "runfastcgi": 5878,
      "required_": 5879,
      "require_all_fields": 5880,
      "ERS": 5881,
      "verbose": 5882,
      "fixture_count": 5883,
      "month_val": 5884,
      "views": 5885,
      "serializer_formats": 5886,
      "process_view": 5887,
      "%(%": 5888,
      "block_content": 5889,
      "year_val": 5890,
      "signature": 5891,
      "open_tags": 5892,
      "rel_to": 5893,
      "_checkLevel": 5894,
      "TABLE": 5895,
      "allows_": 5896,
      "allowed_": 5897,
      "allow_files": 5898,
      "updates": 5899,
      "current_expires": 5900,
      "CacheKey": 5901,
      "floor": 5902,
      "FIX": 5903,
      "skipped": 5904,
      "Encoding": 5905,
      "json_": 5906,
      "iterations": 5907,
      "handle_field": 5908,
      "handle_extensions": 5909,
      "domains": 5910,
      "were": 5911,
      "_get_val": 5912,
      "_to_many": 5913,
      "for_pending_references": 5914,
      "for_escaping": 5915,
      "overl": 5916,
      "on_separate_": 5917,
      "mark_for_escaping": 5918,
      "ModelChoiceField": 5919,
      "DateInput": 5920,
      "hexdigest": 5921,
      "TimeField": 5922,
      "TimeInput": 5923,
      "Timestamp": 5924,
      "template_source_": 5925,
      "ffff": 5926,
      "strip_tags": 5927,
      "strip_space": 5928,
      "D_APP": 5929,
      "bit_post_migrate": 5930,
      "our_home": 5931,
      "color_names": 5932,
      "HttpRequest": 5933,
      "Http404": 5934,
      "_fd": 5935,
      "_fqdn": 5936,
      "offset_": 5937,
      "cc_delim_re": 5938,
      "_pos": 5939,
      "from_current_timezone": 5940,
      "'\\\\\\\\": 5941,
      "Strip": 5942,
      "wards": 5943,
      "concatenated": 5944,
      "app_names": 5945,
      "create_parser": 5946,
      "sql_for_pending_references": 5947,
      "help_text_html": 5948,
      "json_data": 5949,
      "NOCOL": 5950,
      "nonlocal_": 5951,
      "invalid_var_format_string": 5952,
      "fail_message": 5953,
      "CONTRA": 5954,
      "as_new": 5955,
      "as_table": 5956,
      "as_bytes": 5957,
      "URLValidator": 5958,
      "select_template": 5959,
      "resolver_match": 5960,
      "can_write": 5961,
      "can_fail": 5962,
      "DIRE": 5963,
      "DICTION": 5964,
      "some_list": 5965,
      "SQLAlchemy": 5966,
      "trans_re": 5967,
      "ary_file_path": 5968,
      "find_module": 5969,
      "find_command": 5970,
      "DateTimeBaseInput": 5971,
      "duplicated": 5972,
      "get_language_from_": 5973,
      "InvalidOperation": 5974,
      "MigrationQue": 5975,
      "MigrationAuto": 5976,
      "MigrationWri": 5977,
      "[^\\\\": 5978,
      "buffering": 5979,
      "RegexPro": 5980,
      "table_name_filter": 5981,
      "final_path": 5982,
      "SimpleLazyObject": 5983,
      "hidden_fields": 5984,
      "hidden_initial": 5985,
      "})-": 5986,
      "})'.": 5987,
      "LOCK_NB": 5988,
      "LOCK_SH": 5989,
      "]*\\\\": 5990,
      "make_bytes": 5991,
      "make_origin": 5992,
      "display_url": 5993,
      "UnicodeError": 5994,
      "format_html_join": 5995,
      "all_models": 5996,
      "MultiValueField": 5997,
      "specify": 5998,
      "dered_": 5999,
      "hours": 6000,
      "trim_url": 6001,
      "trim_whitespace": 6002,
      "ext_list": 6003,
      "library_name": 6004,
      "MIMEText": 6005,
      "sides": 6006,
      "save_as_new": 6007,
      "'(',": 6008,
      "start_object": 6009,
      "SplitHidden": 6010,
      "db_manager": 6011,
      "package_path": 6012,
      "capit": 6013,
      "squashed": 6014,
      "divisible": 6015,
      "'*',": 6016,
      "\"\"\".": 6017,
      "alternate": 6018,
      "end_object": 6019,
      "HTMLParse": 6020,
      "identical": 6021,
      "total": 6022,
      "choice_label": 6023,
      "FILE_INPUT_": 6024,
      "UploadFileException": 6025,
      "ASSES": 6026,
      "termcolors": 6027,
      "producer": 6028,
      "allow_folders": 6029,
      "Signal": 6030,
      "hide_": 6031,
      "legacy": 6032,
      "_post_migrate_signal": 6033,
      "doublecolon_len": 6034,
      "doublecolon_start": 6035,
      "'],": 6036,
      "Runs": 6037,
      "tiesForbidden": 6038,
      "compare_to": 6039,
      "many_to_many": 6040,
      "DebugParser": 6041,
      "DebugLexer": 6042,
      "microseconds": 6043,
      "TEMPLATE_DEBUG": 6044,
      "255": 6045,
      "2000": 6046,
      "ClassType": 6047,
      "StopFu": 6048,
      "_regex_validator": 6049,
      "way": 6050,
      "bottom": 6051,
      "TokenBase": 6052,
      "PREFIX": 6053,
      "Raw": 6054,
      "_input_data": 6055,
      "drive": 6056,
      "nud": 6057,
      "__get__": 6058,
      "oldroot": 6059,
      "serialize_headers": 6060,
      "total_forms": 6061,
      "total_ordering": 6062,
      "BadSignature": 6063,
      "BLOCK_TAG_END": 6064,
      "b64decode": 6065,
      "b64encoded": 6066,
      "goals": 6067,
      "Translator": 6068,
      "daemon_kwargs": 6069,
      "Resolver404": 6070,
      "constant_time_": 6071,
      "VARIABLE_TAG_END": 6072,
      "CEP": 6073,
      "bf_errors": 6074,
      "bigger": 6075,
      "css_classes": 6076,
      "even": 6077,
      "base_manager": 6078,
      "supports_": 6079,
      "TemporaryUploadedFile": 6080,
      "couldn": 6081,
      "marker": 6082,
      "Streaming": 6083,
      "needs_multipart_": 6084,
      "],[": 6085,
      "_entity": 6086,
      "comment_map": 6087,
      "absolute_max": 6088,
      "Cannot": 6089,
      "_error_files": 6090,
      "err_log": 6091,
      "emit_post_migrate_signal": 6092,
      "possible": 6093,
      "PATHS": 6094,
      "'))": 6095,
      "simple_": 6096,
      "unescape_entities": 6097,
      "alphabet": 6098,
      "fastcgi_help": 6099,
      "best_doublecolon_len": 6100,
      "best_doublecolon_start": 6101,
      "\"^\\": 6102,
      "_globs_": 6103,
      "ns_resolver": 6104,
      "in_index": 6105,
      "int_part": 6106,
      "get_current_timezone_name": 6107,
      "kwarg_re": 6108,
      "bad_cookies": 6109,
      "SafeMIMEText": 6110,
      "SafeMIMEMultipart": 6111,
      "activated": 6112,
      "AutoField": 6113,
      "sanitize_address": 6114,
      "_delegate_text": 6115,
      "ISO_": 6116,
      "_add_doc": 6117,
      "reason": 6118,
      "red_checks": 6119,
      "resource": 6120,
      "resource_string": 6121,
      "script_url": 6122,
      "COMMENT_TAG_END": 6123,
      "updateddate": 6124,
      "disable_": 6125,
      "get_language_from_path": 6126,
      "receive_data_chunk": 6127,
      "LOCALE_PATHS": 6128,
      "MIDDLEWARE_CL": 6129,
      "'#:": 6130,
      "'+',": 6131,
      "'|',": 6132,
      "Options": 6133,
      "handle_m2m_field": 6134,
      "show_hidden_initial": 6135,
      "MEDIA_TYPES": 6136,
      "NonCap": 6137,
      "Permission": 6138,
      "_read_started": 6139,
      "xgettext_options": 6140,
      "ancestor": 6141,
      "string_only": 6142,
      "exclusive": 6143,
      "CountEqual": 6144,
      "render_value_in": 6145,
      "TypedMultipleChoiceField": 6146,
      "fixture_files_in_dir": 6147,
      "UNICODE": 6148,
      "allow_empty_first_page": 6149,
      "parentheses": 6150,
      "SUCCESS": 6151,
      "ZERO": 6152,
      "_populate": 6153,
      "minimum": 6154,
      "quit_command": 6155,
      "latest_date": 6156,
      "get_template_from_string": 6157,
      "Installing": 6158,
      "Declarative": 6159,
      "STATUS_OK": 6160,
      "registered_checks": 6161,
      "EntitiesForbidden": 6162,
      "utf8_charset": 6163,
      "child_nodelists": 6164,
      "MONTHS_3": 6165,
      "LocaleRegexPro": 6166,
      "'?',": 6167,
      "'[^'": 6168,
      "Empty": 6169,
      "opening": 6170,
      "metns": 6171,
      "temporary_file_path": 6172,
      "ip_address_": 6173,
      "comparison": 6174,
      "signed_value": 6175,
      "MISSES": 6176,
      "domain_whitelist": 6177,
      "WSGIRequestHandler": 6178,
      "ManagementForm": 6179,
      "EventHandler": 6180,
      "OutputWrapper": 6181,
      "ViewDoesNotExist": 6182,
      "_MovedItems": 6183,
      "front": 6184,
      "gnized": 6185,
      "palette": 6186,
      "seperated": 6187,
      "textarea": 6188,
      "liveserver": 6189,
      "get_internal_wsgi_application": 6190,
      "virtual_fields": 6191,
      "illegal_formatting": 6192,
      "ExtendsNode": 6193,
      "EST_PROTOCOL": 6194,
      "db_for_write": 6195,
      "TOTAL_FORM_COUNT": 6196,
      "RuntimeWarning": 6197,
      "waiting_readers": 6198,
      "whole_digits": 6199,
      "abcdefghijklm": 6200,
      "sql_destroy_indexes": 6201,
      "\")|(?:": 6202,
      "EndToken": 6203,
      "Float": 6204,
      "GMT": 6205,
      "HIGHEST_PROTOCOL": 6206,
      "Length": 6207,
      "PIPE": 6208,
      "SCRIP": 6209,
      "Textarea": 6210,
      "Window": 6211,
      "WRAPP": 6212,
      "_should_delete_form": 6213,
      "_closable_objects": 6214,
      "_standard_context_processors": 6215,
      "cted_type": 6216,
      "dyna": 6217,
      "font": 6218,
      "humanize": 6219,
      "mutex": 6220,
      "screen": 6221,
      "inhibit_post_migrate": 6222,
      "recognized": 6223,
      "arbitrary": 6224,
      "orphans": 6225,
      "degrees": 6226,
      "arg_vals": 6227,
      "unifunc": 6228,
      "subtraction": 6229,
      "sublist_item": 6230,
      "assigned": 6231,
      "__text_cast": 6232,
      "__path__": 6233,
      "__unicode__": 6234,
      "getargspec": 6235,
      "paths_to_remove": 6236,
      "get_valid_filename": 6237,
      "get_fixed_timezone": 6238,
      "errors_on_separate_": 6239,
      "s_between_tags": 6240,
      "lineno_comment_map": 6241,
      "Initialize": 6242,
      "beautifulsoup": 6243,
      "compression_formats": 6244,
      "is_overridden": 6245,
      "is_protected_type": 6246,
      "add_root_elements": 6247,
      "add_truncation_text": 6248,
      "tureHandlers": 6249,
      "Exhausted": 6250,
      "BaseTemporalField": 6251,
      "ALLED_APP": 6252,
      "ALL_FIELDS": 6253,
      "INSTALLED_APP": 6254,
      "occuren": 6255,
      "SECRET_KEY": 6256,
      "use_null_fallback": 6257,
      "FileProxyMixin": 6258,
      "InputStreamExhausted": 6259,
      "required_css_class": 6260,
      "CacheKeyWarning": 6261,
      "json_kwargs": 6262,
      "TimestampSigner": 6263,
      "template_source_loaders": 6264,
      "strip_spaces_between_tags": 6265,
      "our_home_dir": 6266,
      "NOCOLOR_PALETTE": 6267,
      "nonlocal_root": 6268,
      "CONTRADICTION": 6269,
      "trans_real": 6270,
      "get_language_from_request": 6271,
      "MigrationQuestioner": 6272,
      "MigrationAutodetector": 6273,
      "MigrationWriter": 6274,
      "SplitHiddenDateTimeWidget": 6275,
      "HTMLParseError": 6276,
      "FILE_INPUT_CONTRADICTION": 6277,
      "hide_empty": 6278,
      "StopFutureHandlers": 6279,
      "constant_time_compare": 6280,
      "needs_multipart_form": 6281,
      "MIDDLEWARE_CLASSES": 6282,
      "NonCapture": 6283,
      "render_value_in_context": 6284,
      "DeclarativeFieldsMetaclass": 6285,
      "LocaleRegexProvider": 6286,
      "abcdefghijklmnopqrstuvwxyz": 6287,
      "errors_on_separate_row": 6288,
      "INSTALLED_APPS": 6289,
      "\"(": 6290,
      "\"([": 6291,
      "\">%": 6292,
      "##": 6293,
      "$`": 6294,
      "'}": 6295,
      "'\"%": 6296,
      "')'": 6297,
      "'['": 6298,
      "(',": 6299,
      "(\\\\": 6300,
      ")\"": 6301,
      "))": 6302,
      "*'": 6303,
      "+((?:": 6304,
      ",'": 6305,
      "-]{": 6306,
      "06": 6307,
      "2to": 6308,
      "2model": 6309,
      "233": 6310,
      "35": 6311,
      "44": 6312,
      "70": 6313,
      "76": 6314,
      ":<": 6315,
      "<=": 6316,
      "=\"%": 6317,
      "></": 6318,
      "As": 6319,
      "Aware": 6320,
      "Aug": 6321,
      "BR": 6322,
      "Cri": 6323,
      "DT": 6324,
      "Di": 6325,
      "Des": 6326,
      "DAT": 6327,
      "Dns": 6328,
      "DForbidden": 6329,
      "DOFFSET": 6330,
      "FY": 6331,
      "From": 6332,
      "GB": 6333,
      "Go": 6334,
      "Gzip": 6335,
      "GNU": 6336,
      "HIT": 6337,
      "IDE": 6338,
      "Immutable": 6339,
      "KB": 6340,
      "LI": 6341,
      "LY": 6342,
      "Min": 6343,
      "Mon": 6344,
      "Mor": 6345,
      "Mat": 6346,
      "MUL": 6347,
      "Max": 6348,
      "Op": 6349,
      "OTI": 6350,
      "O_CO": 6351,
      "PB": 6352,
      "Pass": 6353,
      "PER": 6354,
      "Pick": 6355,
      "Popen": 6356,
      "PUN": 6357,
      "PTR": 6358,
      "SO": 6359,
      "SY": 6360,
      "Sa": 6361,
      "Send": 6362,
      "Skip": 6363,
      "TB": 6364,
      "Tar": 6365,
      "Tue": 6366,
      "USE": 6367,
      "UATION": 6368,
      "Wor": 6369,
      "Xml": 6370,
      "XSIZE": 6371,
      "[(": 6372,
      "\\.\\": 6373,
      "]',": 6374,
      "]]`": 6375,
      "])\",": 6376,
      "_0": 6377,
      "_i": 6378,
      "_with": 6379,
      "_mode": 6380,
      "_cur": 6381,
      "_index": 6382,
      "_hel": 6383,
      "_compile": 6384,
      "_id_": 6385,
      "_state": 6386,
      "_has_": 6387,
      "_next": 6388,
      "_handlers": 6389,
      "_statement": 6390,
      "_sql_": 6391,
      "_dd": 6392,
      "_generator": 6393,
      "_stack": 6394,
      "_daemon": 6395,
      "_alternative": 6396,
      "_DATE": 6397,
      "_empty_value": 6398,
      "_converter": 6399,
      "_leave": 6400,
      "_quotes": 6401,
      "_MODIFIED": 6402,
      "_exclu": 6403,
      "_raw_": 6404,
      "_parse_header": 6405,
      "_SIZE": 6406,
      "_separators": 6407,
      "_template_response": 6408,
      "_app_dict": 6409,
      "_ExpatParser": 6410,
      "_legacy": 6411,
      "`'": 6412,
      "`-`": 6413,
      "bk": 6414,
      "bad": 6415,
      "cm": 6416,
      "cmatch": 6417,
      "cword": 6418,
      "dDns": 6419,
      "eded": 6420,
      "fli": 6421,
      "ful": 6422,
      "ftp": 6423,
      "fallback": 6424,
      "gg": 6425,
      "g_name": 6426,
      "grep": 6427,
      "gnu": 6428,
      "hand": 6429,
      "hfile": 6430,
      "hig": 6431,
      "jun": 6432,
      "lus": 6433,
      "n_type": 6434,
      "n_cache_key": 6435,
      "p2": 6436,
      "pbk": 6437,
      "rd": 6438,
      "rup": 6439,
      "rsplit": 6440,
      "raries": 6441,
      "rmt": 6442,
      "s1": 6443,
      "s2": 6444,
      "swi": 6445,
      "sis": 6446,
      "sco": 6447,
      "since": 6448,
      "tc": 6449,
      "twi": 6450,
      "ual": 6451,
      "vas": 6452,
      "vow": 6453,
      "wb": 6454,
      "wap": 6455,
      "watch": 6456,
      "x1": 6457,
      "xb": 6458,
      "y_": 6459,
      "zh": 6460,
      "}>{": 6461,
      "~/": 6462,
      "intrans": 6463,
      "incomment": 6464,
      "in_names": 6465,
      "invert": 6466,
      "individ": 6467,
      "invoke": 6468,
      "the_list": 6469,
      "anied": 6470,
      "annel": 6471,
      "stre": 6472,
      "onexistent": 6473,
      "secur": 6474,
      "rer": 6475,
      "related_": 6476,
      "testr": 6477,
      "tech": 6478,
      "arrange": 6479,
      "also": 6480,
      "or_path": 6481,
      "ordered": 6482,
      "nts": 6483,
      "devel": 6484,
      "le__": 6485,
      "leaf": 6486,
      "summing": 6487,
      "tur": 6488,
      "unit": 6489,
      "und_": 6490,
      "uncaught": 6491,
      "unner": 6492,
      "unclose": 6493,
      "unexpected": 6494,
      "unmigrated_apps": 6495,
      "str1": 6496,
      "stri": 6497,
      "str_list": 6498,
      "as_data": 6499,
      "ifth": 6500,
      "ifequal": 6501,
      "cel": 6502,
      "string2": 6503,
      "val_expr": 6504,
      "sublists": 6505,
      "subcommands": 6506,
      "fil": 6507,
      "ked": 6508,
      "gest_": 6509,
      "diter": 6510,
      "dication": 6511,
      "distan": 6512,
      "conv": 6513,
      "contr": 6514,
      "console": 6515,
      "consume": 6516,
      "conn_type": 6517,
      "name_str": 6518,
      "extern": 6519,
      "chmod": 6520,
      "setype": 6521,
      "aryIter": 6522,
      "__M": 6523,
      "__T": 6524,
      "__bytes": 6525,
      "__wrapper": 6526,
      "__bytes_": 6527,
      "__gt": 6528,
      "__le__": 6529,
      "dering": 6530,
      "key_value": 6531,
      "',),": 6532,
      "ct_": 6533,
      "ctxt": 6534,
      "lol": 6535,
      "lode_": 6536,
      "tail": 6537,
      "d_form": 6538,
      "d_options": 6539,
      "d_objects": 6540,
      "d_block_tag": 6541,
      "imported_": 6542,
      "importer": 6543,
      "sio": 6544,
      "sible": 6545,
      "importing": 6546,
      "bob": 6547,
      "defaultdict": 6548,
      "texts": 6549,
      "base_name": 6550,
      "form_": 6551,
      "forms_": 6552,
      "form_data": 6553,
      "formsets": 6554,
      "forms_to_delete": 6555,
      "datafra": 6556,
      "data_set": 6557,
      "ndarray": 6558,
      "spare": 6559,
      "space_dict": 6560,
      "space_index": 6561,
      "ady": 6562,
      "rid": 6563,
      "riage": 6564,
      "install": 6565,
      "necess": 6566,
      "quant": 6567,
      "djangoproject": 6568,
      "ids": 6569,
      "path_to_": 6570,
      "making": 6571,
      "'%%": 6572,
      "plen": 6573,
      "_namespace_dict": 6574,
      "object_data": 6575,
      "objects_in_fixture": 6576,
      "reporter": 6577,
      "get_parent": 6578,
      "get_unique": 6579,
      "get_resolver": 6580,
      "get_resolved_": 6581,
      "get_many": 6582,
      "get_runner": 6583,
      "get_attname": 6584,
      "get_cookie_": 6585,
      "get_publi": 6586,
      "dateformat": 6587,
      "date_value": 6588,
      "format_key": 6589,
      "queue": 6590,
      "questioner": 6591,
      "uploaded": 6592,
      "opfunc": 6593,
      "len_item": 6594,
      "derived": 6595,
      "props": 6596,
      "s_data": 6597,
      "s_len": 6598,
      "s_version": 6599,
      "s_directory": 6600,
      "s_localtime": 6601,
      "s_comment_": 6602,
      "olCol": 6603,
      "option_list": 6604,
      "curry": 6605,
      "context_match": 6606,
      "rendered_": 6607,
      "renonexistent": 6608,
      "figure": 6609,
      "perNode": 6610,
      "permal": 6611,
      "po_path": 6612,
      "sixth": 6613,
      "dir_suffix": 6614,
      "tagtype": 6615,
      "fixes": 6616,
      "NoAr": 6617,
      "Inf": 6618,
      "Include": 6619,
      "dictConfig": 6620,
      "al_char": 6621,
      "ill": 6622,
      "ilst": 6623,
      "sax": 6624,
      "content_re": 6625,
      "content_params": 6626,
      "config_string": 6627,
      "be_": 6628,
      "found_": 6629,
      "compiled": 6630,
      "Combo": 6631,
      "to_end": 6632,
      "to_bytes": 6633,
      "to_digits": 6634,
      "model_fields": 6635,
      "modelformset_factory": 6636,
      "modelform_": 6637,
      "t_request_": 6638,
      "syntax": 6639,
      "tokenize": 6640,
      "edObject": 6641,
      "edOffset": 6642,
      "finditer": 6643,
      "baz": 6644,
      "basetype": 6645,
      "hook": 6646,
      "lib2to": 6647,
      "libraries": 6648,
      "func_name": 6649,
      "force_st": 6650,
      "localpart": 6651,
      "local_fields": 6652,
      "T_URL": 6653,
      "match_re": 6654,
      "is_iterable": 6655,
      "is_multipart": 6656,
      "is_permal": 6657,
      "add_error": 6658,
      "add_library": 6659,
      "add_initial_prefix": 6660,
      "write_po": 6661,
      "DEF": 6662,
      "\".'": 6663,
      "ignoring": 6664,
      "item_date": 6665,
      "requests": 6666,
      "ATTA": 6667,
      "Exit": 6668,
      "Expi": 6669,
      "Retrieve": 6670,
      "Ready": 6671,
      "FieldRenderer": 6672,
      "mydir": 6673,
      "myDict": 6674,
      "myproject": 6675,
      "myVar": 6676,
      "table_output": 6677,
      "table2model": 6678,
      "intger": 6679,
      "msg_data": 6680,
      "field_dict": 6681,
      "safe_input": 6682,
      "migrations_to_": 6683,
      "migrations_directory": 6684,
      "MEM": 6685,
      "ORS": 6686,
      "ValueValidator": 6687,
      "wordInput": 6688,
      "stream_class": 6689,
      "command_line": 6690,
      "commands_dict": 6691,
      "command_stack": 6692,
      "expand": 6693,
      "AL_": 6694,
      "regroup": 6695,
      "INTO": 6696,
      "INSER": 6697,
      "new_migration": 6698,
      "new_mod": 6699,
      "etc": 6700,
      "backwards": 6701,
      "db_module": 6702,
      "ONE": 6703,
      "ONG_": 6704,
      "render_": 6705,
      "rendering_": 6706,
      "SEC": 6707,
      "k_to_end": 6708,
      "prefixed": 6709,
      "use_reloader": 6710,
      "use_base_manager": 6711,
      "input_data": 6712,
      "input_format": 6713,
      "input_text": 6714,
      "manu": 6715,
      "header_end": 6716,
      "ULT": 6717,
      "ULONG_": 6718,
      "DjangoSafeDumper": 6719,
      "TemplateLoader": 6720,
      "TemplateTag": 6721,
      "TemplateIfParser": 6722,
      "translated": 6723,
      "jectSt": 6724,
      "lockFileEx": 6725,
      "resolution": 6726,
      "Depre": 6727,
      "stored": 6728,
      "executable": 6729,
      "compile_string": 6730,
      "raw_string": 6731,
      "ARY": 6732,
      "extra_files": 6733,
      "_key_to_file": 6734,
      "lazy_number": 6735,
      "NotRen": 6736,
      "NotFound": 6737,
      "NotReady": 6738,
      "wrte": 6739,
      "wrapped_": 6740,
      "STATI": 6741,
      "STDOFFSET": 6742,
      "fai": 6743,
      "DEFAULT_CH": 6744,
      "DEFAULT_ATTA": 6745,
      "ham": 6746,
      "makedirs": 6747,
      "Load": 6748,
      "Location": 6749,
      "REDIRE": 6750,
      "httpd": 6751,
      "only_initial": 6752,
      "Unexpected": 6753,
      "UnlockFileEx": 6754,
      "_modules_cache": 6755,
      "day_of_": 6756,
      "register_serializer": 6757,
      "states": 6758,
      "max_expr": 6759,
      "`[[": 6760,
      "cleaned": 6761,
      "excludes": 6762,
      "run_from_": 6763,
      "changeset": 6764,
      "ER_": 6765,
      "ERY_": 6766,
      "fixture_files": 6767,
      "fixture_object": 6768,
      "ed_name": 6769,
      "reverse_dict": 6770,
      "default_options": 6771,
      "icIPAddressField": 6772,
      "year_field": 6773,
      "_format_modules_cache": 6774,
      "interpre": 6775,
      "interface": 6776,
      "limited": 6777,
      "_check_": 6778,
      "update_": 6779,
      "current_fields": 6780,
      "current_chunk": 6781,
      "CacheClass": 6782,
      "CachedDns": 6783,
      "parentloop": 6784,
      "parent_widget": 6785,
      "managed": 6786,
      "_func_path": 6787,
      "'<'": 6788,
      "'<',": 6789,
      "_text_": 6790,
      "201": 6791,
      "2010": 6792,
      "2012": 6793,
      "2014": 6794,
      "_dicts": 6795,
      "savepoint": 6796,
      "saved_forms": 6797,
      "quoted_": 6798,
      "MIME_": 6799,
      "AND": 6800,
      "AND_": 6801,
      "_html_output": 6802,
      "'\\'": 6803,
      "_iterable": 6804,
      "activeMigrationQuestioner": 6805,
      "192": 6806,
      "handle_app": 6807,
      "handle_uncaught": 6808,
      "handle_default_options": 6809,
      "unique_for": 6810,
      "unique_id_": 6811,
      "parse_date": 6812,
      "parse_cookie": 6813,
      "old_option": 6814,
      "old_handler": 6815,
      "initial_set": 6816,
      "initial_text": 6817,
      "initial_extra": 6818,
      "extends": 6819,
      "_get_model": 6820,
      "_get_size": 6821,
      "_get_choices": 6822,
      "_get_validation": 6823,
      "valid_forms": 6824,
      "overwrite": 6825,
      "test2": 6826,
      "tests": 6827,
      "SafeLoader": 6828,
      "DateField": 6829,
      "DateWidget": 6830,
      "hex_format_string": 6831,
      "has_old_option": 6832,
      "empty_form": 6833,
      "template_loader": 6834,
      "DataException": 6835,
      "'/'.": 6836,
      "colorize": 6837,
      "load_template": 6838,
      "CHMENT_": 6839,
      "hostname": 6840,
      "_fname": 6841,
      "'\\\\',": 6842,
      "URE_": 6843,
      "common": 6844,
      "file_or_path": 6845,
      "sql_create": 6846,
      "sql_files": 6847,
      "sql_custom": 6848,
      "ROO": 6849,
      "ROP": 6850,
      "USAND_": 6851,
      "samefile": 6852,
      "ignorenonexistent": 6853,
      "representative": 6854,
      "validate_number": 6855,
      "migrated": 6856,
      "NOW": 6857,
      "invalid_time": 6858,
      "invalid_date": 6859,
      "top_errors": 6860,
      "PythonDeserializer": 6861,
      "EmailInput": 6862,
      "xmlns": 6863,
      "as_form": 6864,
      "1111": 6865,
      "ContextPop": 6866,
      "StringOrigin": 6867,
      "URLField": 6868,
      "URLInput": 6869,
      "gsCommand": 6870,
      "can_read": 6871,
      "can_rollback": 6872,
      "Configurator": 6873,
      "attach_alternative": 6874,
      "deredError": 6875,
      "ision": 6876,
      "find_template_loader": 6877,
      "DateTimeInput": 6878,
      "IPS": 6879,
      "validate_name": 6880,
      "widthratio": 6881,
      "your_list": 6882,
      "table_name_converter": 6883,
      "ChoiceFieldRenderer": 6884,
      "MAPP": 6885,
      "MAXSIZE": 6886,
      "mem_args": 6887,
      "split_re": 6888,
      "split_leading_dir": 6889,
      "AppRegistry": 6890,
      "mimetypes": 6891,
      "})?": 6892,
      "}):(?": 6893,
      "SelectDateWidget": 6894,
      "]*)": 6895,
      "_tag_compile": 6896,
      "shift": 6897,
      "no_obsolete": 6898,
      "make_aware": 6899,
      "make_naive": 6900,
      "make_msgid": 6901,
      "RAW": 6902,
      "RAIS": 6903,
      "_prefixes": 6904,
      "instantiated": 6905,
      "all_unique_checks": 6906,
      "all_date_checks": 6907,
      "_model_validation": 6908,
      "popitem": 6909,
      "world": 6910,
      "+)?": 6911,
      "SION_": 6912,
      "_view_middleware": 6913,
      "'^/'": 6914,
      "att_name": 6915,
      "MIMEBase": 6916,
      "MIMEMixin": 6917,
      "MIMEMultipart": 6918,
      "BoolCol": 6919,
      "__ge__": 6920,
      "save_form_data": 6921,
      "...\"": 6922,
      "...\\": 6923,
      "_url_re": 6924,
      "value_not_": 6925,
      "docs_version": 6926,
      "num_loopvars": 6927,
      "python_pre_": 6928,
      "\"'\",": 6929,
      "SplitDateTimeField": 6930,
      "inner_text": 6931,
      "full_file": 6932,
      "full_statement": 6933,
      "combined": 6934,
      "CTUATION": 6935,
      "VERBO": 6936,
      "agg": 6937,
      "include_html": 6938,
      "apply_": 6939,
      "colon_in_names": 6940,
      "requires_model_validation": 6941,
      "resolved_path": 6942,
      "custom_sql_": 6943,
      "body_msg": 6944,
      "FFFF": 6945,
      "QUERY_": 6946,
      "pt_quote": 6947,
      "process_exception": 6948,
      "process_request": 6949,
      "process_template_response": 6950,
      "168": 6951,
      "next_item": 6952,
      "next_space_index": 6953,
      "choice_cache": 6954,
      "FILE_MODIFIED": 6955,
      "ProjectSt": 6956,
      "TOO": 6957,
      "_proxy_method": 6958,
      "win32": 6959,
      "param_dict": 6960,
      "allow_overwrite": 6961,
      "'&#": 6962,
      "'&'": 6963,
      "EscapeText": 6964,
      "EscapeBytes": 6965,
      "toks": 6966,
      "get_format_lazy": 6967,
      "_post_render_callback": 6968,
      "_post_parse_error": 6969,
      "LANGUAGE_SES": 6970,
      "']['": 6971,
      "HelperNode": 6972,
      "Operator": 6973,
      "category": 6974,
      "build_absolute_": 6975,
      "TEMPLATE_LOADER": 6976,
      "UTF_8": 6977,
      "shown": 6978,
      "MIGRATE_SUCCESS": 6979,
      "_nodes": 6980,
      "isoformat": 6981,
      "iso_input": 6982,
      "FIELD_NAME": 6983,
      "Module_six_moves_urllib_response": 6984,
      "Module_six_moves_urllib_robotparser": 6985,
      "Generate": 6986,
      "GenericIPAddressField": 6987,
      "_FORMS": 6988,
      "google": 6989,
      "got_request_": 6990,
      "accep": 6991,
      "accept": 6992,
      "ResolverMatch": 6993,
      "constant_re": 6994,
      "constant_string": 6995,
      "3339": 6996,
      "Allow": 6997,
      "abcd": 6998,
      "TIME_FORMAT": 6999,
      "support_legacy": 7000,
      "Formatter": 7001,
      "configure_custom": 7002,
      "TemporaryFileUploadHandler": 7003,
      "403": 7004,
      "Users": 7005,
      "UserList": 7006,
      "c_serializer_formats": 7007,
      "surrounded": 7008,
      "maybe": 7009,
      "ContentNotRen": 7010,
      "DeserializedObject": 7011,
      "markup": 7012,
      "ING_PUN": 7013,
      "ING_FIELD_NAME": 7014,
      "282": 7015,
      "DATETIME_INPUT_FORMATS": 7016,
      "TagHelperNode": 7017,
      "_response_middleware": 7018,
      "not_found": 7019,
      "enter_command": 7020,
      "app_list_value": 7021,
      "Execute": 7022,
      "absolute_import": 7023,
      "dummy_": 7024,
      "tmpdir": 7025,
      "extracted": 7026,
      "terminate": 7027,
      "terminal_char": 7028,
      "import_library": 7029,
      "_cached_modules": 7030,
      "_cached_loaders": 7031,
      "ForeignKeyField": 7032,
      "Display": 7033,
      "_setupfunc": 7034,
      "seen_models": 7035,
      "and_sep": 7036,
      "roots": 7037,
      "used_name": 7038,
      "fetch_command": 7039,
      "var_arg": 7040,
      "0005": 7041,
      "item_copyright": 7042,
      "writable": 7043,
      "abspathu": 7044,
      "MENTS": 7045,
      "obtaining": 7046,
      "alphabetical": 7047,
      "PostDataException": 7048,
      "_deleted_form": 7049,
      "vary_on": 7050,
      "int_part_": 7051,
      "keeping": 7052,
      "keep_pot": 7053,
      "kwarg_format": 7054,
      "checkbox_name": 7055,
      "bad_app_labels": 7056,
      "\\\\.)*": 7057,
      "STRING": 7058,
      "flup_module": 7059,
      "email_backend": 7060,
      "clear_checkbox_name": 7061,
      "clear_checkbox_id": 7062,
      "clear_checkbox_label": 7063,
      "IPv4": 7064,
      "rfcdate": 7065,
      "rfc3339": 7066,
      "cyclevars": 7067,
      "RendererMixin": 7068,
      "sanitize_separators": 7069,
      "_enters": 7070,
      "InlineForeignKeyField": 7071,
      "settings_exception": 7072,
      "settings_dict": 7073,
      "run_validators": 7074,
      "run_syncdb": 7075,
      "generic_tag_compile": 7076,
      "common_prefix": 7077,
      "common_ancestor": 7078,
      "original_path": 7079,
      "99999999": 7080,
      "test_runner_class": 7081,
      "java": 7082,
      "mktime": 7083,
      "u003": 7084,
      "bound_function": 7085,
      "existing_headers": 7086,
      "last_row": 7087,
      "accept_language": 7088,
      "MEDIA_URL": 7089,
      "I18N_MODIFIED": 7090,
      "><\\/": 7091,
      "ACK": 7092,
      "ACCEP": 7093,
      "ImageFile": 7094,
      "Subclasses": 7095,
      "xa3": 7096,
      "ancestry": 7097,
      "with_ctxt": 7098,
      "consisting": 7099,
      "ctypes": 7100,
      "protected": 7101,
      "url_patterns": 7102,
      "TypedChoiceField": 7103,
      "list_of_tuples": 7104,
      "]*?'))": 7105,
      "]*?\")|(?:": 7106,
      "correctly": 7107,
      "allow_empty_file": 7108,
      "root_attributes": 7109,
      "DJANGO_SETTINGS_MODULE": 7110,
      "nofollow_attr": 7111,
      "relative_dir": 7112,
      "parenthesis": 7113,
      "BlockNode": 7114,
      "C_URL": 7115,
      "ZipFile": 7116,
      "carriage": 7117,
      "recursive": 7118,
      "alter_sql": 7119,
      "success": 7120,
      "opt_dict": 7121,
      "optimize": 7122,
      "compiled_parent": 7123,
      "bindAddress": 7124,
      "UNK_SIZE": 7125,
      "UNKNOW": 7126,
      "ALLOWED_HOST": 7127,
      "SINGLE_BRACE_START": 7128,
      "SINGLE_BRACE_END": 7129,
      "Spare": 7130,
      "XYZ": 7131,
      "_generate_cache_key": 7132,
      "_cookie_allows_": 7133,
      "mically": 7134,
      "walk_to_end": 7135,
      "thousand_sep": 7136,
      "real_name": 7137,
      "repeated": 7138,
      "contin": 7139,
      "expects_localtime": 7140,
      "precision": 7141,
      "FixedOffset": 7142,
      "write_items": 7143,
      "reduce": 7144,
      "msgmerge_options": 7145,
      "msgattrib_options": 7146,
      "msguniq_options": 7147,
      "_reverse_dict": 7148,
      "RESULT": 7149,
      "only_new": 7150,
      "saved_locale": 7151,
      "ABCDEF": 7152,
      "entity_decl": 7153,
      "modified_code": 7154,
      "FASTCGI_OPTIONS": 7155,
      "WEEKDAYS_": 7156,
      "DSTOFFSET": 7157,
      "RUN_": 7158,
      "_new_gnu": 7159,
      "epoch_": 7160,
      "holder": 7161,
      "scalar": 7162,
      "installed_models": 7163,
      "major": 7164,
      "get_exception_response": 7165,
      "InteractiveMigrationQuestioner": 7166,
      "become_daemon": 7167,
      "RenameMethods": 7168,
      "ReferenceForbidden": 7169,
      "INDEX": 7170,
      "Syndication": 7171,
      "handle_fk_field": 7172,
      "HttpResponseRedirectBase": 7173,
      "THOUSAND_": 7174,
      "DefusedXml": 7175,
      "BoundaryIter": 7176,
      "image_dimensions": 7177,
      "ManyToMany": 7178,
      "javascript_quote": 7179,
      "concrete_model": 7180,
      "shorthand_ip_string": 7181,
      "\"[^\"]*?\")|(?:": 7182,
      "={!": 7183,
      "AUTH": 7184,
      "CSV": 7185,
      "HANDLE": 7186,
      "Only": 7187,
      "_explode_": 7188,
      "_urlconfs": 7189,
      "modulus": 7190,
      "xlsx": 7191,
      "key_salt": 7192,
      "represented": 7193,
      "periods": 7194,
      "is_valid_ipv6_address": 7195,
      "is_silenced": 7196,
      "ExternalReferenceForbidden": 7197,
      "ORDERING_FIELD_NAME": 7198,
      "INITIAL_FORM_COUNT": 7199,
      "translators_comment_": 7200,
      "main_help_text": 7201,
      "overlapped": 7202,
      "})-(?": 7203,
      "capital": 7204,
      "RawPostDataException": 7205,
      "'[^']*?'))": 7206,
      "FloatField": 7207,
      "LengthValidator": 7208,
      "WindowsError": 7209,
      "+((?:\"[^\"]*?\")|(?:": 7210,
      "Critical": 7211,
      "DTDForbidden": 7212,
      "DATA": 7213,
      "GzipFile": 7214,
      "HITS": 7215,
      "ImmutableList": 7216,
      "Morsel": 7217,
      "MULTI": 7218,
      "Optim": 7219,
      "PasswordInput": 7220,
      "Pickle": 7221,
      "Save": 7222,
      "SkipFile": 7223,
      "TarArchive": 7224,
      "World": 7225,
      "_ipython_pre_": 7226,
      "_curri": 7227,
      "_helper": 7228,
      "_has_expired": 7229,
      "_ddl": 7230,
      "_leaves": 7231,
      "_exclusions": 7232,
      "_raw_ipv6": 7233,
      "_template_response_middleware": 7234,
      "cmd_options": 7235,
      "rmtree": 7236,
      "switch": 7237,
      "twice": 7238,
      "vowel": 7239,
      "individual": 7240,
      "strerror": 7241,
      "security": 7242,
      "testrunner": 7243,
      "techn": 7244,
      "leaf_nodes": 7245,
      "unclosed_block_tag": 7246,
      "contrib": 7247,
      "consume_next": 7248,
      "external_": 7249,
      "__bytes__": 7250,
      "__wrapper__": 7251,
      "__bytes_cast": 7252,
      "__gt__": 7253,
      "imported_objects": 7254,
      "forms_valid": 7255,
      "datafram": 7256,
      "necessary": 7257,
      "path_to_remove": 7258,
      "get_unique_error_message": 7259,
      "get_resolved_arguments": 7260,
      "get_cookie_signer": 7261,
      "get_public_serializer_formats": 7262,
      "NoArgsCommand": 7263,
      "found_exception": 7264,
      "ComboField": 7265,
      "lib2to3": 7266,
      "is_permalink": 7267,
      "migrations_to_squash": 7268,
      "INSERT": 7269,
      "rendering_attrs": 7270,
      "ULONG_PTR": 7271,
      "TemplateTagNode": 7272,
      "STATIC_URL": 7273,
      "DEFAULT_CHUNK_SIZE": 7274,
      "DEFAULT_ATTACHMENT_": 7275,
      "day_of_year": 7276,
      "run_from_argv": 7277,
      "fixture_object_count": 7278,
      "CachedDnsName": 7279,
      "quoted_url": 7280,
      "MIME_TYPE": 7281,
      "handle_uncaught_exception": 7282,
      "unique_id_is_permalink": 7283,
      "_get_validation_exclusions": 7284,
      "ContextPopException": 7285,
      "can_rollback_ddl": 7286,
      "MAPPING": 7287,
      "AppRegistryNotReady": 7288,
      "RAISE_ERROR": 7289,
      "SION_KEY": 7290,
      "value_not_found_exception": 7291,
      "VERBOSE": 7292,
      "custom_sql_for_model": 7293,
      "QUERY_STRING": 7294,
      "ProjectState": 7295,
      "_post_render_callbacks": 7296,
      "LANGUAGE_SESSION_KEY": 7297,
      "build_absolute_uri": 7298,
      "TEMPLATE_LOADERS": 7299,
      "got_request_exception": 7300,
      "ContentNotRenderedError": 7301,
      "ING_PUNCTUATION": 7302,
      "_deleted_form_indexes": 7303,
      "int_part_gd": 7304,
      "rfc3339_date": 7305,
      "generic_tag_compiler": 7306,
      "ALLOWED_HOSTS": 7307,
      "_cookie_allows_colon_in_names": 7308,
      "_new_gnu_trans": 7309,
      "epoch_seconds": 7310,
      "RenameMethodsBase": 7311,
      "SyndicationFeed": 7312,
      "THOUSAND_SEPARATOR": 7313,
      "DefusedXmlException": 7314,
      "_explode_shorthand_ip_string": 7315,
      "translators_comment_start": 7316,
      "+((?:\"[^\"]*?\")|(?:'[^']*?'))": 7317,
      "DEFAULT_ATTACHMENT_MIME_TYPE": 7318,
      "!@": 7319,
      "!`": 7320,
      "\"$": 7321,
      "\"[": 7322,
      "\"{": 7323,
      "\"'.": 7324,
      "\"(?:": 7325,
      "'>": 7326,
      "'('": 7327,
      "'(%": 7328,
      "'>'": 7329,
      "'>',": 7330,
      "'$'": 7331,
      "(,": 7332,
      "(/": 7333,
      ")+": 7334,
      ").'": 7335,
      ").',": 7336,
      "))`": 7337,
      "*(\\": 7338,
      "+.*": 7339,
      "/\"": 7340,
      "/#": 7341,
      "/[": 7342,
      "/',": 7343,
      "03": 7344,
      "09": 7345,
      "0x": 7346,
      "011": 7347,
      "1d": 7348,
      "1123": 7349,
      "21": 7350,
      "26": 7351,
      "2byte": 7352,
      "234": 7353,
      "38": 7354,
      "3rd": 7355,
      "52": 7356,
      "55": 7357,
      "58": 7358,
      "6_address": 7359,
      "79": 7360,
      "94": 7361,
      ":`": 7362,
      ":|": 7363,
      ":]+": 7364,
      ";.": 7365,
      ";`": 7366,
      "=?": 7367,
      "?'": 7368,
      "?`": 7369,
      "An": 7370,
      "Atom": 7371,
      "Bu": 7372,
      "BUS": 7373,
      "Case": 7374,
      "Cur": 7375,
      "Client": 7376,
      "Den": 7377,
      "DARK": 7378,
      "EC": 7379,
      "ELE": 7380,
      "EOL": 7381,
      "F0": 7382,
      "Fri": 7383,
      "Fea": 7384,
      "Fai": 7385,
      "Fast": 7386,
      "GH": 7387,
      "GU": 7388,
      "HO": 7389,
      "Host": 7390,
      "Int": 7391,
      "ILE": 7392,
      "IDI": 7393,
      "JK": 7394,
      "Jul": 7395,
      "Jinja": 7396,
      "LM": 7397,
      "LS": 7398,
      "LC_": 7399,
      "LORS": 7400,
      "Mal": 7401,
      "Next": 7402,
      "NMENTS": 7403,
      "OENT": 7404,
      "PQ": 7405,
      "Pa": 7406,
      "RW": 7407,
      "RST": 7408,
      "SS": 7409,
      "Sl": 7410,
      "So": 7411,
      "Sing": 7412,
      "Sun": 7413,
      "ST_": 7414,
      "Scri": 7415,
      "TS": 7416,
      "Ter": 7417,
      "TE_": 7418,
      "TTO": 7419,
      "TIN_": 7420,
      "Tkinter": 7421,
      "UV": 7422,
      "Wh": 7423,
      "Wed": 7424,
      "Word": 7425,
      "WSER": 7426,
      "With": 7427,
      "XY_": 7428,
      "Y19": 7429,
      "ZATI": 7430,
      "ZONE": 7431,
      "[-": 7432,
      "[[": 7433,
      "[\\": 7434,
      "\\'": 7435,
      "])'": 7436,
      "]?\\": 7437,
      "_2": 7438,
      "_s": 7439,
      "_unpacked": 7440,
      "_out": 7441,
      "_init": 7442,
      "_df": 7443,
      "_DE": 7444,
      "_bytes": 7445,
      "_sys": 7446,
      "_render": 7447,
      "_case": 7448,
      "_close": 7449,
      "_property": 7450,
      "_exclude": 7451,
      "_decode": 7452,
      "_mark_": 7453,
      "_truncate": 7454,
      "_repr": 7455,
      "_limit": 7456,
      "_location": 7457,
      "_range": 7458,
      "_hidden": 7459,
      "_make_": 7460,
      "_import_module": 7461,
      "_start_": 7462,
      "_attachment": 7463,
      "_win": 7464,
      "_dimension": 7465,
      "_content_length": 7466,
      "_current_app": 7467,
      "_missing": 7468,
      "_mutable": 7469,
      "_base_": 7470,
      "_separate": 7471,
      "_renderer": 7472,
      "_templatetags_modules": 7473,
      "_rollback": 7474,
      "_exc_type": 7475,
      "_i18": 7476,
      "_disposition": 7477,
      "_for_model": 7478,
      "_urlconf_module": 7479,
      "_urlize": 7480,
      "_pre_": 7481,
      "_validate_unique": 7482,
      "_DJANGO_": 7483,
      "_js_": 7484,
      "_percent": 7485,
      "_constructor": 7486,
      "_HEADER": 7487,
      "_shells": 7488,
      "_calle": 7489,
      "_producer": 7490,
      "_parse_date": 7491,
      "`\\\\": 7492,
      "`;`": 7493,
      "a2": 7494,
      "a_": 7495,
      "am": 7496,
      "amp": 7497,
      "abo": 7498,
      "ares": 7499,
      "ama": 7500,
      "a_string": 7501,
      "a_list": 7502,
      "ban": 7503,
      "blab": 7504,
      "bly": 7505,
      "c2": 7506,
      "came": 7507,
      "cit": 7508,
      "cture": 7509,
      "cir": 7510,
      "card": 7511,
      "cmatches": 7512,
      "cull_frequency": 7513,
      "cfg": 7514,
      "cPickle": 7515,
      "dc": 7516,
      "dq": 7517,
      "dlen": 7518,
      "ds_": 7519,
      "dtemp": 7520,
      "ev": 7521,
      "eol": 7522,
      "equi": 7523,
      "eight": 7524,
      "f0": 7525,
      "fA": 7526,
      "fr": 7527,
      "fmatch": 7528,
      "fext": 7529,
      "fifth": 7530,
      "gb": 7531,
      "ging": 7532,
      "gument": 7533,
      "gno": 7534,
      "gra": 7535,
      "gold": 7536,
      "hn": 7537,
      "hr": 7538,
      "her": 7539,
      "hits": 7540,
      "hib": 7541,
      "hard": 7542,
      "ia": 7543,
      "ipa": 7544,
      "ico": 7545,
      "jul": 7546,
      "jinja": 7547,
      "k2": 7548,
      "kIter": 7549,
      "kill": 7550,
      "lu": 7551,
      "lon": 7552,
      "ling": 7553,
      "lis": 7554,
      "las": 7555,
      "l_case": 7556,
      "mc": 7557,
      "mask": 7558,
      "mapped_": 7559,
      "nter": 7560,
      "nYou": 7561,
      "npgettext_lazy": 7562,
      "os_": 7563,
      "por": 7564,
      "pdict": 7565,
      "pull": 7566,
      "pression": 7567,
      "rv": 7568,
      "rst": 7569,
      "rindex": 7570,
      "rans": 7571,
      "rgb": 7572,
      "son": 7573,
      "sle": 7574,
      "sof": 7575,
      "ssi": 7576,
      "spar": 7577,
      "sday": 7578,
      "sring": 7579,
      "swap": 7580,
      "tst": 7581,
      "tkinter": 7582,
      "uary": 7583,
      "utime": 7584,
      "umeric": 7585,
      "ucture": 7586,
      "van": 7587,
      "vor": 7588,
      "vcr": 7589,
      "void_": 7590,
      "wm": 7591,
      "wn": 7592,
      "wo": 7593,
      "wind": 7594,
      "x8": 7595,
      "xX": 7596,
      "xs": 7597,
      "xrange": 7598,
      "xbb": 7599,
      "xreadlines": 7600,
      "zbuf": 7601,
      "|\\\\": 7602,
      "}',": 7603,
      "}'.": 7604,
      "}(?": 7605,
      "}(?:": 7606,
      "}:<": 7607,
      "}\\.\\": 7608,
      "those": 7609,
      "inal": 7610,
      "inform": 7611,
      "thelist": 7612,
      "ana": 7613,
      "anumeric": 7614,
      "ster": 7615,
      "stop": 7616,
      "stination": 7617,
      "onto": 7618,
      "onResponse": 7619,
      "see": 7620,
      "seqs": 7621,
      "seven": 7622,
      "rever": 7623,
      "refo": 7624,
      "ret_": 7625,
      "restart": 7626,
      "ardIn": 7627,
      "alist": 7628,
      "align": 7629,
      "alph": 7630,
      "alties": 7631,
      "or_name": 7632,
      "tick": 7633,
      "titem": 7634,
      "tically": 7635,
      "ntrans": 7636,
      "dead": 7637,
      "ley": 7638,
      "leter": 7639,
      "leap": 7640,
      "mentNode": 7641,
      "with_meta": 7642,
      "such": 7643,
      "sums": 7644,
      "tupl": 7645,
      "tually": 7646,
      "forwar": 7647,
      "and_files": 7648,
      "isdir": 7649,
      "isleap": 7650,
      "unction": 7651,
      "unknown": 7652,
      "unused_": 7653,
      "unmigrated": 7654,
      "unbound_function": 7655,
      "unkIter": 7656,
      "er_": 7657,
      "strsq": 7658,
      "strong": 7659,
      "str_hidden": 7660,
      "strdq": 7661,
      "ifies": 7662,
      "center": 7663,
      "methods": 7664,
      "method_decorator": 7665,
      "valent": 7666,
      "atter": 7667,
      "substr": 7668,
      "subgroup": 7669,
      "submod": 7670,
      "subwidgets": 7671,
      "subdirectories": 7672,
      "submitted": 7673,
      "lit": 7674,
      "light": 7675,
      "liseconds": 7676,
      "lities": 7677,
      "resultType": 7678,
      "fic": 7679,
      "gen_": 7680,
      "did": 7681,
      "cond": 7682,
      "contra": 7683,
      "name2": 7684,
      "funtion": 7685,
      "itself": 7686,
      "cover": 7687,
      "cols": 7688,
      "nov": 7689,
      "note": 7690,
      "noargs": 7691,
      "setLevel": 7692,
      "__import": 7693,
      "__py": 7694,
      "__dir": 7695,
      "__version": 7696,
      "__html": 7697,
      "__del": 7698,
      "__hash": 7699,
      "__loaded_": 7700,
      "__mro": 7701,
      "elif": 7702,
      "very": 7703,
      "aug": 7704,
      "getting": 7705,
      "getMessage": 7706,
      "gettempdir": 7707,
      "getpid": 7708,
      "ctx": 7709,
      "cting": 7710,
      "love": 7711,
      "located": 7712,
      "one_percent": 7713,
      "terrup": 7714,
      "teria": 7715,
      "apr": 7716,
      "d_time": 7717,
      "d_cls": 7718,
      "d_for_": 7719,
      "d_from_": 7720,
      "d_modules": 7721,
      "d_operations": 7722,
      "sively": 7723,
      "sized": 7724,
      "boardIn": 7725,
      "default_value": 7726,
      "default_data": 7727,
      "fileobj": 7728,
      "file_dict": 7729,
      "text_value": 7730,
      "text_pos": 7731,
      "radi": 7732,
      "base62": 7733,
      "baseconv": 7734,
      "form_field": 7735,
      "form_error": 7736,
      "moval": 7737,
      "spam": 7738,
      "parate": 7739,
      "parsing": 7740,
      "partial": 7741,
      "esday": 7742,
      "underscore": 7743,
      "undersco": 7744,
      "booleans": 7745,
      "boolean_attrs": 7746,
      "args_check": 7747,
      "ErrorDict": 7748,
      "byref": 7749,
      "by_prefix": 7750,
      "installing": 7751,
      "obj_list": 7752,
      "neth": 7753,
      "quan": 7754,
      "django_po": 7755,
      "attrs_": 7756,
      "path_override": 7757,
      "dog": 7758,
      "dom": 7759,
      "doy": 7760,
      "docs": 7761,
      "do_trans": 7762,
      "igh": 7763,
      "code_changed": 7764,
      "cast_": 7765,
      "enable": 7766,
      "encoder": 7767,
      "serve": 7768,
      "ser_fmts": 7769,
      "'./": 7770,
      "fieldname": 7771,
      "fields_": 7772,
      "bul": 7773,
      "modulename": 7774,
      "modules_": 7775,
      "hest": 7776,
      "msvcr": 7777,
      "get_data": 7778,
      "get_cache": 7779,
      "get_migration": 7780,
      "get_serializer": 7781,
      "get_urlconf": 7782,
      "get_host": 7783,
      "get_mod": 7784,
      "get_available": 7785,
      "get_complete": 7786,
      "get_field_type": 7787,
      "get_renderer": 7788,
      "get_templatetags_modules": 7789,
      "get_script_name": 7790,
      "get_wsgi_application": 7791,
      "get_migration_": 7792,
      "get_fqdn": 7793,
      "get_json_data": 7794,
      "get_ns_resolver": 7795,
      "get_unbound_function": 7796,
      "get_form_error": 7797,
      "acquire": 7798,
      "date_data": 7799,
      "errorlist": 7800,
      "typecast_": 7801,
      "ulong": 7802,
      "ul_renderer": 7803,
      "all_files": 7804,
      "outdict": 7805,
      "outbox": 7806,
      "created_time": 7807,
      "firs": 7808,
      "opment": 7809,
      "first_item": 7810,
      "colon": 7811,
      "proces": 7812,
      "prohib": 7813,
      "sionWarning": 7814,
      "charrefs": 7815,
      "contains_": 7816,
      "s_available": 7817,
      "s_correctly": 7818,
      "pylib": 7819,
      "newretval": 7820,
      "feb": 7821,
      "feature": 7822,
      "curs": 7823,
      "contextlib": 7824,
      "context_re": 7825,
      "context_data": 7826,
      "app_output": 7827,
      "First": 7828,
      "perl": 7829,
      "\",\"": 7830,
      "init_path": 7831,
      "posix": 7832,
      "pot_": 7833,
      "template_cache": 7834,
      "tag_function": 7835,
      "tags_re": 7836,
      "tags_available": 7837,
      "fix_location": 7838,
      "fixer_": 7839,
      "indexed": 7840,
      "handle_data": 7841,
      "parser_class": 7842,
      "ableFile": 7843,
      "Nov": 7844,
      "Internal": 7845,
      "dict1": 7846,
      "var3": 7847,
      "varlist": 7848,
      "label_output": 7849,
      "label_for": 7850,
      "al_field": 7851,
      "ild": 7852,
      "saving": 7853,
      "content_disposition": 7854,
      "bed": 7855,
      "beautiful": 7856,
      "beef": 7857,
      "nodeType": 7858,
      "node_class": 7859,
      "nodeName": 7860,
      "component": 7861,
      "completer": 7862,
      "number_": 7863,
      "number_value": 7864,
      "cache__": 7865,
      "cache_info": 7866,
      "univer": 7867,
      "to_delete": 7868,
      "model_name": 7869,
      "model_to_": 7870,
      "model_label": 7871,
      "filter_re": 7872,
      "filter_function": 7873,
      "connect": 7874,
      "E_PATH": 7875,
      "remove_pot": 7876,
      "hell": 7877,
      "funcname": 7878,
      "dfmt": 7879,
      "force_grouping": 7880,
      "connection_class": 7881,
      "connection_params": 7882,
      "T_NAME": 7883,
      "cessive": 7884,
      "is_seri": 7885,
      "is_library": 7886,
      "is_not_": 7887,
      "is_ignored": 7888,
      "is_checked": 7889,
      "is_compressed": 7890,
      "is_secure": 7891,
      "add_filters": 7892,
      "add_post_": 7893,
      "write_message": 7894,
      "DED_HOST": 7895,
      "DEBUS": 7896,
      "item_type": 7897,
      "request_moved_attributes": 7898,
      "Expression": 7899,
      "Removing": 7900,
      "startup": 7901,
      "maximal": 7902,
      "FieldError": 7903,
      "myfunction": 7904,
      "whilst": 7905,
      "tablenames": 7906,
      "table_end": 7907,
      "helptext": 7908,
      "error_text": 7909,
      "error_moved_attributes": 7910,
      "Concaten": 7911,
      "int2byte": 7912,
      "Base36": 7913,
      "safe_data": 7914,
      "using_sys": 7915,
      "unicode_value": 7916,
      "migration_files": 7917,
      "MESS": 7918,
      "ValueNotFound": 7919,
      "parse_name": 7920,
      "regex_match": 7921,
      "command_class": 7922,
      "commands_only": 7923,
      "splitlines": 7924,
      "eak": 7925,
      "response_headers": 7926,
      "response_moved_attributes": 7927,
      "INTERN": 7928,
      "INOTI": 7929,
      "escapes": 7930,
      "new_result": 7931,
      "new_args": 7932,
      "new_date": 7933,
      "new_option": 7934,
      "new_errors": 7935,
      "new_environ": 7936,
      "new_modules": 7937,
      "new_operations": 7938,
      "new_second_item": 7939,
      "assignment": 7940,
      "creating": 7941,
      "clusion": 7942,
      "html_": 7943,
      "render_options": 7944,
      "render_node": 7945,
      "prefix_args": 7946,
      "_list_cache": 7947,
      "zyx": 7948,
      "mailhost": 7949,
      "use_func": 7950,
      "use_threading": 7951,
      "use_work": 7952,
      "inputs": 7953,
      "input_attrs": 7954,
      "manent": 7955,
      "serialized": 7956,
      "header_names": 7957,
      "DjangoTranslation": 7958,
      "DjangoRuntimeWarning": 7959,
      "TemplateEncoding": 7960,
      "transform": 7961,
      "TEC": 7962,
      "TEST": 7963,
      "TED_": 7964,
      "TEM_": 7965,
      "TEST_": 7966,
      "count2": 7967,
      "Device": 7968,
      "Destination": 7969,
      "id_attr": 7970,
      "id_attrs": 7971,
      "raw_input": 7972,
      "finding": 7973,
      "findall": 7974,
      "ARGU": 7975,
      "mins": 7976,
      "scatter": 7977,
      "FAILE": 7978,
      "copystat": 7979,
      "denied": 7980,
      "FileOperation": 7981,
      "FilePath": 7982,
      "databases": 7983,
      "timezone_name": 7984,
      "app_labels_only": 7985,
      "NotUse": 7986,
      "monkey": 7987,
      "wrapped": 7988,
      "penalties": 7989,
      "favor": 7990,
      "order_": 7991,
      "DEFAULT_MAX_NUM": 7992,
      "DictWrapper": 7993,
      "variable_node": 7994,
      "pkg_name": 7995,
      "scrip": 7996,
      "makemigrations": 7997,
      "LoD": 7998,
      "READ": 7999,
      "REAS": 8000,
      "httpd_cls": 8001,
      "abort": 8002,
      "re_chars": 8003,
      "_cache_": 8004,
      "_cache_header": 8005,
      "groupid": 8006,
      "Unrecognized": 8007,
      "day_none_value": 8008,
      "dig1": 8009,
      "dig2": 8010,
      "max_decimal_places": 8011,
      "max_whole_digits": 8012,
      "`[['": 8013,
      "must_": 8014,
      "clean_data": 8015,
      "st_mode": 8016,
      "excluded_models": 8017,
      "encodes_correctly": 8018,
      "TION_FIELD_": 8019,
      "startDocument": 8020,
      "callback_args": 8021,
      "callback_kwargs": 8022,
      "More": 8023,
      "changed_data": 8024,
      "ERATOR": 8025,
      "resolve_context": 8026,
      "resolve_error_": 8027,
      "resolve_variable": 8028,
      "month_field": 8029,
      "month_none_value": 8030,
      "reversed_text": 8031,
      "default_settings": 8032,
      "default_attrs": 8033,
      "default_timeout": 8034,
      "queryresult": 8035,
      "icy": 8036,
      "view_type": 8037,
      "view_path": 8038,
      "processing": 8039,
      "session": 8040,
      "year_none_value": 8041,
      "signmentNode": 8042,
      "ENOENT": 8043,
      "_format_value": 8044,
      "embed": 8045,
      "intersection": 8046,
      "current_number": 8047,
      "current_version": 8048,
      "CacheInfo": 8049,
      "CacheEntry": 8050,
      "parent_": 8051,
      "FILE": 8052,
      "_func_code": 8053,
      "_func_globals": 8054,
      "Encode": 8055,
      "sources": 8056,
      "204": 8057,
      "2013": 8058,
      "KeyboardIn": 8059,
      "(?:\\.": 8060,
      "users": 8061,
      "\"%%(%": 8062,
      "1900": 8063,
      "small": 8064,
      "handle_label": 8065,
      "handle_noargs": 8066,
      "handle_raw_input": 8067,
      "parse_bits": 8068,
      "parse_http_date": 8069,
      "parse_moved_attributes": 8070,
      "middleware_decorator": 8071,
      "old_path": 8072,
      "initial_id": 8073,
      "_get_page": 8074,
      "_get_scheme": 8075,
      "_get_timezone_name": 8076,
      "_to_charset": 8077,
      "for_gettext": 8078,
      "valid_value": 8079,
      "valid_ide": 8080,
      "overflow": 8081,
      "over_bytes": 8082,
      "64_DE": 8083,
      "has_leading_dir": 8084,
      "has_bz2": 8085,
      "has_new_option": 8086,
      "TimeFormat": 8087,
      "ted_hmac": 8088,
      "expressions": 8089,
      "template_tuple": 8090,
      "RemovedInNext": 8091,
      "strip_entities": 8092,
      "PYTH": 8093,
      "ing_groups": 8094,
      "clear_template": 8095,
      "struct": 8096,
      "urlconf_repr": 8097,
      "load_handler": 8098,
      "load_command_class": 8099,
      "CHO": 8100,
      "_ALT": 8101,
      "quote_": 8102,
      "ccc": 8103,
      "TextField": 8104,
      "UND": 8105,
      "namespace_dict": 8106,
      "from_digits": 8107,
      "positions": 8108,
      "positional": 8109,
      "Structure": 8110,
      "URI": 8111,
      "URCE": 8112,
      "Separate": 8113,
      "placeholder": 8114,
      "logger_config": 8115,
      "truncate_text": 8116,
      "truncated_text": 8117,
      "list_a": 8118,
      "list_of": 8119,
      "list_length": 8120,
      "set_urlconf": 8121,
      "set_cookie": 8122,
      "set_many": 8123,
      "set_script_prefix": 8124,
      "file_obj": 8125,
      "file_field_list": 8126,
      "create_var": 8127,
      "create_table": 8128,
      "create_nodelist": 8129,
      "create_select": 8130,
      "create_variable_node": 8131,
      "sql_file": 8132,
      "sql_all": 8133,
      "CheckCommand": 8134,
      "lookup_str": 8135,
      "FORWAR": 8136,
      "ROWSER": 8137,
      "Star": 8138,
      "USR": 8139,
      "repr_attr": 8140,
      "represent_": 8141,
      "validate_domain_part": 8142,
      "validate_ipv6_address": 8143,
      "merged_operations": 8144,
      "HttpResponseBase": 8145,
      "HttpResponseBad": 8146,
      "NODE": 8147,
      "Update": 8148,
      "nontext": 8149,
      "invalid_list": 8150,
      "invalid_apps": 8151,
      "invalid_image": 8152,
      "invalid_pk_value": 8153,
      "invalid_block_tag": 8154,
      "cache_get": 8155,
      "cache_suffix": 8156,
      "ugField": 8157,
      "validator_map": 8158,
      "CONF": 8159,
      "EmailField": 8160,
      "EmailValidator": 8161,
      "as_p": 8162,
      "smart_split": 8163,
      "smart_urlquote": 8164,
      "ContextDict": 8165,
      "urllib_parse": 8166,
      "FORMAT_": 8167,
      "dup2": 8168,
      "AGE": 8169,
      "AGES": 8170,
      "somekey": 8171,
      "somefile": 8172,
      "some_string": 8173,
      "some_command": 8174,
      "m2m_value": 8175,
      "template_name_list": 8176,
      "find_commands": 8177,
      "cookiedict": 8178,
      "cookie_date": 8179,
      "S_DEPRECATED_LOCALES": 8180,
      "salted_hmac": 8181,
      "InvalidPage": 8182,
      "[^\\": 8183,
      "[^'\\\\": 8184,
      "[^\"\\\\": 8185,
      "lst2": 8186,
      "schema": 8187,
      "your_": 8188,
      "yourdata": 8189,
      "RegexField": 8190,
      "10000": 8191,
      "MAIN": 8192,
      "check_programs": 8193,
      "split_url": 8194,
      "SimpleUploadedFile": 8195,
      "ddd": 8196,
      "mime_encode": 8197,
      "mime_attachment": 8198,
      "})\".": 8199,
      "system_id": 8200,
      "ABBR": 8201,
      "]*(?:": 8202,
      "]*$'": 8203,
      "]*)*": 8204,
      "no_color": 8205,
      "hashvalue": 8206,
      "make_middleware_decorator": 8207,
      "HELP": 8208,
      "LANG_INFO": 8209,
      "RASES": 8210,
      "media_attrs": 8211,
      "pop_context": 8212,
      "decimal_digits": 8213,
      "decimal_separator": 8214,
      "USE_INOTI": 8215,
      "+)\\": 8216,
      "ChunkIter": 8217,
      "Thu": 8218,
      "utcnow": 8219,
      "begins": 8220,
      "LoaderOrigin": 8221,
      "ugettext_noop": 8222,
      "MIMEMessage": 8223,
      "ipv4_unpacked": 8224,
      "2_date": 8225,
      "MOVE": 8226,
      "save_new": 8227,
      "'([": 8228,
      "...": 8229,
      "...\",": 8230,
      "...',": 8231,
      "Argument": 8232,
      "value_encode": 8233,
      "value_expr": 8234,
      "document": 8235,
      "num_bytes": 8236,
      "num_entries": 8237,
      "num_sent": 8238,
      "transaction_sql": 8239,
      "3434": 8240,
      "='{}": 8241,
      "flag": 8242,
      "inner_html": 8243,
      "inner_args": 8244,
      "inner_run": 8245,
      "inner_result": 8246,
      "tensor": 8247,
      "exit_command": 8248,
      "entire": 8249,
      "entific": 8250,
      "db_datetime": 8251,
      "captur": 8252,
      "squares": 8253,
      "combining": 8254,
      "compile_filter_error": 8255,
      "stackoverflow": 8256,
      "'*'.": 8257,
      "again": 8258,
      "applying": 8259,
      "localize_input": 8260,
      "ON_PH": 8261,
      "ON_MODUL": 8262,
      "language_code_re": 8263,
      "custom_sql": 8264,
      "MENT_SEPARATOR": 8265,
      "DefaultStorage": 8266,
      "ILTIN_": 8267,
      "rules": 8268,
      "closing_": 8269,
      "end_tag": 8270,
      "end_text_pos": 8271,
      "module_values": 8272,
      "migration_names": 8273,
      "process_all": 8274,
      "available_attrs": 8275,
      "available_shells": 8276,
      "stream_or_iterable": 8277,
      "BUILTIN_": 8278,
      "bilities": 8279,
      "remainder": 8280,
      "filepath_to_uri": 8281,
      "build": 8282,
      "comma_separate": 8283,
      "graphic": 8284,
      "LazyStream": 8285,
      "ASSIG": 8286,
      "Problem": 8287,
      "_BASE": 8288,
      "_BROWSER": 8289,
      "pk_is_not_": 8290,
      "products": 8291,
      "allow_migrate": 8292,
      "allow_multiple_": 8293,
      "lookup_view_s": 8294,
      "LibraryValueNotFound": 8295,
      "WSGIHandler": 8296,
      "_fields_": 8297,
      "toktext": 8298,
      "subcommand_cls": 8299,
      "_post_clean": 8300,
      "']',": 8301,
      "']]`": 8302,
      "Running": 8303,
      "importlib_find": 8304,
      "needs": 8305,
      "templatetag_module": 8306,
      "filter_raw_string": 8307,
      "printing": 8308,
      "build_instance": 8309,
      "build_request_repr": 8310,
      "candidates": 8311,
      "256": 8312,
      "2002": 8313,
      "2005": 8314,
      "365": 8315,
      "Here": 8316,
      "IfNode": 8317,
      "IfEqual": 8318,
      "wasn": 8319,
      "missing_fields": 8320,
      "CookieError": 8321,
      ".*)": 8322,
      "bbb": 8323,
      "assertRegex": 8324,
      "assertRaisesRegex": 8325,
      "buf_size": 8326,
      "uploadhandler": 8327,
      "post_data": 8328,
      "post_date": 8329,
      "post_parse_error": 8330,
      "post_and_files": 8331,
      "Module_six_moves_urllib_error": 8332,
      "Module_six_moves_urllib_parse": 8333,
      "BadSerializer": 8334,
      "X_FORWAR": 8335,
      "b64encode": 8336,
      "b64_encode": 8337,
      "thenti": 8338,
      "Translat": 8339,
      "FilterExpression": 8340,
      "extension_map": 8341,
      "selected_html": 8342,
      "CACHE_MAX_": 8343,
      "crate": 8344,
      "max_value_expr": 8345,
      "conditional_content_re": 8346,
      "ArchiveException": 8347,
      "ArchiveFormat": 8348,
      "PROXY_": 8349,
      "bigdict": 8350,
      "biggest": 8351,
      "biggest_": 8352,
      "relational_field": 8353,
      "TIME_ZONE": 8354,
      "ModelFormMetaclass": 8355,
      "nodelist_true_output": 8356,
      "configure_filter": 8357,
      "configure_root": 8358,
      "configure_logger": 8359,
      "Feb": 8360,
      "atom": 8361,
      "c_void_": 8362,
      "c_ulong": 8363,
      "non_atomic": 8364,
      "non_captur": 8365,
      "lexico": 8366,
      "urlquote_plus": 8367,
      "ignore_failures": 8368,
      "Charset": 8369,
      "templatetags_modules_": 8370,
      "FOUND": 8371,
      "NullBooleanField": 8372,
      "NullDevice": 8373,
      "_is_expired": 8374,
      "_urllib_robotparser": 8375,
      "_urllib_request_moved_attributes": 8376,
      "_urllib_error_moved_attributes": 8377,
      "_urllib_response_moved_attributes": 8378,
      "_urllib_parse_moved_attributes": 8379,
      "large": 8380,
      "not_installed_models": 8381,
      "bytes_read": 8382,
      "HTTP_HOST": 8383,
      "CONTENT": 8384,
      "1_6": 8385,
      "1_7": 8386,
      "guess": 8387,
      "ical_": 8388,
      "tmp_path": 8389,
      "err_exc_type": 8390,
      "accessor_name": 8391,
      "cached_loaders": 8392,
      "delete_many": 8393,
      "emitting": 8394,
      "emit_pre_": 8395,
      "color_setting": 8396,
      "CheckboxChoiceInput": 8397,
      "possibility": 8398,
      "possibilities": 8399,
      "PATH_INFO": 8400,
      "'{%": 8401,
      "BASE62": 8402,
      "May": 8403,
      "_set_regex": 8404,
      "_set_choices": 8405,
      "_set_response_": 8406,
      "_create_message": 8407,
      "_create_attachments": 8408,
      "_create_mime_attachment": 8409,
      "fnmatch": 8410,
      "simple_url_re": 8411,
      "sed_time": 8412,
      "tried_modules": 8413,
      "do_ifequal": 8414,
      "do_ntrans": 8415,
      "var_chars": 8416,
      "item_attributes": 8417,
      "widget_value": 8418,
      "plural_suffix": 8419,
      "MODULE_PATH": 8420,
      "target_dir": 8421,
      "target_app_labels_only": 8422,
      "alphabetically": 8423,
      "NumberAware": 8424,
      "SuspiciousMultipart": 8425,
      "SuspiciousFileOperation": 8426,
      "best_doublecolon_end": 8427,
      "Manager": 8428,
      "aaab": 8429,
      "cmp_fmts": 8430,
      "get_default_prefix": 8431,
      "checkbox_id": 8432,
      "symlink_": 8433,
      "modified": 8434,
      "rfc282": 8435,
      ".*?%": 8436,
      "CONTENT_LENGTH": 8437,
      "DJANGO_CO": 8438,
      "BOOL": 8439,
      "OPERATOR": 8440,
      "_convert_to_charset": 8441,
      "_LazyDes": 8442,
      "sub_match_dict": 8443,
      "ENGINE": 8444,
      "disabled": 8445,
      "common_logger_config": 8446,
      "supported_code": 8447,
      "original_lookup": 8448,
      "flatten_result": 8449,
      "KEY_LENGTH": 8450,
      "KEY_PREFIX": 8451,
      "populated": 8452,
      "99999": 8453,
      "MONTHS_ALT": 8454,
      "'|'": 8455,
      "OptionParser": 8456,
      "_object_dict": 8457,
      "_load_post_and_files": 8458,
      "dont": 8459,
      "mkdtemp": 8460,
      "u20ac": 8461,
      "u2022": 8462,
      "bound_data": 8463,
      "escaper": 8464,
      "symbols": 8465,
      "DELETION_FIELD_": 8466,
      "last_bit": 8467,
      "compile_function_error": 8468,
      "MemoryFileUploadHandler": 8469,
      "show_traceback": 8470,
      "events": 8471,
      "event_stream": 8472,
      "EMPTY_VALUES": 8473,
      "guessed_path": 8474,
      "DATE_FORMAT": 8475,
      "ImageField": 8476,
      "SubWidget": 8477,
      "TALL": 8478,
      "_requests": 8479,
      "_assertRegex": 8480,
      "_assertRaisesRegex": 8481,
      "_assertCountEqual": 8482,
      "_read_limited": 8483,
      "`/`": 8484,
      "etag_str": 8485,
      "justify": 8486,
      "sha1": 8487,
      "shape": 8488,
      "sha256": 8489,
      "sub_widgets": 8490,
      "sub_tried": 8491,
      "sub_ul_renderer": 8492,
      "Country": 8493,
      "directory_created": 8494,
      "CODE_ERROR": 8495,
      "source_error": 8496,
      "validate_ipv46_address": 8497,
      "logging_settings": 8498,
      "ADDRES": 8499,
      "squared": 8500,
      "candidate_pat": 8501,
      "lexer_class": 8502,
      "loaded_objects_in_fixture": 8503,
      "SSL_HEADER": 8504,
      "TestCase": 8505,
      "ZERS": 8506,
      "_populated": 8507,
      "criteria": 8508,
      "elemetns": 8509,
      "minimal": 8510,
      "recursively": 8511,
      "alters_data": 8512,
      "successive": 8513,
      "fill_to": 8514,
      "admins": 8515,
      "latest_post_date": 8516,
      "get_template_sources": 8517,
      "opt_label": 8518,
      "optimizer": 8519,
      "DeclHandler": 8520,
      "_reset_dicts": 8521,
      "registered": 8522,
      "'::'": 8523,
      "'::',": 8524,
      "Entity": 8525,
      "HttpResponseNotModified": 8526,
      "HttpResponseNotAllow": 8527,
      "child_loggers": 8528,
      "SIGTTO": 8529,
      "print_help": 8530,
      "MONTHS_AP": 8531,
      "ALLOWED_": 8532,
      "DOTALL": 8533,
      "January": 8534,
      "SMTPException": 8535,
      "VersionWarning": 8536,
      "_exception_middleware": 8537,
      "_handler_class": 8538,
      "_generate_cache_header": 8539,
      "_cookie_encodes_correctly": 8540,
      "guid": 8541,
      "guid_attrs": 8542,
      "js_for_gettext": 8543,
      "link_next": 8544,
      "link_prev": 8545,
      "milliseconds": 8546,
      "this_value_expr": 8547,
      "thousands": 8548,
      "real_datetime": 8549,
      "references_to_delete": 8550,
      "altzone": 8551,
      "contanied": 8552,
      "convert_old_style_list": 8553,
      "convert_charrefs": 8554,
      "write_migration_files": 8555,
      "_reverse_with": 8556,
      "sorted_items": 8557,
      "only_django": 8558,
      "saved_instances": 8559,
      "RadioChoiceInput": 8560,
      "Translations": 8561,
      "modified_time": 8562,
      "MAX_NUM_FORM_COUNT": 8563,
      "MiddlewareNotUse": 8564,
      "FASTCGI_HELP": 8565,
      "WEEKDAYS": 8566,
      "(.+)": 8567,
      "8859_1": 8568,
      "Joe": 8569,
      "Join": 8570,
      "JsLexer": 8571,
      "JsonResponse": 8572,
      "LPOVERLAPPED": 8573,
      "PORT": 8574,
      "PORTED": 8575,
      "RssFeed": 8576,
      "_meth_func": 8577,
      "_meth_self": 8578,
      "_createdir": 8579,
      "_create_cache": 8580,
      "_findall": 8581,
      "brown": 8582,
      "browser": 8583,
      "mixed": 8584,
      "u044": 8585,
      "inspection": 8586,
      "inspect": 8587,
      "argumen": 8588,
      "module_to_dict": 8589,
      "module_to_search": 8590,
      "_func_defaults": 8591,
      "_func_closure": 8592,
      "user_setting": 8593,
      "user_settings": 8594,
      "auth_user": 8595,
      "auth_password": 8596,
      "both_after": 8597,
      "both_before": 8598,
      "server_port": 8599,
      "server_bind": 8600,
      "sequence_sql": 8601,
      "DIRS": 8602,
      "trans_bit": 8603,
      "construct_instance_exclude": 8604,
      "prepare_js_for_gettext": 8605,
      "synchronize": 8606,
      "synchronization": 8607,
      "DisallowedRedirect": 8608,
      "DisallowedHost": 8609,
      "plural_form_line": 8610,
      "plural_forms_re": 8611,
      "i18n_close": 8612,
      "i18n_open": 8613,
      "public_id": 8614,
      "logging_config_func": 8615,
      "FILTER_SEPARATOR": 8616,
      "FILTER_ARGU": 8617,
      "CommentWarning": 8618,
      "MIN_NUM_FORM_COUNT": 8619,
      "Searching": 8620,
      "SERIALIZATI": 8621,
      "SERIALIZERS": 8622,
      "#$%": 8623,
      "+|#\\": 8624,
      "GET_override": 8625,
      "Mark": 8626,
      "N_SO": 8627,
      "Specifies": 8628,
      "Web": 8629,
      "_update_errors": 8630,
      "hyper": 8631,
      "redirect_to": 8632,
      "value_to_db_datetime": 8633,
      "interesting": 8634,
      "heading": 8635,
      "accessed_time": 8636,
      "format_locations": 8637,
      "mail_admins": 8638,
      "scientific": 8639,
      "literal_match": 8640,
      "close_called": 8641,
[...]
